{
  "version": "1.0",
  "truncation": null,
  "padding": null,
  "added_tokens": [
    {
      "id": 0,
      "content": "<|endoftext|>",
      "single_word": false,
      "lstrip": false,
      "rstrip": false,
      "normalized": false,
      "special": true
    }
  ],
  "normalizer": null,
  "pre_tokenizer": {
    "type": "ByteLevel",
    "add_prefix_space": false,
    "trim_offsets": true,
    "use_regex": true
  },
  "post_processor": null,
  "decoder": {
    "type": "ByteLevel",
    "add_prefix_space": true,
    "trim_offsets": true,
    "use_regex": true
  },
  "model": {
    "type": "BPE",
    "dropout": null,
    "unk_token": null,
    "continuing_subword_prefix": null,
    "end_of_word_suffix": null,
    "fuse_unk": false,
    "byte_fallback": false,
    "ignore_merges": false,
    "vocab": {
      "<|endoftext|>": 0,
      "!": 1,
      "\"": 2,
      "#": 3,
      "$": 4,
      "%": 5,
      "&": 6,
      "'": 7,
      "(": 8,
      ")": 9,
      "*": 10,
      "+": 11,
      ",": 12,
      "-": 13,
      ".": 14,
      "/": 15,
      "0": 16,
      "1": 17,
      "2": 18,
      "3": 19,
      "4": 20,
      "5": 21,
      "6": 22,
      "7": 23,
      "8": 24,
      "9": 25,
      ":": 26,
      ";": 27,
      "<": 28,
      "=": 29,
      ">": 30,
      "?": 31,
      "@": 32,
      "A": 33,
      "B": 34,
      "C": 35,
      "D": 36,
      "E": 37,
      "F": 38,
      "G": 39,
      "H": 40,
      "I": 41,
      "J": 42,
      "K": 43,
      "L": 44,
      "M": 45,
      "N": 46,
      "O": 47,
      "P": 48,
      "Q": 49,
      "R": 50,
      "S": 51,
      "T": 52,
      "U": 53,
      "V": 54,
      "W": 55,
      "X": 56,
      "Y": 57,
      "Z": 58,
      "[": 59,
      "\\": 60,
      "]": 61,
      "^": 62,
      "_": 63,
      "`": 64,
      "a": 65,
      "b": 66,
      "c": 67,
      "d": 68,
      "e": 69,
      "f": 70,
      "g": 71,
      "h": 72,
      "i": 73,
      "j": 74,
      "k": 75,
      "l": 76,
      "m": 77,
      "n": 78,
      "o": 79,
      "p": 80,
      "q": 81,
      "r": 82,
      "s": 83,
      "t": 84,
      "u": 85,
      "v": 86,
      "w": 87,
      "x": 88,
      "y": 89,
      "z": 90,
      "{": 91,
      "|": 92,
      "}": 93,
      "~": 94,
      "¡": 95,
      "¢": 96,
      "£": 97,
      "¤": 98,
      "¥": 99,
      "¦": 100,
      "§": 101,
      "¨": 102,
      "©": 103,
      "ª": 104,
      "«": 105,
      "¬": 106,
      "®": 107,
      "¯": 108,
      "°": 109,
      "±": 110,
      "²": 111,
      "³": 112,
      "´": 113,
      "µ": 114,
      "¶": 115,
      "·": 116,
      "¸": 117,
      "¹": 118,
      "º": 119,
      "»": 120,
      "¼": 121,
      "½": 122,
      "¾": 123,
      "¿": 124,
      "À": 125,
      "Á": 126,
      "Â": 127,
      "Ã": 128,
      "Ä": 129,
      "Å": 130,
      "Æ": 131,
      "Ç": 132,
      "È": 133,
      "É": 134,
      "Ê": 135,
      "Ë": 136,
      "Ì": 137,
      "Í": 138,
      "Î": 139,
      "Ï": 140,
      "Ð": 141,
      "Ñ": 142,
      "Ò": 143,
      "Ó": 144,
      "Ô": 145,
      "Õ": 146,
      "Ö": 147,
      "×": 148,
      "Ø": 149,
      "Ù": 150,
      "Ú": 151,
      "Û": 152,
      "Ü": 153,
      "Ý": 154,
      "Þ": 155,
      "ß": 156,
      "à": 157,
      "á": 158,
      "â": 159,
      "ã": 160,
      "ä": 161,
      "å": 162,
      "æ": 163,
      "ç": 164,
      "è": 165,
      "é": 166,
      "ê": 167,
      "ë": 168,
      "ì": 169,
      "í": 170,
      "î": 171,
      "ï": 172,
      "ð": 173,
      "ñ": 174,
      "ò": 175,
      "ó": 176,
      "ô": 177,
      "õ": 178,
      "ö": 179,
      "÷": 180,
      "ø": 181,
      "ù": 182,
      "ú": 183,
      "û": 184,
      "ü": 185,
      "ý": 186,
      "þ": 187,
      "ÿ": 188,
      "Ā": 189,
      "ā": 190,
      "Ă": 191,
      "ă": 192,
      "Ą": 193,
      "ą": 194,
      "Ć": 195,
      "ć": 196,
      "Ĉ": 197,
      "ĉ": 198,
      "Ċ": 199,
      "ċ": 200,
      "Č": 201,
      "č": 202,
      "Ď": 203,
      "ď": 204,
      "Đ": 205,
      "đ": 206,
      "Ē": 207,
      "ē": 208,
      "Ĕ": 209,
      "ĕ": 210,
      "Ė": 211,
      "ė": 212,
      "Ę": 213,
      "ę": 214,
      "Ě": 215,
      "ě": 216,
      "Ĝ": 217,
      "ĝ": 218,
      "Ğ": 219,
      "ğ": 220,
      "Ġ": 221,
      "ġ": 222,
      "Ģ": 223,
      "ģ": 224,
      "Ĥ": 225,
      "ĥ": 226,
      "Ħ": 227,
      "ħ": 228,
      "Ĩ": 229,
      "ĩ": 230,
      "Ī": 231,
      "ī": 232,
      "Ĭ": 233,
      "ĭ": 234,
      "Į": 235,
      "į": 236,
      "İ": 237,
      "ı": 238,
      "Ĳ": 239,
      "ĳ": 240,
      "Ĵ": 241,
      "ĵ": 242,
      "Ķ": 243,
      "ķ": 244,
      "ĸ": 245,
      "Ĺ": 246,
      "ĺ": 247,
      "Ļ": 248,
      "ļ": 249,
      "Ľ": 250,
      "ľ": 251,
      "Ŀ": 252,
      "ŀ": 253,
      "Ł": 254,
      "ł": 255,
      "Ń": 256,
      "Ġt": 257,
      "Ġa": 258,
      "he": 259,
      "Ġs": 260,
      "Ġw": 261,
      "nd": 262,
      "Ġth": 263,
      "ed": 264,
      "Ġb": 265,
      "Ġand": 266,
      "in": 267,
      "Ġh": 268,
      "Ġto": 269,
      "er": 270,
      "Ġwa": 271,
      "Ġf": 272,
      "it": 273,
      "Ġl": 274,
      "Ġm": 275,
      "ar": 276,
      "ĠT": 277,
      "Ġc": 278,
      "Ġd": 279,
      "ou": 280,
      "Ġhe": 281,
      "Ġp": 282,
      "om": 283,
      "Ġwas": 284,
      "il": 285,
      "Ġo": 286,
      "en": 287,
      "ing": 288,
      "ay": 289,
      "ĠS": 290,
      "re": 291,
      "at": 292,
      "Ġg": 293,
      "is": 294,
      "id": 295,
      "Ġn": 296,
      "ad": 297,
      "Ġthe": 298,
      "im": 299,
      "le": 300,
      "Ġbe": 301,
      "an": 302,
      "or": 303,
      "Ġsa": 304,
      "on": 305,
      "ow": 306,
      "ll": 307,
      "Ġit": 308,
      "ĠH": 309,
      "ot": 310,
      "Ġ\"": 311,
      "ver": 312,
      "ĠThe": 313,
      "et": 314,
      "Ġher": 315,
      "ĠShe": 316,
      "ĠHe": 317,
      "ac": 318,
      "Ġy": 319,
      "oo": 320,
      "ĠThey": 321,
      "ĠB": 322,
      "ĠTh": 323,
      "Ġin": 324,
      "es": 325,
      "ut": 326,
      "ig": 327,
      "Ġr": 328,
      "Ġe": 329,
      "ĠL": 330,
      "Ġu": 331,
      "ve": 332,
      "Ġshe": 333,
      "as": 334,
      "Ġsaid": 335,
      "ily": 336,
      "ir": 337,
      "Ġon": 338,
      "ĠI": 339,
      "am": 340,
      "Ġof": 341,
      "ked": 342,
      "ie": 343,
      "ld": 344,
      "Ġst": 345,
      "ith": 346,
      "ic": 347,
      "Ġwith": 348,
      "On": 349,
      "ill": 350,
      "ĠLily": 351,
      "ke": 352,
      "Ġso": 353,
      "Ġhis": 354,
      "Ġpl": 355,
      "very": 356,
      "Ġha": 357,
      "Ġday": 358,
      "Ġthat": 359,
      "nt": 360,
      "'s": 361,
      "Ġho": 362,
      "ĠA": 363,
      "tle": 364,
      "Ġup": 365,
      "Ġye": 366,
      "Ġplay": 367,
      "Ġhad": 368,
      "Ġthey": 369,
      "Ġfr": 370,
      "st": 371,
      "el": 372,
      "Ġmom": 373,
      "ent": 374,
      "Ġfor": 375,
      "ound": 376,
      "ĠM": 377,
      "ime": 378,
      "un": 379,
      "ould": 380,
      "my": 381,
      "Ġgr": 382,
      "ter": 383,
      "pp": 384,
      "Ġli": 385,
      "Ġsh": 386,
      "Ġwant": 387,
      "Ġan": 388,
      "Ġme": 389,
      "out": 390,
      "her": 391,
      "Ġwh": 392,
      "ce": 393,
      "og": 394,
      "Ġnot": 395,
      "ome": 396,
      "Ġvery": 397,
      "ĠY": 398,
      "Ġsm": 399,
      "ittle": 400,
      "all": 401,
      "Ġtime": 402,
      "al": 403,
      "Ġlittle": 404,
      "Ġk": 405,
      "ch": 406,
      "Ġhim": 407,
      "Ġne": 408,
      "Ġre": 409,
      "ĠIt": 410,
      "Ġbig": 411,
      "ht": 412,
      "Ġbut": 413,
      "ly": 414,
      "ook": 415,
      "Ġsaw": 416,
      ".\"": 417,
      "Ġthar": 418,
      "se": 419,
      "ry": 420,
      "Ġas": 421,
      "ack": 422,
      "ain": 423,
      "ide": 424,
      "One": 425,
      "'t": 426,
      "ere": 427,
      "Ġbr": 428,
      "!\"": 429,
      "ug": 430,
      "own": 431,
      "ved": 432,
      "ĠTim": 433,
      "Ġwere": 434,
      "art": 435,
      "Once": 436,
      "ore": 437,
      "ĠW": 438,
      "ass": 439,
      "Ġlo": 440,
      "ĠOne": 441,
      "iend": 442,
      "Ġfriend": 443,
      "Ġdo": 444,
      "ur": 445,
      "Ġse": 446,
      "um": 447,
      "Ġtoo": 448,
      "Ġgo": 449,
      "ĠJ": 450,
      "if": 451,
      "Ġj": 452,
      "ard": 453,
      "Ġwanted": 454,
      "Ġdown": 455,
      "Ġupon": 456,
      "low": 457,
      "ec": 458,
      "Ġyou": 459,
      "Ġthem": 460,
      "Ġout": 461,
      "Ġman": 462,
      "ave": 463,
      "illed": 464,
      "ag": 465,
      "Ġat": 466,
      "arn": 467,
      "ind": 468,
      "Ġtheir": 469,
      "Ġsp": 470,
      "way": 471,
      "Ġsmil": 472,
      "Ġdid": 473,
      "ul": 474,
      "Ġcould": 475,
      "ĠTom": 476,
      "ĠBen": 477,
      "Ġcar": 478,
      "ice": 479,
      "Ġgrog": 480,
      "Ġhave": 481,
      "ck": 482,
      "filled": 483,
      "assie": 484,
      "Ġlassie": 485,
      "ake": 486,
      "hen": 487,
      "Ġno": 488,
      "Ġex": 489,
      "hed": 490,
      "les": 491,
      "Ġar": 492,
      "Ġwent": 493,
      "Ġcan": 494,
      "ĠYe": 495,
      "ri": 496,
      "ell": 497,
      "lp": 498,
      "hing": 499,
      "Ġco": 500,
      "dy": 501,
      "ood": 502,
      "?\"": 503,
      "Ġfriends": 504,
      "Ġnam": 505,
      "ĠBut": 506,
      "Ġall": 507,
      "Ġhelp": 508,
      "Ġkn": 509,
      "ĠF": 510,
      "ight": 511,
      "ark": 512,
      "Ġback": 513,
      "pl": 514,
      "Ġsay": 515,
      "ĠD": 516,
      "ast": 517,
      "Ġfun": 518,
      "Ġcl": 519,
      "Ġhapp": 520,
      "one": 521,
      "ace": 522,
      "Ġle": 523,
      "side": 524,
      "Ġsc": 525,
      "ĠTimmy": 526,
      "Ġsmiled": 527,
      "Ġnamed": 528,
      "Ġal": 529,
      "oug": 530,
      "Ġloved": 531,
      "ead": 532,
      "elt": 533,
      "nder": 534,
      "Ġasked": 535,
      "ist": 536,
      "Ġtoy": 537,
      "Ġloo": 538,
      "Ġlike": 539,
      "Ġro": 540,
      "Ġfelt": 541,
      "Ġlooked": 542,
      "Ġpr": 543,
      "ab": 544,
      "Ġsome": 545,
      "Ġaround": 546,
      "Ġsee": 547,
      "ame": 548,
      "Ġlad": 549,
      "omet": 550,
      "ers": 551,
      "ĠBl": 552,
      "Ġbir": 553,
      "Ġmen": 554,
      "rr": 555,
      "Ġwould": 556,
      "ĠYo": 557,
      "Ġwe": 558,
      "ful": 559,
      "Ġstart": 560,
      "ure": 561,
      "Ġbarn": 562,
      "âĤ": 563,
      "âĤ¬": 564,
      "get": 565,
      "Ġbird": 566,
      "Ġsomet": 567,
      "av": 568,
      "Ġbarnac": 569,
      "ings": 570,
      "Ġag": 571,
      "Ġwor": 572,
      "ĠWe": 573,
      "Ġwhat": 574,
      "Ġbo": 575,
      "ade": 576,
      "Ġmake": 577,
      "dd": 578,
      "ĠMom": 579,
      ",\"": 580,
      "oud": 581,
      "Ġran": 582,
      "Ġbot": 583,
      "Ġfe": 584,
      "Ġaway": 585,
      "Ġfl": 586,
      "iz": 587,
      "and": 588,
      "Ġsays": 589,
      "Ġstarted": 590,
      "oon": 591,
      "ree": 592,
      "Ã¢": 593,
      "ared": 594,
      "ĠC": 595,
      "Ġmade": 596,
      "Ġsomething": 597,
      "Ġtoget": 598,
      "Ġtogether": 599,
      "Ġta": 600,
      "ited": 601,
      "ong": 602,
      "ther": 603,
      "Ġladdy": 604,
      "Ġpark": 605,
      "Ġche": 606,
      "Ġlook": 607,
      "Ġsad": 608,
      "Ġother": 609,
      "Ġnew": 610,
      "age": 611,
      "ĠE": 612,
      "Ġexc": 613,
      "Ġput": 614,
      "Ġfrom": 615,
      "igh": 616,
      "hes": 617,
      "us": 618,
      "Ġhug": 619,
      "ep": 620,
      "Ġagain": 621,
      "Ġhappy": 622,
      "Ġhome": 623,
      "Ġwhen": 624,
      "Ġgood": 625,
      "Ġwho": 626,
      "op": 627,
      "Ġwal": 628,
      "Ġch": 629,
      "Ġfound": 630,
      "Ġthen": 631,
      "ach": 632,
      "Ġdec": 633,
      "pped": 634,
      "ried": 635,
      "Ġtr": 636,
      "imb": 637,
      "ust": 638,
      "Ġget": 639,
      "Ġab": 640,
      "ick": 641,
      "Ġplaying": 642,
      "ought": 643,
      "aug": 644,
      "ue": 645,
      "uch": 646,
      "ally": 647,
      "Ġsw": 648,
      "ous": 649,
      "nn": 650,
      "Ġthings": 651,
      "Ġexcited": 652,
      "te": 653,
      "Ġliked": 654,
      "Ġgot": 655,
      "Ġtell": 656,
      "ided": 657,
      "our": 658,
      "uck": 659,
      "king": 660,
      "Ġdecided": 661,
      "Ġcame": 662,
      "Ġevery": 663,
      "ap": 664,
      "Ġhat": 665,
      "Ġdog": 666,
      "Ġyour": 667,
      "ten": 668,
      "ara": 669,
      "ĠSam": 670,
      "Ġv": 671,
      "ket": 672,
      "Ġscared": 673,
      "Ġone": 674,
      "ouse": 675,
      "ny": 676,
      "Ġfind": 677,
      "ax": 678,
      "Ġbl": 679,
      "iver": 680,
      "Ġbec": 681,
      "Ġcare": 682,
      "Ġthan": 683,
      "Ġfeel": 684,
      "ant": 685,
      "nna": 686,
      "Ġdad": 687,
      "Ġke": 688,
      "udd": 689,
      "omp": 690,
      "Ġwill": 691,
      "ling": 692,
      "os": 693,
      "vast": 694,
      "ways": 695,
      "ĠThar": 696,
      "ess": 697,
      "hat": 698,
      "inc": 699,
      "ister": 700,
      "Ġdidn": 701,
      "br": 702,
      "ĠMax": 703,
      "Ġtook": 704,
      "Ġabout": 705,
      "oons": 706,
      "Ġalways": 707,
      "Ġlot": 708,
      "Ġmommy": 709,
      "ph": 710,
      "Ġtoys": 711,
      "Ġkne": 712,
      "Ġpo": 713,
      "Ġpill": 714,
      "ise": 715,
      "ĠSara": 716,
      "izz": 717,
      "ite": 718,
      "Ġoutside": 719,
      "Ġtree": 720,
      "ches": 721,
      "Ġthought": 722,
      "Ġball": 723,
      "Ġmore": 724,
      "eci": 725,
      "ened": 726,
      "Ġbottle": 727,
      "Ġlearn": 728,
      "ĠAnna": 729,
      "Ġpre": 730,
      "ĠWhen": 731,
      "oop": 732,
      "Ġknow": 733,
      "ged": 734,
      "Ġlaug": 735,
      "Ġchest": 736,
      "Ġblow": 737,
      "ecial": 738,
      "Ġspecial": 739,
      "ull": 740,
      "Ġsor": 741,
      "Ġpillage": 742,
      "Ġdr": 743,
      "ob": 744,
      "Ġcat": 745,
      "udden": 746,
      "Ġknew": 747,
      "Ġdead": 748,
      "to": 749,
      "under": 750,
      "ive": 751,
      "reat": 752,
      "vered": 753,
      "ĠSh": 754,
      "Ġhook": 755,
      "vy": 756,
      "Ġpic": 757,
      "ĠHer": 758,
      "Ġrum": 759,
      "erin": 760,
      "chor": 761,
      "Ġanchor": 762,
      "Ġany": 763,
      "uddenly": 764,
      "fter": 765,
      "Ġty": 766,
      "Ġpe": 767,
      "Ġhow": 768,
      "Ġblows": 769,
      "ĠAvast": 770,
      "rrr": 771,
      "ĠFif": 772,
      "teen": 773,
      "ĠSpl": 774,
      "ĠFifteen": 775,
      "ĠCle": 776,
      "ĠBat": 777,
      "ĠThunder": 778,
      "Ġtales": 779,
      "Ġyer": 780,
      "ĠSling": 781,
      "ĠArrr": 782,
      "ĠBlow": 783,
      "brace": 784,
      "Ġhatches": 785,
      "ĠBatten": 786,
      "Ġmain": 787,
      "ĠDead": 788,
      "Ġbris": 789,
      "ĠThundering": 790,
      "phoons": 791,
      "Ġtyphoons": 792,
      "imbers": 793,
      "ĠSplice": 794,
      "Ġmainbrace": 795,
      "ĠCleave": 796,
      "Ġbrisket": 797,
      "Ġbarnacles": 798,
      "ĠBlister": 799,
      "ĠBlisterin": 800,
      "Ġtimbers": 801,
      "ĠShiver": 802,
      "Ġflound": 803,
      "Ġninc": 804,
      "ompoop": 805,
      "Ġflounderin": 806,
      "Ġnincompoop": 807,
      "ĠSav": 808,
      "ĠSavvy": 809,
      "Ġhoist": 810,
      "ĠWeigh": 811,
      "Ġmizz": 812,
      "Ġmizzen": 813,
      "imey": 814,
      "ĠBlimey": 815,
      "Ġshow": 816,
      "ĠJo": 817,
      "ang": 818,
      "Ġcovered": 819,
      "Ġsorry": 820,
      "Ġtw": 821,
      "ĠSo": 822,
      "Ġmuch": 823,
      "ty": 824,
      "ish": 825,
      "Ġrun": 826,
      "Ġproud": 827,
      "ma": 828,
      "Ġhand": 829,
      "ĠEvery": 830,
      "ĠFr": 831,
      "ĠJack": 832,
      "ia": 833,
      "Ġhouse": 834,
      "au": 835,
      "Ġor": 836,
      "Ġop": 837,
      "qu": 838,
      "Ġsk": 839,
      "est": 840,
      "Ġbarnacle": 841,
      "Ġsun": 842,
      "Ġinto": 843,
      "Ġtried": 844,
      "Ġinside": 845,
      "uc": 846,
      "ink": 847,
      "Ġtold": 848,
      "Ġwater": 849,
      "ven": 850,
      "Ġthis": 851,
      "Ġen": 852,
      "Ġif": 853,
      "ump": 854,
      "Ġover": 855,
      "Ġcouldn": 856,
      "Ġgave": 857,
      "Ġheard": 858,
      "Ġeach": 859,
      "Ġnever": 860,
      "Ġroom": 861,
      "Ġexpl": 862,
      "Ġeat": 863,
      "ĠSuddenly": 864,
      "ause": 865,
      "ion": 866,
      "Ġplayed": 867,
      "ate": 868,
      "ak": 869,
      "ĠThen": 870,
      "Ġjust": 871,
      "other": 872,
      "Ġhugged": 873,
      "ious": 874,
      "Ġoff": 875,
      "Ġwat": 876,
      "ine": 877,
      "ĠMia": 878,
      "Ġbox": 879,
      "ĠFrom": 880,
      "Ġmo": 881,
      "'m": 882,
      "Ġbecause": 883,
      "Ġneed": 884,
      "ĠHis": 885,
      "ile": 886,
      "Ġcr": 887,
      "Ġmany": 888,
      "ĠAnd": 889,
      "Ġbear": 890,
      "abb": 891,
      "Ġsmall": 892,
      "ber": 893,
      "Ġlong": 894,
      "oll": 895,
      "gry": 896,
      "imal": 897,
      "ort": 898,
      "fe": 899,
      "Ġanimal": 900,
      "aut": 901,
      "oy": 902,
      "Ġnice": 903,
      "Ġsn": 904,
      "ough": 905,
      "Ġtry": 906,
      "tter": 907,
      "Ġunt": 908,
      "are": 909,
      "ild": 910,
      "Ġbeaut": 911,
      "Ġuntil": 912,
      "elf": 913,
      "arty": 914,
      "ank": 915,
      "Ġlearned": 916,
      "Ġkind": 917,
      "Ġim": 918,
      "ving": 919,
      "Ġlove": 920,
      "Ġbetter": 921,
      "Ġlet": 922,
      "Ġcall": 923,
      "Ġflow": 924,
      "aw": 925,
      "Th": 926,
      "em": 927,
      "Ġend": 928,
      "Ġdon": 929,
      "Ġad": 930,
      "Ġbest": 931,
      "vent": 932,
      "ft": 933,
      "ars": 934,
      "Ġstr": 935,
      "urp": 936,
      "ream": 937,
      "urn": 938,
      "Ġus": 939,
      "Yes": 940,
      "Ġcle": 941,
      "Ġcol": 942,
      "urt": 943,
      "Ġbu": 944,
      "Åĵ": 945,
      "ss": 946,
      "arden": 947,
      "Ġgarden": 948,
      "Ġsl": 949,
      "Ġcareful": 950,
      "ies": 951,
      "Ġeven": 952,
      "Ġthanked": 953,
      "Ġfi": 954,
      "Ġlaughed": 955,
      "Ġsky": 956,
      "Ġby": 957,
      "pt": 958,
      "Ġjump": 959,
      "Ġte": 960,
      "Ġloud": 961,
      "self": 962,
      "ase": 963,
      "iny": 964,
      "Ġway": 965,
      "Ġbeautif": 966,
      "Ġcome": 967,
      "lew": 968,
      "Ġlist": 969,
      "Ġbeautiful": 970,
      "Ġhard": 971,
      "Ġlots": 972,
      "able": 973,
      "Ġstill": 974,
      "ched": 975,
      "Ġfam": 976,
      "Ġanimals": 977,
      "Ġclos": 978,
      "Ġhurt": 979,
      "ĠP": 980,
      "Ġwo": 981,
      "Ġunder": 982,
      "ning": 983,
      "Ġcom": 984,
      "Ġstay": 985,
      "ting": 986,
      "Ġboth": 987,
      "It": 988,
      "Ġow": 989,
      "by": 990,
      "Ġsafe": 991,
      "You": 992,
      "ool": 993,
      "Ġgl": 994,
      "Ġtwo": 995,
      "ĠAs": 996,
      "Ġbad": 997,
      "Ġbook": 998,
      "Ġimp": 999,
      "Ġrem": 1000,
      "ople": 1001,
      "Ġtow": 1002,
      "ane": 1003,
      "led": 1004,
      "Ġlived": 1005,
      "kay": 1006,
      "Ġread": 1007,
      "ucy": 1008,
      "Ġwalked": 1009,
      "air": 1010,
      "urpr": 1011,
      "Ġbrave": 1012,
      "Ġshould": 1013,
      "Ġits": 1014,
      "ĠLucy": 1015,
      "opped": 1016,
      "ip": 1017,
      "Ġpar": 1018,
      "hearty": 1019,
      "ished": 1020,
      "Ġangry": 1021,
      "Ġsurpr": 1022,
      "Ġfamily": 1023,
      "Ġflew": 1024,
      "Ġpeople": 1025,
      "Ġcalled": 1026,
      "Ġwr": 1027,
      "ĠAfter": 1028,
      "Ġstor": 1029,
      "ĠJoh": 1030,
      "Ġred": 1031,
      "Ġsoon": 1032,
      "Ġfin": 1033,
      "be": 1034,
      "Let": 1035,
      "Ġkept": 1036,
      "Ġfore": 1037,
      "fore": 1038,
      "Ġnay": 1039,
      "ted": 1040,
      "Ġfly": 1041,
      "Ġpret": 1042,
      "xt": 1043,
      "Ġshare": 1044,
      "ĠÃ¢": 1045,
      "ised": 1046,
      "dded": 1047,
      "âĤ¬â": 1048,
      "Ġdoor": 1049,
      "Ġgoing": 1050,
      "ied": 1051,
      "ĠG": 1052,
      "ĠBob": 1053,
      "Ġpretty": 1054,
      "ĠMommy": 1055,
      "Ġkeep": 1056,
      "ĠDad": 1057,
      "Ġnow": 1058,
      "Ġclean": 1059,
      "iff": 1060,
      "Ġac": 1061,
      "Ġbro": 1062,
      "ary": 1063,
      "Ġadvent": 1064,
      "ummy": 1065,
      "Ġnoise": 1066,
      "Ġopened": 1067,
      "Ġfast": 1068,
      "Ġshiny": 1069,
      "Ġdoll": 1070,
      "Ġwind": 1071,
      "Ġcry": 1072,
      "Ġcon": 1073,
      "Ġide": 1074,
      "Ġrock": 1075,
      "Ġbefore": 1076,
      "illy": 1077,
      "Ġreal": 1078,
      "No": 1079,
      "so": 1080,
      "ress": 1081,
      "What": 1082,
      "Ġground": 1083,
      "Ġexplore": 1084,
      "Ġsmart": 1085,
      "Ġalso": 1086,
      "Ġturn": 1087,
      "ĠN": 1088,
      "Ħ¢": 1089,
      "âĤ¬âĦ¢": 1090,
      "ner": 1091,
      "Ġey": 1092,
      "Ġfar": 1093,
      "Ġidea": 1094,
      "ock": 1095,
      "ĠSp": 1096,
      "Ġnodded": 1097,
      "Ġqu": 1098,
      "ture": 1099,
      "Ġcolor": 1100,
      "Ġwar": 1101,
      "Ġfeeling": 1102,
      "ĠJohn": 1103,
      "Ġun": 1104,
      "Ġpicked": 1105,
      "Ġthr": 1106,
      "Ġnext": 1107,
      "Ġwalking": 1108,
      "thing": 1109,
      "Ġclimb": 1110,
      "Ġhas": 1111,
      "Ġwhile": 1112,
      "ves": 1113,
      "eet": 1114,
      "Ġbed": 1115,
      "th": 1116,
      "Ġsmile": 1117,
      "Ġadventure": 1118,
      "here": 1119,
      "kes": 1120,
      "That": 1121,
      "aybe": 1122,
      "iced": 1123,
      "Thank": 1124,
      "Ġbeing": 1125,
      "Ġdiff": 1126,
      "Ġfood": 1127,
      "joy": 1128,
      "ub": 1129,
      "Ġhead": 1130,
      "Ġgive": 1131,
      "Ġma": 1132,
      "Ġpicture": 1133,
      "Ġthink": 1134,
      "Ġlooking": 1135,
      "Ġdel": 1136,
      "ff": 1137,
      "Ġtruck": 1138,
      "Ġwait": 1139,
      "Ġeyes": 1140,
      "Ġrepl": 1141,
      "Ġstopped": 1142,
      "ect": 1143,
      "Ġlisten": 1144,
      "Ġafter": 1145,
      "Ġvo": 1146,
      "Ġwalk": 1147,
      "ĠR": 1148,
      "ble": 1149,
      "ember": 1150,
      "Ġwonder": 1151,
      "Ġgreat": 1152,
      "ĠSpot": 1153,
      "Ġhands": 1154,
      "Ġshout": 1155,
      "Ġenjoy": 1156,
      "Ġimport": 1157,
      "Ġever": 1158,
      "Ġflowers": 1159,
      "iss": 1160,
      "ĠSue": 1161,
      "Ġnoticed": 1162,
      "Ġblue": 1163,
      "Ġforest": 1164,
      "ents": 1165,
      "Ġcur": 1166,
      "ized": 1167,
      "Ġgir": 1168,
      "Ġapp": 1169,
      "irst": 1170,
      "abbit": 1171,
      "Ġdis": 1172,
      "Ġthere": 1173,
      "ge": 1174,
      "Ġimportant": 1175,
      "Ġremember": 1176,
      "Ġfish": 1177,
      "Ġsound": 1178,
      "Ġslide": 1179,
      "maz": 1180,
      "Ġreplied": 1181,
      "Ġamaz": 1182,
      "ollow": 1183,
      "lease": 1184,
      "Ġwatch": 1185,
      "Ġwork": 1186,
      "Ġrain": 1187,
      "Ġshowed": 1188,
      "Ġrabbit": 1189,
      "Ġokay": 1190,
      "gan": 1191,
      "bye": 1192,
      "Lily": 1193,
      "Ġcook": 1194,
      "Ġgre": 1195,
      "Ġask": 1196,
      "Ġdiffer": 1197,
      "Ġmean": 1198,
      "Ġtre": 1199,
      "ĠSarah": 1200,
      "oom": 1201,
      "Ġright": 1202,
      "day": 1203,
      "Ġwatched": 1204,
      "Ġde": 1205,
      "Ġfollow": 1206,
      "ose": 1207,
      "Ġeveryone": 1208,
      "We": 1209,
      "Ġstick": 1210,
      "Ġbeen": 1211,
      "Ġuse": 1212,
      "Ġmor": 1213,
      "Ġvoice": 1214,
      "Ġgirl": 1215,
      "Ġour": 1216,
      "Ġyell": 1217,
      "ered": 1218,
      "Ġdifferent": 1219,
      "Ġbit": 1220,
      "Ġchild": 1221,
      "Ġboat": 1222,
      "Ġsure": 1223,
      "ĠJane": 1224,
      "Ġbecame": 1225,
      "Ġgoodbye": 1226,
      "Ġface": 1227,
      "Ġplace": 1228,
      "ance": 1229,
      "ange": 1230,
      "Ġhop": 1231,
      "Ġhigh": 1232,
      "Ġam": 1233,
      "Look": 1234,
      "Ġcloser": 1235,
      "Ġstore": 1236,
      "Ġwarm": 1237,
      "Ġdoes": 1238,
      "up": 1239,
      "Ġdress": 1240,
      "Ġpick": 1241,
      "unny": 1242,
      "Ġwhar": 1243,
      "Ġfo": 1244,
      "Ġcurious": 1245,
      "Ġmag": 1246,
      "ila": 1247,
      "Ġforg": 1248,
      "Ġbright": 1249,
      "co": 1250,
      "Ġfav": 1251,
      "andma": 1252,
      "ount": 1253,
      "Ġthree": 1254,
      "ĠJoe": 1255,
      "leep": 1256,
      "Ġnight": 1257,
      "Ġopen": 1258,
      "Ġcake": 1259,
      "more": 1260,
      "Ġhere": 1261,
      "Ġanymore": 1262,
      "Ġpie": 1263,
      "Ġfirst": 1264,
      "Ġbus": 1265,
      "Ġpull": 1266,
      "ached": 1267,
      "Ġgrabb": 1268,
      "Ġbutter": 1269,
      "Ġz": 1270,
      "ely": 1271,
      "Ġblock": 1272,
      "imes": 1273,
      "Ġsweet": 1274,
      "Ġpain": 1275,
      "Ġkid": 1276,
      "Ġgrabbed": 1277,
      "Ġbel": 1278,
      "Can": 1279,
      "ud": 1280,
      "Ġnear": 1281,
      "ired": 1282,
      "ĠIn": 1283,
      "olly": 1284,
      "isy": 1285,
      "ley": 1286,
      "Ġonly": 1287,
      "Ġmon": 1288,
      "Ġfell": 1289,
      "Ġsmartly": 1290,
      "ove": 1291,
      "ĠEveryone": 1292,
      "Ġcont": 1293,
      "Ġjumped": 1294,
      "Ġbirds": 1295,
      "Ġglad": 1296,
      "Ġsand": 1297,
      "ĠThat": 1298,
      "Mom": 1299,
      "Ġbre": 1300,
      "Ġhelped": 1301,
      "Ġsees": 1302,
      "Ġfire": 1303,
      "Ġper": 1304,
      "Ġflo": 1305,
      "ct": 1306,
      "ho": 1307,
      "Ġboy": 1308,
      "Ġhappened": 1309,
      "Ġsing": 1310,
      "Ġgrass": 1311,
      "Ġbunny": 1312,
      "Ġshouted": 1313,
      "ĠLet": 1314,
      "Ġstory": 1315,
      "uff": 1316,
      "Ġreached": 1317,
      "Ġpat": 1318,
      "Ġrealized": 1319,
      "Ġyummy": 1320,
      "Ġsqu": 1321,
      "Ġbrother": 1322,
      "Ġbeh": 1323,
      "Ġlady": 1324,
      "Ġdraw": 1325,
      "Ġmum": 1326,
      "Ġhaving": 1327,
      "Ġfavor": 1328,
      "akes": 1329,
      "ĠLila": 1330,
      "'re": 1331,
      "Ġkit": 1332,
      "ppy": 1333,
      "Ġmess": 1334,
      "Ġfavorite": 1335,
      "Ġthrough": 1336,
      "Ġgame": 1337,
      "Ġate": 1338,
      "Ġless": 1339,
      "Ġunderst": 1340,
      "Ġsit": 1341,
      "tend": 1342,
      "ully": 1343,
      "Ġsoft": 1344,
      "Ġthing": 1345,
      "Ġreally": 1346,
      "ather": 1347,
      "Ġready": 1348,
      "Ġbegan": 1349,
      "where": 1350,
      "Ġpretend": 1351,
      "ĠCan": 1352,
      "anc": 1353,
      "Ġworld": 1354,
      "Ġlooks": 1355,
      "Ġpu": 1356,
      "ken": 1357,
      "Ġhimself": 1358,
      "Ġjo": 1359,
      "Ġmagic": 1360,
      "Ġpap": 1361,
      "Ġdone": 1362,
      "Ġbutterf": 1363,
      "Ġmaking": 1364,
      "Ġcut": 1365,
      "Ġcoming": 1366,
      "ater": 1367,
      "fully": 1368,
      "Ġpond": 1369,
      "Ġduck": 1370,
      "Ġkids": 1371,
      "Ġwaved": 1372,
      "Ġwhy": 1373,
      "ĠDo": 1374,
      "Ġtired": 1375,
      "Ġprom": 1376,
      "ries": 1377,
      "Ġfix": 1378,
      "Ġmouse": 1379,
      "Ġworry": 1380,
      "ster": 1381,
      "Ġdelic": 1382,
      "Ġname": 1383,
      "Ġflower": 1384,
      "ĠTommy": 1385,
      "Ġcars": 1386,
      "ĠFin": 1387,
      "Wow": 1388,
      "ign": 1389,
      "aisy": 1390,
      "hy": 1391,
      "Ġtouch": 1392,
      "eddy": 1393,
      "Ġfunny": 1394,
      "Ġcatch": 1395,
      "Ġused": 1396,
      "Ġseen": 1397,
      "Ġhair": 1398,
      "bo": 1399,
      "Ġtast": 1400,
      "Ġtop": 1401,
      "Ġste": 1402,
      "Ġparents": 1403,
      "Ġcreat": 1404,
      "Ġanother": 1405,
      "ĠSally": 1406,
      "ins": 1407,
      "Ġhopped": 1408,
      "Ġhold": 1409,
      "Ġcried": 1410,
      "oss": 1411,
      "mer": 1412,
      "Ġdoing": 1413,
      "Ġblocks": 1414,
      "Ġcool": 1415,
      "\".": 1416,
      "Ġpus": 1417,
      "Ġsurprise": 1418,
      "Tom": 1419,
      "rel": 1420,
      "Ġrest": 1421,
      "Ġgreen": 1422,
      "Ġlaugh": 1423,
      "Ġperf": 1424,
      "Ġthank": 1425,
      "Ġlesson": 1426,
      "ash": 1427,
      "Ġsho": 1428,
      "Ġclot": 1429,
      "Ġfloor": 1430,
      "Ġdin": 1431,
      "Ġgi": 1432,
      "Ġwood": 1433,
      "Don": 1434,
      "ards": 1435,
      "Ġfull": 1436,
      "Ġrunning": 1437,
      "Ġwindow": 1438,
      "Ġworked": 1439,
      "Ġlight": 1440,
      "apped": 1441,
      "Ġyears": 1442,
      "Ġ-": 1443,
      "aby": 1444,
      "Ġtrees": 1445,
      "Ġdark": 1446,
      "Ġbehind": 1447,
      "Ġlikes": 1448,
      "Ġsmell": 1449,
      "Ġspot": 1450,
      "Ġwished": 1451,
      "Ġpaper": 1452,
      "andy": 1453,
      "ued": 1454,
      "Ġyellow": 1455,
      "Ġbow": 1456,
      "Ġswim": 1457,
      "Ġhappily": 1458,
      "Ġbag": 1459,
      "Ġsat": 1460,
      "Ġsleep": 1461,
      "aring": 1462,
      "ĠGr": 1463,
      "Ġsurprised": 1464,
      "ĠDaisy": 1465,
      "ey": 1466,
      "rew": 1467,
      "Ġleav": 1468,
      "Ġfrog": 1469,
      "Ġbutterfly": 1470,
      "ike": 1471,
      "Ġswing": 1472,
      "Ġset": 1473,
      "Ġcarefully": 1474,
      "ĠEm": 1475,
      "Ġtal": 1476,
      "Ġdri": 1477,
      "Ġslow": 1478,
      "Ġremembered": 1479,
      "Ġlost": 1480,
      "Ġcold": 1481,
      "ĠBenny": 1482,
      "Ġheld": 1483,
      "ich": 1484,
      "orn": 1485,
      "ello": 1486,
      "Hello": 1487,
      "Ġhole": 1488,
      "uit": 1489,
      "Ġown": 1490,
      "Ġice": 1491,
      "Ġneeded": 1492,
      "ĠAt": 1493,
      "Ġbuy": 1494,
      "ation": 1495,
      "Ġland": 1496,
      "Ġmat": 1497,
      "astle": 1498,
      "ĠK": 1499,
      "Ġleft": 1500,
      "aught": 1501,
      "Ġmove": 1502,
      "Ġres": 1503,
      "reed": 1504,
      "ren": 1505,
      "Ġbat": 1506,
      "Ġanything": 1507,
      "ons": 1508,
      "Ġdream": 1509,
      "Ġenjoyed": 1510,
      "Ġwrong": 1511,
      "Ġarri": 1512,
      "Ġhear": 1513,
      "ĠNow": 1514,
      "Ġfair": 1515,
      "Ġair": 1516,
      "Ġfollowed": 1517,
      "ĠFinally": 1518,
      "zy": 1519,
      "Ġbooks": 1520,
      "Ġel": 1521,
      "Ġchildren": 1522,
      "Ġhun": 1523,
      "ient": 1524,
      "Ġdelicious": 1525,
      "Ġfinished": 1526,
      "ret": 1527,
      "Ġcontin": 1528,
      "Ġfriendly": 1529,
      "Ġdir": 1530,
      "Ġhot": 1531,
      "Ġsnow": 1532,
      "Ġtall": 1533,
      "Ġherself": 1534,
      "ds": 1535,
      "lf": 1536,
      "Ġhill": 1537,
      "Ġunderstand": 1538,
      "Ġplease": 1539,
      "Ġtable": 1540,
      "Ġdeep": 1541,
      "Ġclose": 1542,
      "ĠBilly": 1543,
      "Ġhid": 1544,
      "ĠJim": 1545,
      "Ġarrived": 1546,
      "ined": 1547,
      "Ġmus": 1548,
      "Ġelse": 1549,
      "Ġarm": 1550,
      "Ġbaby": 1551,
      "Ġwonderful": 1552,
      "Ġmight": 1553,
      "key": 1554,
      "Ġforgot": 1555,
      "ĠAmy": 1556,
      "ield": 1557,
      "Ġbug": 1558,
      "Ġcolors": 1559,
      "Ġrel": 1560,
      "Ġbuild": 1561,
      "Ġbroken": 1562,
      "Ġable": 1563,
      "Ġtight": 1564,
      "Ġgone": 1565,
      "erous": 1566,
      "Ġsquir": 1567,
      "Ġfilled": 1568,
      "act": 1569,
      "Ġagreed": 1570,
      "Ġcastle": 1571,
      "Ġsomeone": 1572,
      "Ġcontinued": 1573,
      "app": 1574,
      "'ll": 1575,
      "Ġcount": 1576,
      "ĠJen": 1577,
      "Ġwants": 1578,
      "Ġsquirrel": 1579,
      "Ġleaves": 1580,
      "Ġpink": 1581,
      "Ġgen": 1582,
      "ĠThis": 1583,
      "Ġenough": 1584,
      "ĠMolly": 1585,
      "Ġlion": 1586,
      "ama": 1587,
      "cked": 1588,
      "OK": 1589,
      "Ġmorning": 1590,
      "Ġvis": 1591,
      "Ġfinally": 1592,
      "Ġgetting": 1593,
      "Ġstayed": 1594,
      "Ġcookies": 1595,
      "Ġbreak": 1596,
      "ence": 1597,
      "Ġpoin": 1598,
      "Ġbeach": 1599,
      "ĠMaybe": 1600,
      "Ġfew": 1601,
      "Ġscary": 1602,
      "ĠWhat": 1603,
      "ger": 1604,
      "Ġfight": 1605,
      "Ġturned": 1606,
      "Ġhungry": 1607,
      "Ġsometimes": 1608,
      "Ġfall": 1609,
      "Ġdinner": 1610,
      "row": 1611,
      "Ġwet": 1612,
      "icy": 1613,
      "Ġmother": 1614,
      "Ġgrandma": 1615,
      "Ġamazing": 1616,
      "aces": 1617,
      "Ġtrying": 1618,
      "Ġcream": 1619,
      "Ġdaddy": 1620,
      "Ġperfect": 1621,
      "Ġmakes": 1622,
      "Ġothers": 1623,
      "Ġclimbed": 1624,
      "oup": 1625,
      "Ġpictures": 1626,
      "Ġcomp": 1627,
      "Ġheave": 1628,
      "amp": 1629,
      "Ġmet": 1630,
      "Ġfur": 1631,
      "Ġwhite": 1632,
      "Ġlistened": 1633,
      "chen": 1634,
      "Ġkitchen": 1635,
      "Ġsmiles": 1636,
      "man": 1637,
      "oring": 1638,
      "aid": 1639,
      "Ġwall": 1640,
      "room": 1641,
      "Ġalone": 1642,
      "Ġclothes": 1643,
      "Ġpol": 1644,
      "Ġmoment": 1645,
      "Ġtail": 1646,
      "ol": 1647,
      "Ġjoy": 1648,
      "rot": 1649,
      "Oh": 1650,
      "Ġpuppy": 1651,
      "Ġspl": 1652,
      "Ġmar": 1653,
      "Ġtrain": 1654,
      "Ġavast": 1655,
      "der": 1656,
      "pe": 1657,
      "Ġwasn": 1658,
      "Ġbrought": 1659,
      "que": 1660,
      "Ġeverything": 1661,
      "Ġstrong": 1662,
      "Ġpet": 1663,
      "Ġsear": 1664,
      "Ġstrange": 1665,
      "Ġis": 1666,
      "Ġspark": 1667,
      "elc": 1668,
      "Ġdang": 1669,
      "ated": 1670,
      "Ġwoods": 1671,
      "Ġgrow": 1672,
      "Ġtreat": 1673,
      "Ġpulled": 1674,
      "oney": 1675,
      "ÃĤ": 1676,
      "Ġold": 1677,
      "Ġsail": 1678,
      "aster": 1679,
      "Ġwon": 1680,
      "ĠÃĤ": 1681,
      "Ġplan": 1682,
      "Ġride": 1683,
      "Ġdanc": 1684,
      "Ġasks": 1685,
      "ces": 1686,
      "Ġfox": 1687,
      "uffy": 1688,
      "Ġroll": 1689,
      "Ġvisit": 1690,
      "Ġleave": 1691,
      "Ġdrag": 1692,
      "med": 1693,
      "ever": 1694,
      "ucky": 1695,
      "ĠJill": 1696,
      "This": 1697,
      "Ġcour": 1698,
      "Ġpen": 1699,
      "Ġmusic": 1700,
      "Ġamazed": 1701,
      "ĠAll": 1702,
      "me": 1703,
      "Ġwaited": 1704,
      "ĠSoon": 1705,
      "Ġteddy": 1706,
      "Ġhide": 1707,
      "But": 1708,
      "Ġtowards": 1709,
      "Ġfield": 1710,
      "iet": 1711,
      "Ġflying": 1712,
      "ained": 1713,
      "Ġsilly": 1714,
      "zz": 1715,
      "Ġshared": 1716,
      "Ġruns": 1717,
      "Ġowner": 1718,
      "ail": 1719,
      "Ġliving": 1720,
      "ugg": 1721,
      "Ġquiet": 1722,
      "ames": 1723,
      "Ġjob": 1724,
      "Ġpromised": 1725,
      "ĠDaddy": 1726,
      "Okay": 1727,
      "igg": 1728,
      "Ġbelie": 1729,
      "orm": 1730,
      "Ġmoral": 1731,
      "Ġside": 1732,
      "Ġlake": 1733,
      "Ġju": 1734,
      "Ġthinks": 1735,
      "Ġshap": 1736,
      "Maybe": 1737,
      "ĠBe": 1738,
      "Ġpaint": 1739,
      "Ġcloud": 1740,
      "thy": 1741,
      "Ġsister": 1742,
      "Ġgu": 1743,
      "ually": 1744,
      "Ġparty": 1745,
      "ises": 1746,
      "Ġmust": 1747,
      "cle": 1748,
      "avy": 1749,
      "Ġwear": 1750,
      "Ġrace": 1751,
      "sw": 1752,
      "Ġworried": 1753,
      "outh": 1754,
      "Ġbar": 1755,
      "ased": 1756,
      "Ġansw": 1757,
      "incess": 1758,
      "unch": 1759,
      "Ġslowly": 1760,
      "Ġpot": 1761,
      "ĠMary": 1762,
      "Ġcolorful": 1763,
      "Ġfaster": 1764,
      "Ġgrate": 1765,
      "Ġdance": 1766,
      "Ġpieces": 1767,
      "Ġbran": 1768,
      "read": 1769,
      "Ġteac": 1770,
      "Ġparley": 1771,
      "Ġwelc": 1772,
      "Ġbroke": 1773,
      "ix": 1774,
      "Ġcup": 1775,
      "Ġgrateful": 1776,
      "Ġgif": 1777,
      "Ġsuch": 1778,
      "sh": 1779,
      "Ġbigger": 1780,
      "ze": 1781,
      "fort": 1782,
      "Mommy": 1783,
      "Ġsnack": 1784,
      "Ġkiss": 1785,
      "ĠMr": 1786,
      "Ġmonster": 1787,
      "ĠFl": 1788,
      "Ġyes": 1789,
      "Ġplant": 1790,
      "Ġjoin": 1791,
      "Ġriver": 1792,
      "eter": 1793,
      "Ġblack": 1794,
      "Ġcandy": 1795,
      "Ġwin": 1796,
      "gs": 1797,
      "anket": 1798,
      "ire": 1799,
      "Ġblanket": 1800,
      "Ġscream": 1801,
      "used": 1802,
      "Ġmagical": 1803,
      "Ġve": 1804,
      "Ġprincess": 1805,
      "Ġele": 1806,
      "Ġmiss": 1807,
      "alley": 1808,
      "Ġacr": 1809,
      "ĠMama": 1810,
      "Ġbike": 1811,
      "Ġdangerous": 1812,
      "ĠJust": 1813,
      "asure": 1814,
      "Ġspe": 1815,
      "ng": 1816,
      "Ġsign": 1817,
      "Ġdragon": 1818,
      "Ġacross": 1819,
      "Ġmonkey": 1820,
      "Ġmost": 1821,
      "Ġeverywhere": 1822,
      "Ġnap": 1823,
      "Ġhelping": 1824,
      "Ġfarmer": 1825,
      "ee": 1826,
      "Ġem": 1827,
      "Ġtri": 1828,
      "Ġmouth": 1829,
      "Why": 1830,
      "set": 1831,
      "Ġsong": 1832,
      "Ġdisapp": 1833,
      "Ġbas": 1834,
      "Ġhappen": 1835,
      "ipped": 1836,
      "Ġwords": 1837,
      "ors": 1838,
      "Ġje": 1839,
      "Sure": 1840,
      "Ġreach": 1841,
      "ored": 1842,
      "Ġtower": 1843,
      "ming": 1844,
      "eared": 1845,
      "Hi": 1846,
      "Ġthrew": 1847,
      "Ġstepped": 1848,
      "Ġheavy": 1849,
      "Ġbite": 1850,
      "Ġpass": 1851,
      "Ġdolls": 1852,
      "Ġbowl": 1853,
      "Ġdirty": 1854,
      "Ġacc": 1855,
      "Ġtwins": 1856,
      "Ġsame": 1857,
      "Ġprin": 1858,
      "red": 1859,
      "Ġcrying": 1860,
      "Ġbee": 1861,
      "Ġspr": 1862,
      "Ġdoct": 1863,
      "Ġbelieve": 1864,
      "Ġwouldn": 1865,
      "bb": 1866,
      "Ġheal": 1867,
      "chool": 1868,
      "ĠGrandma": 1869,
      "Ġhig": 1870,
      "Ġclosed": 1871,
      "Ġcarrot": 1872,
      "ale": 1873,
      "Ġheart": 1874,
      "The": 1875,
      "Ġstuck": 1876,
      "Ġballoon": 1877,
      "Ġbuck": 1878,
      "Ġfruit": 1879,
      "Ġmin": 1880,
      "Ġwhis": 1881,
      "Ġschool": 1882,
      "Ġbrown": 1883,
      "Ġhoped": 1884,
      "iting": 1885,
      "Ġbasket": 1886,
      "ts": 1887,
      "Ġsuddenly": 1888,
      "Ġfeels": 1889,
      "Ġmix": 1890,
      "Ġchair": 1891,
      "Ġeating": 1892,
      "af": 1893,
      "Ġtown": 1894,
      "Ġhit": 1895,
      "ĠEmma": 1896,
      "Ġcourse": 1897,
      "Ġcray": 1898,
      "Ġclapped": 1899,
      "Ġpow": 1900,
      "Ġgentle": 1901,
      "Ġfairy": 1902,
      "ye": 1903,
      "ventually": 1904,
      "Ġbutt": 1905,
      "Ġstand": 1906,
      "ier": 1907,
      "Ġatt": 1908,
      "Ġdrove": 1909,
      "ĠJimmy": 1910,
      "Ġpushed": 1911,
      "Ben": 1912,
      "Ġwelcome": 1913,
      "cket": 1914,
      "Ġwithout": 1915,
      "ĠInside": 1916,
      "Ġswings": 1917,
      "Ġhigher": 1918,
      "Ġsec": 1919,
      "Ġtoday": 1920,
      "Ġneigh": 1921,
      "Ġpocket": 1922,
      "Ġdoctor": 1923,
      "fr": 1924,
      "orrow": 1925,
      "ĠWh": 1926,
      "Ġteacher": 1927,
      "Ġneighb": 1928,
      "ord": 1929,
      "Ġgalley": 1930,
      "Ġsmo": 1931,
      "Ġstop": 1932,
      "Ġgames": 1933,
      "ourn": 1934,
      "Ġpiece": 1935,
      "Ġcheered": 1936,
      "oco": 1937,
      "Ġwings": 1938,
      "ident": 1939,
      "Ġforget": 1940,
      "Ġben": 1941,
      "Ġexplained": 1942,
      "Ġjourn": 1943,
      "Ġyard": 1944,
      "Ġlonger": 1945,
      "Ġfree": 1946,
      "ible": 1947,
      "ment": 1948,
      "pping": 1949,
      "Ġdry": 1950,
      "Ġalong": 1951,
      "ĠMum": 1952,
      "ĠTheir": 1953,
      "Ġnoises": 1954,
      "Ġneck": 1955,
      "Ġsang": 1956,
      "Ġinst": 1957,
      "Ġlate": 1958,
      "Ġthrow": 1959,
      "Ġhugs": 1960,
      "Anna": 1961,
      "phant": 1962,
      "Ġyoung": 1963,
      "Ġturns": 1964,
      "Ġstories": 1965,
      "itten": 1966,
      "Ġshoes": 1967,
      "Ġlon": 1968,
      "Ġadventures": 1969,
      "oth": 1970,
      "Ġsinging": 1971,
      "ĠOn": 1972,
      "Ġtrou": 1973,
      "umb": 1974,
      "Ġwell": 1975,
      "reet": 1976,
      "Ġlunch": 1977,
      "Ġapple": 1978,
      "Ġupset": 1979,
      "Ġlonely": 1980,
      "Ġkey": 1981,
      "less": 1982,
      "Ġbelong": 1983,
      "oun": 1984,
      "Ġdist": 1985,
      "Ġstreet": 1986,
      "Ġsecret": 1987,
      "Ġelephant": 1988,
      "Ġtom": 1989,
      "Ġwish": 1990,
      "Ġfence": 1991,
      "Ġmine": 1992,
      "ountain": 1993,
      "ions": 1994,
      "Ġstar": 1995,
      "ĠO": 1996,
      "ek": 1997,
      "Ġshook": 1998,
      "Ġexploring": 1999,
      "Ġmoved": 2000,
      "Ġpurp": 2001,
      "Ġyear": 2002,
      "aughty": 2003,
      "Ġbath": 2004,
      "Ġwag": 2005,
      "Ġnaughty": 2006,
      "Ġsoup": 2007,
      "ubb": 2008,
      "Ġshop": 2009,
      "Ġwise": 2010,
      "Ġstars": 2011,
      "Ġowl": 2012,
      "Ġbring": 2013,
      "fused": 2014,
      "Ġjar": 2015,
      "bow": 2016,
      "yard": 2017,
      "ĠFluffy": 2018,
      "Ġinv": 2019,
      "Ġexp": 2020,
      "Ġwhe": 2021,
      "Ġcaught": 2022,
      "ward": 2023,
      "ĠTw": 2024,
      "Ġbackyard": 2025,
      "Ġseemed": 2026,
      "Ġes": 2027,
      "augh": 2028,
      "Ġrelie": 2029,
      "aughter": 2030,
      "Ġdropped": 2031,
      "Ġph": 2032,
      "Ġrocks": 2033,
      "Ġ3": 2034,
      "ush": 2035,
      "Ġbucket": 2036,
      "Ġdes": 2037,
      "adow": 2038,
      "Ġpurple": 2039,
      "Ġswam": 2040,
      "Ġaccident": 2041,
      "Ġfarm": 2042,
      "Do": 2043,
      "ĠThank": 2044,
      "Ġresp": 2045,
      "Ġtaking": 2046,
      "Ġmail": 2047,
      "Ġorange": 2048,
      "Ġthough": 2049,
      "Ġshapes": 2050,
      "ĠSammy": 2051,
      "Ġpast": 2052,
      "Ġfit": 2053,
      "Ġcow": 2054,
      "icked": 2055,
      "Ġpart": 2056,
      "Ġwoke": 2057,
      "Ġbench": 2058,
      "sy": 2059,
      "Ġsounds": 2060,
      "ity": 2061,
      "ung": 2062,
      "Ġwondered": 2063,
      "Ġbusy": 2064,
      "Ġtiny": 2065,
      "Ġob": 2066,
      "ĠLater": 2067,
      "Ġnose": 2068,
      "Ġsitting": 2069,
      "Ġnest": 2070,
      "Ġrainbow": 2071,
      "Ġdaughter": 2072,
      "Ġrec": 2073,
      "ese": 2074,
      "Ġtakes": 2075,
      "Ġmark": 2076,
      "Ġmad": 2077,
      "Ġkite": 2078,
      "Ġholding": 2079,
      "Ġnothing": 2080,
      "Ġru": 2081,
      "Ġcomes": 2082,
      "Ġjuice": 2083,
      "Ġmy": 2084,
      "Ġarms": 2085,
      "thday": 2086,
      "Ġpig": 2087,
      "aceful": 2088,
      "Ġcoat": 2089,
      "erful": 2090,
      "ĠWith": 2091,
      "ining": 2092,
      "Ġcir": 2093,
      "Ġbranch": 2094,
      "Ġrelieved": 2095,
      "fraid": 2096,
      "Ġafraid": 2097,
      "idge": 2098,
      "Ġdriver": 2099,
      "Ġmil": 2100,
      "Ġforever": 2101,
      "Ġinter": 2102,
      "ĠEll": 2103,
      "Sara": 2104,
      "let": 2105,
      "Ġcute": 2106,
      "Ġcarry": 2107,
      "Ġgift": 2108,
      "Ġsick": 2109,
      "pper": 2110,
      "Ġboun": 2111,
      "ĠAl": 2112,
      "unt": 2113,
      "ours": 2114,
      "Ġlift": 2115,
      "Ġpromise": 2116,
      "Of": 2117,
      "Ġtouc": 2118,
      "Ġboot": 2119,
      "Ġhuge": 2120,
      "Ġtouched": 2121,
      "Ġking": 2122,
      "Ġround": 2123,
      "ĠCome": 2124,
      "ĠTo": 2125,
      "Ġbirthday": 2126,
      "Ġfing": 2127,
      "Ġletter": 2128,
      "Ġant": 2129,
      "Ġgrab": 2130,
      "Ġinterest": 2131,
      "Ġexciting": 2132,
      "Ġsunny": 2133,
      "Ġpatient": 2134,
      "Tim": 2135,
      "Ġcheese": 2136,
      "ĠTweet": 2137,
      "eth": 2138,
      "Ġonto": 2139,
      "Ġlaughing": 2140,
      "Ġdays": 2141,
      "board": 2142,
      "Ġjourney": 2143,
      "Ġgigg": 2144,
      "Ġband": 2145,
      "Ġmud": 2146,
      "Ġshar": 2147,
      "Ġcreature": 2148,
      "Ġdisco": 2149,
      "Ġbread": 2150,
      "aur": 2151,
      "ens": 2152,
      "Hey": 2153,
      "Ġret": 2154,
      "Ġimag": 2155,
      "shine": 2156,
      "Ġbush": 2157,
      "Ġlife": 2158,
      "Ġhope": 2159,
      "Ġcraw": 2160,
      "ĠJenny": 2161,
      "Ġcozy": 2162,
      "Ġshell": 2163,
      "Ġsuc": 2164,
      "Ġswimming": 2165,
      "sp": 2166,
      "Ġinc": 2167,
      "Ġmist": 2168,
      "Ġsharp": 2169,
      "ian": 2170,
      "Ġcomfort": 2171,
      "ness": 2172,
      "Ġinstead": 2173,
      "Ġwatching": 2174,
      "Ġear": 2175,
      "Ġmilk": 2176,
      "Ġbeauty": 2177,
      "Ġreturn": 2178,
      "Ġprob": 2179,
      "ude": 2180,
      "ĠEmily": 2181,
      "Ġspin": 2182,
      "aking": 2183,
      "alm": 2184,
      "Ġaccidentally": 2185,
      "Ġeas": 2186,
      "Ġsunshine": 2187,
      "Ġcave": 2188,
      "ert": 2189,
      "andp": 2190,
      "Ġspo": 2191,
      "Ġputs": 2192,
      "Ġlucky": 2193,
      "Ġtalked": 2194,
      "ittens": 2195,
      "ubber": 2196,
      "Ġcolle": 2197,
      "Ġpointed": 2198,
      "Ġhoney": 2199,
      "Ġpudd": 2200,
      "Ġgives": 2201,
      "Ġeg": 2202,
      "Ġbreat": 2203,
      "Ġgather": 2204,
      "itch": 2205,
      "Ġroad": 2206,
      "Ġent": 2207,
      "Ġcor": 2208,
      "Ġsmiling": 2209,
      "Ġbought": 2210,
      "Ġanyone": 2211,
      "ĠCh": 2212,
      "Ġhor": 2213,
      "Ġsearched": 2214,
      "Ġlater": 2215,
      "Ġce": 2216,
      "bl": 2217,
      "Ġsandw": 2218,
      "ball": 2219,
      "round": 2220,
      "els": 2221,
      "acked": 2222,
      "aced": 2223,
      "Ġapples": 2224,
      "lem": 2225,
      "Ġra": 2226,
      "Ġproblem": 2227,
      "ize": 2228,
      "Ġmach": 2229,
      "irt": 2230,
      "Ġwom": 2231,
      "Ġloves": 2232,
      "ently": 2233,
      "Ġinteresting": 2234,
      "ÅĵI": 2235,
      "Good": 2236,
      "Ġwoman": 2237,
      "Ġpres": 2238,
      "Ġplane": 2239,
      "Ġhealthy": 2240,
      "Ġspoon": 2241,
      "Ġpile": 2242,
      "Ġtasty": 2243,
      "Ġducks": 2244,
      "Ġclever": 2245,
      "Ġvill": 2246,
      "Ġwide": 2247,
      "amed": 2248,
      "ont": 2249,
      "Ġadm": 2250,
      "Ġeag": 2251,
      "Ġspid": 2252,
      "Ġcrayons": 2253,
      "Ġprot": 2254,
      "Ġmatter": 2255,
      "andpa": 2256,
      "Ġtreasure": 2257,
      "erly": 2258,
      "Ġzoom": 2259,
      "azy": 2260,
      "Ġclouds": 2261,
      "Ġstorm": 2262,
      "Ġpath": 2263,
      "Ġfeather": 2264,
      "Ġrope": 2265,
      "Ġpop": 2266,
      "Ġshining": 2267,
      "Ġsmelled": 2268,
      "Ġfront": 2269,
      "Ġhon": 2270,
      "ĠHow": 2271,
      "ĠSomet": 2272,
      "Ġbutton": 2273,
      "Ġpract": 2274,
      "ost": 2275,
      "Ġspotted": 2276,
      "Ġscreamed": 2277,
      "Ġzoo": 2278,
      "Ġminut": 2279,
      "Come": 2280,
      "Ġap": 2281,
      "Ġval": 2282,
      "Ġsaf": 2283,
      "Ġdou": 2284,
      "Ġdanced": 2285,
      "ape": 2286,
      "ĠAnn": 2287,
      "Ġtrouble": 2288,
      "Ġorgan": 2289,
      "end": 2290,
      "Ġquest": 2291,
      "Ġappeared": 2292,
      "ĠJake": 2293,
      "Ġwhich": 2294,
      "Ġpuzz": 2295,
      "Ġseat": 2296,
      "Ġmyster": 2297,
      "Ġsnowman": 2298,
      "Ġact": 2299,
      "oget": 2300,
      "isa": 2301,
      "bloons": 2302,
      "Ġsnake": 2303,
      "Ġthin": 2304,
      "ogether": 2305,
      "Ġwild": 2306,
      "Ġasleep": 2307,
      "Ġlovely": 2308,
      "Ġsur": 2309,
      "Ġdoubloons": 2310,
      "Ġanswer": 2311,
      "epend": 2312,
      "ĠTogether": 2313,
      "ned": 2314,
      "ocked": 2315,
      "Ġwearing": 2316,
      "ĠMittens": 2317,
      "Ġgently": 2318,
      "Ġneighbor": 2319,
      "oose": 2320,
      "Ġbark": 2321,
      "Ġhorse": 2322,
      "Ġgiant": 2323,
      "Ġplaces": 2324,
      "ĠRe": 2325,
      "Ġgoes": 2326,
      "Ġwhole": 2327,
      "Ġsearch": 2328,
      "Ġsu": 2329,
      "Ġshr": 2330,
      "Ġcorner": 2331,
      "Ġsplas": 2332,
      "ular": 2333,
      "Ġimpress": 2334,
      "Ġdirt": 2335,
      "ls": 2336,
      "ouch": 2337,
      "tr": 2338,
      "Ġmed": 2339,
      "Ġtries": 2340,
      "Ġbell": 2341,
      "Ġtrip": 2342,
      "Ġlive": 2343,
      "Ġconfused": 2344,
      "Ġmind": 2345,
      "oc": 2346,
      "ato": 2347,
      "Ġrolled": 2348,
      "Ġrob": 2349,
      "Ġcard": 2350,
      "Ġslid": 2351,
      "Ġtasted": 2352,
      "nic": 2353,
      "cean": 2354,
      "Ġdi": 2355,
      "Ġash": 2356,
      "Ġocean": 2357,
      "Ġsupp": 2358,
      "Ġforgive": 2359,
      "Ġpicnic": 2360,
      "ĠGo": 2361,
      "Ġrespect": 2362,
      "ĠLe": 2363,
      "Ġser": 2364,
      "Ġrude": 2365,
      "Ġtur": 2366,
      "Ġmachine": 2367,
      "Ġspent": 2368,
      "Ġdrive": 2369,
      "Ġteeth": 2370,
      "Ġmeet": 2371,
      "Ġphone": 2372,
      "Ġlast": 2373,
      "Ġoven": 2374,
      "Ġpour": 2375,
      "Ġcalm": 2376,
      "oh": 2377,
      "Ġpretended": 2378,
      "Ġdelight": 2379,
      "ĠLisa": 2380,
      "Ġcookie": 2381,
      "Ġfurry": 2382,
      "Ġspider": 2383,
      "Ġfeet": 2384,
      "Ġfaces": 2385,
      "Ġlay": 2386,
      "Ġworm": 2387,
      "Ġring": 2388,
      "umber": 2389,
      "unk": 2390,
      "Ġhelpful": 2391,
      "Ġscar": 2392,
      "Ġeventually": 2393,
      "Ġwip": 2394,
      "Ġwave": 2395,
      "Ġchick": 2396,
      "ones": 2397,
      "Ġmountain": 2398,
      "Ġhang": 2399,
      "la": 2400,
      "Ġpack": 2401,
      "Ġban": 2402,
      "Ġtalking": 2403,
      "ory": 2404,
      "Ġfold": 2405,
      "bar": 2406,
      "Ġshy": 2407,
      "Ġcart": 2408,
      "Ġtomorrow": 2409,
      "ocol": 2410,
      "Ġself": 2411,
      "Ġtid": 2412,
      "Ġchocol": 2413,
      "ĠSometimes": 2414,
      "Ġsal": 2415,
      "Ġspread": 2416,
      "Ġvillage": 2417,
      "ĠPeter": 2418,
      "Ġbroad": 2419,
      "arge": 2420,
      "ife": 2421,
      "Ġremind": 2422,
      "Ġign": 2423,
      "Ġtun": 2424,
      "Ġfoot": 2425,
      "Ġcouch": 2426,
      "Ġcoin": 2427,
      "Ġbroadside": 2428,
      "Ġwrite": 2429,
      "Ġladder": 2430,
      "Ġbuilding": 2431,
      "Ġpush": 2432,
      "Ġsmooth": 2433,
      "Ġfighting": 2434,
      "Ġtreats": 2435,
      "Ġwore": 2436,
      "Ġchased": 2437,
      "ighed": 2438,
      "Ġblew": 2439,
      "Ġstret": 2440,
      "lex": 2441,
      "aged": 2442,
      "rass": 2443,
      "barrass": 2444,
      "Ġbugs": 2445,
      "Ġhiding": 2446,
      "Ġembarrass": 2447,
      "My": 2448,
      "Ġpool": 2449,
      "Ġcross": 2450,
      "Ġ'": 2451,
      "Ġsack": 2452,
      "owed": 2453,
      "Ġwaiting": 2454,
      "oph": 2455,
      "Ġknee": 2456,
      "Ġrobot": 2457,
      "Ġneckl": 2458,
      "Ġstep": 2459,
      "Ġpuddle": 2460,
      "Ġfinish": 2461,
      "Ġshelf": 2462,
      "not": 2463,
      "als": 2464,
      "Ġsongs": 2465,
      "Ġstir": 2466,
      "ult": 2467,
      "Ġwhenever": 2468,
      "ator": 2469,
      "Ġselfish": 2470,
      "Ġmoney": 2471,
      "Ġmaybe": 2472,
      "Ġquick": 2473,
      "Ġcannot": 2474,
      "ĠSus": 2475,
      "Ġstring": 2476,
      "Ġsea": 2477,
      "ĠEverywhere": 2478,
      "Ġsol": 2479,
      "Ġchocolate": 2480,
      "Ġtaste": 2481,
      "Ġpaw": 2482,
      "ĠTeddy": 2483,
      "Ġple": 2484,
      "Ġhum": 2485,
      "Ġlarge": 2486,
      "Ġnet": 2487,
      "box": 2488,
      "Ġleaf": 2489,
      "Ġfixed": 2490,
      "lebr": 2491,
      "Ġbarked": 2492,
      "umpy": 2493,
      "Ġtidy": 2494,
      "Ġwash": 2495,
      "Ġbanan": 2496,
      "Ġspray": 2497,
      "Ġstone": 2498,
      "Ġcelebr": 2499,
      "Ġcloth": 2500,
      "Please": 2501,
      "Ġcrab": 2502,
      "Ġprotect": 2503,
      "Ġpeaceful": 2504,
      "ope": 2505,
      "Ġcolour": 2506,
      "cess": 2507,
      "old": 2508,
      "lubber": 2509,
      "nny": 2510,
      "ĠPlease": 2511,
      "ungle": 2512,
      "Ġlandlubber": 2513,
      "oin": 2514,
      "Ġhel": 2515,
      "arm": 2516,
      "top": 2517,
      "ird": 2518,
      "Ġcap": 2519,
      "Ġmissed": 2520,
      "Ġdeter": 2521,
      "Ġjungle": 2522,
      "iger": 2523,
      "ĠSome": 2524,
      "Ġlanded": 2525,
      "Ġdeterm": 2526,
      "Ġforward": 2527,
      "ĠDon": 2528,
      "Ġwhistle": 2529,
      "Ġembarrassed": 2530,
      "icks": 2531,
      "Ġnecklace": 2532,
      "airs": 2533,
      "Ġjumping": 2534,
      "elly": 2535,
      "Ġdecor": 2536,
      "Ġjog": 2537,
      "ask": 2538,
      "Ġsque": 2539,
      "Ġhears": 2540,
      "Ġtrust": 2541,
      "Ġkitten": 2542,
      "orry": 2543,
      "ĠEven": 2544,
      "Ġmoon": 2545,
      "Ġbal": 2546,
      "Ġsticks": 2547,
      "ĠTV": 2548,
      "Ġshirt": 2549,
      "Ġcreative": 2550,
      "Joh": 2551,
      "dle": 2552,
      "most": 2553,
      "Ġteach": 2554,
      "Ġknocked": 2555,
      "Ġtea": 2556,
      "Ġdisappoin": 2557,
      "Ġcarrots": 2558,
      "ĠYou": 2559,
      "Ġsuccess": 2560,
      "Ġmeadow": 2561,
      "Ġsharing": 2562,
      "Ġstood": 2563,
      "Ġveget": 2564,
      "ĠWhile": 2565,
      "Ġmeant": 2566,
      "Ġlegs": 2567,
      "Ġrod": 2568,
      "ĠLittle": 2569,
      "Ġtightly": 2570,
      "Ġbreath": 2571,
      "Ġpan": 2572,
      "Ġplate": 2573,
      "Ġalmost": 2574,
      "Ġashamed": 2575,
      "we": 2576,
      "Ġglow": 2577,
      "Ġemp": 2578,
      "Ġsour": 2579,
      "Ġgray": 2580,
      "Ġgrew": 2581,
      "Ġtells": 2582,
      "Ġpresent": 2583,
      "Ġempty": 2584,
      "ĠZ": 2585,
      "Ġpillow": 2586,
      "ground": 2587,
      "ony": 2588,
      "Ġgas": 2589,
      "Ġsplash": 2590,
      "ĠMummy": 2591,
      "anty": 2592,
      "Ġshanty": 2593,
      "Ġhonest": 2594,
      "Ġunderstood": 2595,
      "Ġscr": 2596,
      "Ġsheep": 2597,
      "Ġber": 2598,
      "ĠJohnny": 2599,
      "Ġcarried": 2600,
      "ĠWhy": 2601,
      "ĠBr": 2602,
      "ets": 2603,
      "Ġyelled": 2604,
      "den": 2605,
      "Ġlem": 2606,
      "ancy": 2607,
      "ustr": 2608,
      "Ġnods": 2609,
      "vous": 2610,
      "Ġsave": 2611,
      "Ġpolice": 2612,
      "Ġdisappointed": 2613,
      "Ġhours": 2614,
      "Ġsnacks": 2615,
      "arl": 2616,
      "Ġnut": 2617,
      "ital": 2618,
      "Ġwhisp": 2619,
      "Ġjew": 2620,
      "Ġthese": 2621,
      "ĠAlice": 2622,
      "hin": 2623,
      "Ġhosp": 2624,
      "Ġsparkly": 2625,
      "Ġgold": 2626,
      "Where": 2627,
      "Ġhospital": 2628,
      "Sam": 2629,
      "ork": 2630,
      "Ġship": 2631,
      "gy": 2632,
      "Ġpay": 2633,
      "Ġbounc": 2634,
      "Ġbored": 2635,
      "Ġline": 2636,
      "Ġgenerous": 2637,
      "Ġfrustr": 2638,
      "Ġlock": 2639,
      "Ġtest": 2640,
      "Ġhidden": 2641,
      "ught": 2642,
      "Ġtaught": 2643,
      "John": 2644,
      "Ġstanding": 2645,
      "Ġrad": 2646,
      "aul": 2647,
      "urse": 2648,
      "Ġscarf": 2649,
      "ĠLeo": 2650,
      "ĠMe": 2651,
      "Ġchew": 2652,
      "ped": 2653,
      "Ġreturned": 2654,
      "Ġminutes": 2655,
      "Ġknowing": 2656,
      "Ġpizz": 2657,
      "ear": 2658,
      "Ġgroup": 2659,
      "Ġhur": 2660,
      "llo": 2661,
      "Ġplants": 2662,
      "Ġeasy": 2663,
      "Ġbedroom": 2664,
      "ables": 2665,
      "Ġpolite": 2666,
      "Ġmysterious": 2667,
      "Ġwaves": 2668,
      "Ġglass": 2669,
      "Ġsighed": 2670,
      "ĠRex": 2671,
      "Ġshore": 2672,
      "Ġba": 2673,
      "Ġseed": 2674,
      "Ġwolf": 2675,
      "Ġseek": 2676,
      "Ġaye": 2677,
      "Ġdetermined": 2678,
      "kin": 2679,
      "Stop": 2680,
      "Ġpuzzle": 2681,
      "Ġpowerful": 2682,
      "Ġthankful": 2683,
      "Ġclass": 2684,
      "bbles": 2685,
      "Ġner": 2686,
      "Ġpir": 2687,
      "Ġsandwich": 2688,
      "Ġfig": 2689,
      "ina": 2690,
      "Ġnote": 2691,
      "Ġsleepy": 2692,
      "Ġprince": 2693,
      "Ġpassed": 2694,
      "Ġdrew": 2695,
      "Ġfinger": 2696,
      "'d": 2697,
      "Ġfrustrated": 2698,
      "Ġnervous": 2699,
      "Ġjelly": 2700,
      "Ġpizza": 2701,
      "Ġspicy": 2702,
      "Ġgun": 2703,
      "Ġspoil": 2704,
      "Ġmatch": 2705,
      "Ġfancy": 2706,
      "erp": 2707,
      "Ġmessy": 2708,
      "osaur": 2709,
      "work": 2710,
      "Ġgate": 2711,
      "Ġbridge": 2712,
      "ĠMark": 2713,
      "Ġkissed": 2714,
      "Ġcloset": 2715,
      "Ġfear": 2716,
      "Ġreg": 2717,
      "Ġmot": 2718,
      "Ġfeed": 2719,
      "Ġlaw": 2720,
      "Ġsold": 2721,
      "ying": 2722,
      "Ġpoor": 2723,
      "Ġwis": 2724,
      "ĠSusie": 2725,
      "Ġgathered": 2726,
      "ery": 2727,
      "Ġav": 2728,
      "Ġexcite": 2729,
      "Ġtick": 2730,
      "ote": 2731,
      "Ġcaterp": 2732,
      "Ġcaterpill": 2733,
      "Ġcirc": 2734,
      "Ġesc": 2735,
      "Ġflag": 2736,
      "Ġgrumpy": 2737,
      "Ġvan": 2738,
      "iddle": 2739,
      "Ġdinosaur": 2740,
      "Ġyourself": 2741,
      "issors": 2742,
      "ella": 2743,
      "uce": 2744,
      "Ġcollect": 2745,
      "Ġlit": 2746,
      "Ġanswered": 2747,
      "sel": 2748,
      "lower": 2749,
      "bble": 2750,
      "Ġcries": 2751,
      "Ġbooty": 2752,
      "Ġtwir": 2753,
      "Are": 2754,
      "Ġoften": 2755,
      "selves": 2756,
      "Ġscissors": 2757,
      "Ġhopping": 2758,
      "gly": 2759,
      "Ġtears": 2760,
      "Ġfill": 2761,
      "Sorry": 2762,
      "Ġmummy": 2763,
      "Ġugly": 2764,
      "Ġburn": 2765,
      "era": 2766,
      "Ġcand": 2767,
      "ensive": 2768,
      "Ġdeer": 2769,
      "Ġdrop": 2770,
      "Ġfil": 2771,
      "Ġexcitement": 2772,
      "Ġpers": 2773,
      "vel": 2774,
      "izzy": 2775,
      "Ġcaterpillar": 2776,
      "Ġmiddle": 2777,
      "ube": 2778,
      "Ġexpensive": 2779,
      "Ġsaved": 2780,
      "Ġworking": 2781,
      "Ġtaken": 2782,
      "Ġok": 2783,
      "mb": 2784,
      "Ġtrue": 2785,
      "Ġwagged": 2786,
      "Ġones": 2787,
      "Ġnic": 2788,
      "Ġpleased": 2789,
      "Ġcrown": 2790,
      "Ġspend": 2791,
      "Ġboring": 2792,
      "Ġpicks": 2793,
      "oof": 2794,
      "astic": 2795,
      "Ġleg": 2796,
      "ugar": 2797,
      "Ġtrave": 2798,
      "Ġvase": 2799,
      "Ġasking": 2800,
      "body": 2801,
      "ual": 2802,
      "Ġtie": 2803,
      "Ġbrush": 2804,
      "Ġmu": 2805,
      "ates": 2806,
      "ete": 2807,
      "Ġvegetables": 2808,
      "ecially": 2809,
      "Ġgiggled": 2810,
      "Ġmistake": 2811,
      "Ġcage": 2812,
      "Ġgets": 2813,
      "light": 2814,
      "ond": 2815,
      "Ġrocket": 2816,
      "Ġmir": 2817,
      "Ġcomfortable": 2818,
      "Who": 2819,
      "Ġeld": 2820,
      "Ġstuff": 2821,
      "Ġpacked": 2822,
      "Ġsugar": 2823,
      "itty": 2824,
      "pecially": 2825,
      "Ġdancing": 2826,
      "Ġespecially": 2827,
      "ĠToday": 2828,
      "Ġwander": 2829,
      "Ġclown": 2830,
      "Ġtent": 2831,
      "Ġmedic": 2832,
      "Ġnumber": 2833,
      "Ġpress": 2834,
      "Ġsight": 2835,
      "Ġknight": 2836,
      "ighter": 2837,
      "ushed": 2838,
      "ĠEventually": 2839,
      "iness": 2840,
      "ĠIf": 2841,
      "Ġeggs": 2842,
      "udy": 2843,
      "Ġfruits": 2844,
      "Ġlying": 2845,
      "Ġdrum": 2846,
      "Ġque": 2847,
      "ĠBobby": 2848,
      "Ġfake": 2849,
      "Ġdest": 2850,
      "ror": 2851,
      "Ġmedicine": 2852,
      "Ġwalks": 2853,
      "Ġdistance": 2854,
      "hoy": 2855,
      "Ġglue": 2856,
      "ĠU": 2857,
      "ĠBlue": 2858,
      "Ġsplashed": 2859,
      "Ġsweetie": 2860,
      "Ġbake": 2861,
      "Ġflut": 2862,
      "Ġbone": 2863,
      "Ġdrawing": 2864,
      "Ġmoving": 2865,
      "Ġdisappeared": 2866,
      "Ġweek": 2867,
      "ĠOK": 2868,
      "Ġlead": 2869,
      "Ġsmelly": 2870,
      "Ġclap": 2871,
      "Ġbecome": 2872,
      "Ġlemon": 2873,
      "Ġcheck": 2874,
      "Ġchange": 2875,
      "ĠKitty": 2876,
      "Ġpray": 2877,
      "Ġfeathers": 2878,
      "ĠDan": 2879,
      "Ġmoms": 2880,
      "Ġlose": 2881,
      "Ġkick": 2882,
      "Ġmov": 2883,
      "Ġlicked": 2884,
      "Ġcalling": 2885,
      "Ġtwist": 2886,
      "Ġdogs": 2887,
      "pack": 2888,
      "Ġplayground": 2889,
      "yal": 2890,
      "Ġfis": 2891,
      "Ġlazy": 2892,
      "Ġroar": 2893,
      "Ġelderly": 2894,
      "Ġincred": 2895,
      "Ġweak": 2896,
      "Ġgar": 2897,
      "?\".": 2898,
      "Now": 2899,
      "Ġbody": 2900,
      "Ġhorn": 2901,
      "Ġexam": 2902,
      "Ġshoot": 2903,
      "Ġclear": 2904,
      "Ġquestions": 2905,
      "Ġadd": 2906,
      "Ġwrote": 2907,
      "Ġyog": 2908,
      "Ġyours": 2909,
      "Ġlog": 2910,
      "Ġnoisy": 2911,
      "Ġfather": 2912,
      "Ġmirror": 2913,
      "Ġhello": 2914,
      "Ġahoy": 2915,
      "uggest": 2916,
      "Ġmic": 2917,
      "Ġnod": 2918,
      "Ġadventur": 2919,
      "Ġsuggest": 2920,
      "ĠFred": 2921,
      "ĠPete": 2922,
      "Ġskipped": 2923,
      "Ġfluffy": 2924,
      "Ġed": 2925,
      "Ġwheel": 2926,
      "Ġeager": 2927,
      "Ġlamp": 2928,
      "Ġloyal": 2929,
      "Ġdish": 2930,
      "land": 2931,
      "Ġfamous": 2932,
      "ĠEnd": 2933,
      "Ġdig": 2934,
      "Ġruined": 2935,
      "Ġstones": 2936,
      "ination": 2937,
      "Ġord": 2938,
      "ating": 2939,
      "Ġrich": 2940,
      "Ġtape": 2941,
      "ĠMandy": 2942,
      "Ġsell": 2943,
      "Ġdrank": 2944,
      "Ġfigure": 2945,
      "apping": 2946,
      "Ġqueen": 2947,
      "ĠEllie": 2948,
      "Ġincredible": 2949,
      "Ġmarch": 2950,
      "Ġmap": 2951,
      "Ġshows": 2952,
      "Ġrid": 2953,
      "Ġjuicy": 2954,
      "ha": 2955,
      "Ġsoap": 2956,
      "ti": 2957,
      "li": 2958,
      "Ġind": 2959,
      "Ġsailed": 2960,
      "imp": 2961,
      "Ġrelax": 2962,
      "Ġballs": 2963,
      "Ġham": 2964,
      "lies": 2965,
      "illi": 2966,
      "zed": 2967,
      "Ġteam": 2968,
      "ĠSt": 2969,
      "ately": 2970,
      "Ġboss": 2971,
      "Ġdecide": 2972,
      "Ġrealised": 2973,
      "Ġdiscovered": 2974,
      "Ġmeasure": 2975,
      "hip": 2976,
      "Ġneeds": 2977,
      "Ġcoins": 2978,
      "Ġborrow": 2979,
      "Ġswan": 2980,
      "Ġrare": 2981,
      "Hel": 2982,
      "aser": 2983,
      "Ġstraw": 2984,
      "Ġcontent": 2985,
      "cept": 2986,
      "Ġextr": 2987,
      "Help": 2988,
      "Ġcleaned": 2989,
      "Ġbranches": 2990,
      "Ġtowel": 2991,
      "Ġmicr": 2992,
      "Ġboys": 2993,
      "asing": 2994,
      "Ġextra": 2995,
      "ĠElla": 2996,
      "Well": 2997,
      "Ġboard": 2998,
      "Ġmod": 2999,
      "Be": 3000,
      "Ġpro": 3001,
      "Ġtiger": 3002,
      "Ġchicken": 3003,
      "Ġmotor": 3004,
      "Ġadventurous": 3005,
      "Ġtag": 3006,
      "port": 3007,
      "Ġjoke": 3008,
      "Ġdiffic": 3009,
      "Ġeye": 3010,
      "Ġare": 3011,
      "Ġoffered": 3012,
      "Ġfine": 3013,
      "keep": 3014,
      "Ġbalance": 3015,
      "ĠBrown": 3016,
      "Ġlifted": 3017,
      "ĠMar": 3018,
      "umbled": 3019,
      "ique": 3020,
      "Ġbubbles": 3021,
      "Ġcolourful": 3022,
      "Ġfrown": 3023,
      "Ġturtle": 3024,
      "Ġthick": 3025,
      "tom": 3026,
      "ĠNay": 3027,
      "ĠRose": 3028,
      "Ġdifficult": 3029,
      "Ġbottom": 3030,
      "Ġtoug": 3031,
      "alous": 3032,
      "Ġorganized": 3033,
      "Ġcover": 3034,
      "Ġhappening": 3035,
      "Ġtrack": 3036,
      "Ġunique": 3037,
      "Ġjealous": 3038,
      "Ġdolp": 3039,
      "Ġhose": 3040,
      "Ġrubb": 3041,
      "Ġknife": 3042,
      "ĠBella": 3043,
      "Ġweird": 3044,
      "Ġisland": 3045,
      "ĠBobo": 3046,
      "Ġpin": 3047,
      "Ġgarage": 3048,
      "cil": 3049,
      "Ġfright": 3050,
      "Ġmanaged": 3051,
      "imed": 3052,
      "Ġhurts": 3053,
      "Ġpencil": 3054,
      "Ġword": 3055,
      "Ġlow": 3056,
      "Me": 3057,
      "Ġcost": 3058,
      "Ġcrawled": 3059,
      "Ġlearning": 3060,
      "Ġarg": 3061,
      "Ġcircle": 3062,
      "ĠMrs": 3063,
      "Ġsaying": 3064,
      "ages": 3065,
      "Ġberries": 3066,
      "Ġonce": 3067,
      "Ġtough": 3068,
      "Ġkindness": 3069,
      "Ġrep": 3070,
      "olog": 3071,
      "Ġmighty": 3072,
      "ject": 3073,
      "Ġpointing": 3074,
      "Ġbald": 3075,
      "Ġchase": 3076,
      "Ġfavour": 3077,
      "Ġballoons": 3078,
      "ured": 3079,
      "ready": 3080,
      "Ġhunt": 3081,
      "Ġsquee": 3082,
      "Ġwand": 3083,
      "Ġter": 3084,
      "keeper": 3085,
      "ume": 3086,
      "Ġbur": 3087,
      "Ġshake": 3088,
      "Ġjewel": 3089,
      "Ġlouder": 3090,
      "Ġadded": 3091,
      "ipper": 3092,
      "Ġbatter": 3093,
      "Ġsil": 3094,
      "Ġguit": 3095,
      "Ġharder": 3096,
      "Ġguess": 3097,
      "Ġapolog": 3098,
      "Ġang": 3099,
      "Ġunus": 3100,
      "Ġedge": 3101,
      "head": 3102,
      "Ġalready": 3103,
      "Ġfour": 3104,
      "ĠTweety": 3105,
      "Ġspun": 3106,
      "Ġfavourite": 3107,
      "Ġnorm": 3108,
      "Ġwhale": 3109,
      "ipp": 3110,
      "Ġfool": 3111,
      "Ġunusual": 3112,
      "Ġlibr": 3113,
      "Ġvalu": 3114,
      "Ġenjoying": 3115,
      "alk": 3116,
      "Ġdizzy": 3117,
      "Ġpump": 3118,
      "Ġbelonged": 3119,
      "Ġhats": 3120,
      "Ġwrapped": 3121,
      "Ġcheerful": 3122,
      "Ġsmoke": 3123,
      "uggled": 3124,
      "Ġimpressed": 3125,
      "ĠMike": 3126,
      "Ġtrucks": 3127,
      "Ġstrawber": 3128,
      "Ġrecord": 3129,
      "ging": 3130,
      "Ġsword": 3131,
      "Ġgiving": 3132,
      "Ġmarket": 3133,
      "Ġgrown": 3134,
      "ĠGrandpa": 3135,
      "Ġlaughs": 3136,
      "Ġtrunk": 3137,
      "Ġnormal": 3138,
      "anged": 3139,
      "Ġhero": 3140,
      "Ġears": 3141,
      "Ġguitar": 3142,
      "Ġloudly": 3143,
      "aff": 3144,
      "illiant": 3145,
      "Ġharm": 3146,
      "Lila": 3147,
      "ola": 3148,
      "Ġbanana": 3149,
      "Here": 3150,
      "Ġproudly": 3151,
      "Ġboxes": 3152,
      "Ġbrilliant": 3153,
      "ilt": 3154,
      "Ġchoose": 3155,
      "ature": 3156,
      "Ġbrothers": 3157,
      "Ġbossy": 3158,
      "Ġsock": 3159,
      "Ġstubb": 3160,
      "Ġdreamed": 3161,
      "Ġcircles": 3162,
      "Ġagainst": 3163,
      "Ġtalk": 3164,
      "Ġescape": 3165,
      "Ġgoat": 3166,
      "ym": 3167,
      "Ġinvited": 3168,
      "Ġskin": 3169,
      "Ġcab": 3170,
      "Ġhelps": 3171,
      "ĠDave": 3172,
      "Ġcompet": 3173,
      "Ġpil": 3174,
      "ipe": 3175,
      "ero": 3176,
      "Ġpainting": 3177,
      "Ġcrack": 3178,
      "Ġmeans": 3179,
      "Ġquickly": 3180,
      "Ġmelt": 3181,
      "Ġfrightened": 3182,
      "cient": 3183,
      "Ġsuit": 3184,
      "ĠSoph": 3185,
      "Ġaccept": 3186,
      "Ġpee": 3187,
      "Ġflash": 3188,
      "fast": 3189,
      "Ġsafely": 3190,
      "Ġdepend": 3191,
      "Ġbuttons": 3192,
      "Ġslipped": 3193,
      "Ġbirdie": 3194,
      "Ġwrap": 3195,
      "Ġjack": 3196,
      "Ġcabin": 3197,
      "Ġsnee": 3198,
      "Ġcrayon": 3199,
      "Ġvaluable": 3200,
      "Ġstream": 3201,
      "Ġwake": 3202,
      "Ġwalls": 3203,
      "ouses": 3204,
      "Ġbreakfast": 3205,
      "Ġhappiness": 3206,
      "erry": 3207,
      "edient": 3208,
      "Ġancient": 3209,
      "Ġstudy": 3210,
      "Ġvet": 3211,
      "Ġsuccessful": 3212,
      "Ġclay": 3213,
      "emo": 3214,
      "orge": 3215,
      "Ġknows": 3216,
      "Ġfoolish": 3217,
      "Ġfalls": 3218,
      "Ġfridge": 3219,
      "Ġlean": 3220,
      "ĠNemo": 3221,
      "Ġstubborn": 3222,
      "Ġunl": 3223,
      "atch": 3224,
      "Ġnicely": 3225,
      "Ġshape": 3226,
      "omed": 3227,
      "Ġfier": 3228,
      "Ġdrink": 3229,
      "Ġcudd": 3230,
      "Ġfat": 3231,
      "Ġrough": 3232,
      "Ġdreams": 3233,
      "Ġmovie": 3234,
      "Ġcity": 3235,
      "Ġnosy": 3236,
      "iv": 3237,
      "Ġspace": 3238,
      "Ġbloom": 3239,
      "Ġdelicate": 3240,
      "Ġhouses": 3241,
      "ĠLola": 3242,
      "Ġobedient": 3243,
      "Ġoffice": 3244,
      "Ġtomato": 3245,
      "Ġgrandpa": 3246,
      "Ġchar": 3247,
      "ado": 3248,
      "Ġdesign": 3249,
      "laimed": 3250,
      "Ġicy": 3251,
      "Ġcorn": 3252,
      "iney": 3253,
      "Ġpri": 3254,
      "Ġcompetit": 3255,
      "Ġsuggested": 3256,
      "plane": 3257,
      "Ġshark": 3258,
      "Ġnotice": 3259,
      "Ġwagon": 3260,
      "Ġexclaimed": 3261,
      "Ġmem": 3262,
      "Ġkinds": 3263,
      "Ġmixed": 3264,
      "oot": 3265,
      "Ġwiped": 3266,
      "ext": 3267,
      "Ġcher": 3268,
      "Ġuseful": 3269,
      "Ġpoured": 3270,
      "cy": 3271,
      "Ġbriney": 3272,
      "ÅĵLet": 3273,
      "uth": 3274,
      "Ġshells": 3275,
      "Ġlights": 3276,
      "Ġnearby": 3277,
      "Ġscur": 3278,
      "Ġtools": 3279,
      "Ġlocked": 3280,
      "oppy": 3281,
      "atter": 3282,
      "Ġsounded": 3283,
      "Ġaunt": 3284,
      "wards": 3285,
      "Ġstove": 3286,
      "Ġexcitedly": 3287,
      "Ġexplored": 3288,
      "Ġegg": 3289,
      "bled": 3290,
      "Ġfrag": 3291,
      "eorge": 3292,
      "Ġrose": 3293,
      "!\".": 3294,
      "Ġperform": 3295,
      "Ġson": 3296,
      "Ġshadow": 3297,
      "Ġtimes": 3298,
      "Ġenc": 3299,
      "ected": 3300,
      "Ġfierce": 3301,
      "Ġbags": 3302,
      "Ġfountain": 3303,
      "ention": 3304,
      "Ġthemselves": 3305,
      "ache": 3306,
      "Ġstumbled": 3307,
      "Ġbushes": 3308,
      "arry": 3309,
      "rell": 3310,
      "dom": 3311,
      "Ġweal": 3312,
      "Ġspoiled": 3313,
      "Ġshowing": 3314,
      "Ġfingers": 3315,
      "Ġlab": 3316,
      "Ġstri": 3317,
      "Ġcheer": 3318,
      "Ġabove": 3319,
      "vice": 3320,
      "Ġclock": 3321,
      "Ġthoughtful": 3322,
      "Ġresc": 3323,
      "ĠDucky": 3324,
      "kn": 3325,
      "Ġsmaller": 3326,
      "Ġindepend": 3327,
      "Ġwitch": 3328,
      "Ġdough": 3329,
      "str": 3330,
      "rible": 3331,
      "oby": 3332,
      "Ġdependable": 3333,
      "Ġfragile": 3334,
      "dge": 3335,
      "Ġraced": 3336,
      "ĠWhenever": 3337,
      "ĠSn": 3338,
      "Ġplayful": 3339,
      "inal": 3340,
      "arth": 3341,
      "Ġseem": 3342,
      "Ġhelm": 3343,
      "Ġspinning": 3344,
      "Ġeng": 3345,
      "Ġtele": 3346,
      "corn": 3347,
      "ines": 3348,
      "Ġbrightly": 3349,
      "Ġprint": 3350,
      "Ġrode": 3351,
      "Ġparrot": 3352,
      "Ġstretch": 3353,
      "ormous": 3354,
      "Ġdelighted": 3355,
      "Ġbuilt": 3356,
      "Ġloll": 3357,
      "Ġadmired": 3358,
      "Ġenormous": 3359,
      "ict": 3360,
      "Ġkicked": 3361,
      "Ġroof": 3362,
      "na": 3363,
      "reen": 3364,
      "Ġcounted": 3365,
      "Ġjam": 3366,
      "Ġswe": 3367,
      "Ġrat": 3368,
      "Ġorig": 3369,
      "Ġways": 3370,
      "Ġchanged": 3371,
      "Ġpractice": 3372,
      "Ġshone": 3373,
      "Ġsunf": 3374,
      "Ġcop": 3375,
      "obe": 3376,
      "Ġreminded": 3377,
      "Ġtwig": 3378,
      "Ġacorn": 3379,
      "ither": 3380,
      "Ġcam": 3381,
      "Ġsniff": 3382,
      "ience": 3383,
      "Ġzip": 3384,
      "Ġhammer": 3385,
      "Ġbitter": 3386,
      "Ġusing": 3387,
      "Ġhanded": 3388,
      "Ġwhispered": 3389,
      "ĠYour": 3390,
      "Ġhoop": 3391,
      "mbrell": 3392,
      "known": 3393,
      "Ġchose": 3394,
      "anut": 3395,
      "Ġchir": 3396,
      "Ġjolly": 3397,
      "Ġcone": 3398,
      "Ġumbrell": 3399,
      "Ġtunn": 3400,
      "Ġsolve": 3401,
      "Ġindependent": 3402,
      "Ġstronger": 3403,
      "Ġbees": 3404,
      "Ġserious": 3405,
      "ipop": 3406,
      "Ġoriginal": 3407,
      "Ġtummy": 3408,
      "Ġbeak": 3409,
      "Ġsteal": 3410,
      "Ġbrace": 3411,
      "Ġterrible": 3412,
      "ibb": 3413,
      "ÅĵYes": 3414,
      "Ġmis": 3415,
      "ĠBill": 3416,
      "Ġfre": 3417,
      "Ġpainted": 3418,
      "Ġlollipop": 3419,
      "Ġpopcorn": 3420,
      "Ġboats": 3421,
      "Ġallowed": 3422,
      "ĠSu": 3423,
      "Ġhairy": 3424,
      "Ġmoder": 3425,
      "Ġgrand": 3426,
      "iable": 3427,
      "Ġsauce": 3428,
      "Ġcleaning": 3429,
      "ĠGeorge": 3430,
      "Ġunknown": 3431,
      "Ġleaving": 3432,
      "Ġdust": 3433,
      "Ġgasped": 3434,
      "Ġfinding": 3435,
      "Ġjoined": 3436,
      "Ġguard": 3437,
      "Ġsalad": 3438,
      "ĠPe": 3439,
      "Ġpotato": 3440,
      "het": 3441,
      "Ġscare": 3442,
      "Ġbean": 3443,
      "Ġpumpkin": 3444,
      "upid": 3445,
      "iew": 3446,
      "ĠToby": 3447,
      "Ġclum": 3448,
      "Ġpicking": 3449,
      "Ġdove": 3450,
      "Ġbump": 3451,
      "inary": 3452,
      "Ġhalf": 3453,
      "Ġsink": 3454,
      "amond": 3455,
      "uring": 3456,
      "Ġtoast": 3457,
      "ĠCl": 3458,
      "Ġint": 3459,
      "Ġyet": 3460,
      "Ġmetal": 3461,
      "Ġtank": 3462,
      "Ġpost": 3463,
      "Ġbounce": 3464,
      "Ġreliable": 3465,
      "robe": 3466,
      "Ġview": 3467,
      "Ġdoesn": 3468,
      "Ġtor": 3469,
      "Ġthose": 3470,
      "Ġforth": 3471,
      "aghet": 3472,
      "aghetti": 3473,
      "Ġpower": 3474,
      "Ġdiamond": 3475,
      "Ġdolphin": 3476,
      "Ġadvice": 3477,
      "ĠOnce": 3478,
      "Ġhay": 3479,
      "Ġbarber": 3480,
      "Ġmodern": 3481,
      "Ġstamp": 3482,
      "Ġthinking": 3483,
      "Ġgem": 3484,
      "Ġing": 3485,
      "Ġholds": 3486,
      "gu": 3487,
      "ebr": 3488,
      "com": 3489,
      "Ġpirate": 3490,
      "ugged": 3491,
      "tern": 3492,
      "Ġcreate": 3493,
      "How": 3494,
      "Ġregular": 3495,
      "Ġingred": 3496,
      "Ġclumsy": 3497,
      "Ġsleeping": 3498,
      "Ġrub": 3499,
      "Ġcoll": 3500,
      "Ġsearching": 3501,
      "Ġstairs": 3502,
      "Ġwealthy": 3503,
      "ĠKim": 3504,
      "Ġyarn": 3505,
      "See": 3506,
      "Ġrushed": 3507,
      "Ġstupid": 3508,
      "ray": 3509,
      "Ġprep": 3510,
      "ilty": 3511,
      "Ġtelling": 3512,
      "Ġguilty": 3513,
      "ients": 3514,
      "Ġcheap": 3515,
      "Ġpeanut": 3516,
      "Ġgoose": 3517,
      "Ġspaghetti": 3518,
      "ÅĵWhat": 3519,
      "Ġmagn": 3520,
      "Ġflex": 3521,
      "Ġcomple": 3522,
      "Ġopens": 3523,
      "Ġcompass": 3524,
      "Ġmask": 3525,
      "Ġpatch": 3526,
      "Ġdestr": 3527,
      "Ġstat": 3528,
      "Ġarrow": 3529,
      "Ġzebr": 3530,
      "Ġengine": 3531,
      "io": 3532,
      "Ġthunder": 3533,
      "Ġknock": 3534,
      "aven": 3535,
      "illa": 3536,
      "irsty": 3537,
      "Ġangel": 3538,
      "ĠAb": 3539,
      "ĠBear": 3540,
      "Ġgraceful": 3541,
      "Ġcamera": 3542,
      "Ġumbrella": 3543,
      "Ġdriving": 3544,
      "ocod": 3545,
      "Ġcollec": 3546,
      "âĤ¬âĢ": 3547,
      "Ġcrazy": 3548,
      "Ġshiver": 3549,
      "Ġwashed": 3550,
      "Ġcarrying": 3551,
      "oe": 3552,
      "ief": 3553,
      "Ġstage": 3554,
      "Ġpopular": 3555,
      "Ġbeet": 3556,
      "isk": 3557,
      "Ġsof": 3558,
      "umbers": 3559,
      "Ġdull": 3560,
      "ĠPolly": 3561,
      "ÅĵIt": 3562,
      "Ġmissing": 3563,
      "Ġsparkled": 3564,
      "Ġtruth": 3565,
      "Ġmeal": 3566,
      "ĠSophie": 3567,
      "Ġseeds": 3568,
      "Ġfriendship": 3569,
      "Ġflexible": 3570,
      "Ġsne": 3571,
      "iches": 3572,
      "Ġimpressive": 3573,
      "Ġtied": 3574,
      "Ġdeliver": 3575,
      "time": 3576,
      "Go": 3577,
      "Ġcareless": 3578,
      "Ġlibrary": 3579,
      "ĠPaul": 3580,
      "Ġimagined": 3581,
      "Ġcomb": 3582,
      "uper": 3583,
      "Ġfresh": 3584,
      "Ġnature": 3585,
      "Ġshel": 3586,
      "Ġending": 3587,
      "Ġdestroy": 3588,
      "Ġjacket": 3589,
      "Ġpersist": 3590,
      "Ġreward": 3591,
      "fish": 3592,
      "ision": 3593,
      "Ġhandle": 3594,
      "Ġrubbed": 3595,
      "Ġingredients": 3596,
      "Ġdreaming": 3597,
      "Ġshocked": 3598,
      "ĠAlex": 3599,
      "Ġprize": 3600,
      "oomy": 3601,
      "Ġcoo": 3602,
      "Ġsudden": 3603,
      "Ġcrocod": 3604,
      "Ġload": 3605,
      "Ġenth": 3606,
      "Ġpattern": 3607,
      "Ġpige": 3608,
      "Ġcompassion": 3609,
      "ĠNext": 3610,
      "Ġenvel": 3611,
      "Ġagree": 3612,
      "Ġflashlight": 3613,
      "Ġthirsty": 3614,
      "Ġsadly": 3615,
      "Ġencour": 3616,
      "arsh": 3617,
      "usi": 3618,
      "ĠLook": 3619,
      "Ġenthusi": 3620,
      "Ġwheels": 3621,
      "Ġdesk": 3622,
      "ÅĵLetÃ¢": 3623,
      "Ġbull": 3624,
      "Ġrepair": 3625,
      "ĠJoey": 3626,
      "Ġreading": 3627,
      "Ġwire": 3628,
      "Ġdiscover": 3629,
      "Ġearly": 3630,
      "Ġfork": 3631,
      "Ġmailbox": 3632,
      "Ġnumbers": 3633,
      "Ġtem": 3634,
      "Ġpeeked": 3635,
      "az": 3636,
      "Ġbeg": 3637,
      "ĠAndy": 3638,
      "Ġpenny": 3639,
      "Ġbutterflies": 3640,
      "Ġcryst": 3641,
      "Ġspilled": 3642,
      "Ġbracelet": 3643,
      "Ġrug": 3644,
      "Ġtorn": 3645,
      "Ġgum": 3646,
      "Ġstops": 3647,
      "Ġrece": 3648,
      "Ġcomput": 3649,
      "Ġahead": 3650,
      "Ġorder": 3651,
      "Ġtowers": 3652,
      "Ġspring": 3653,
      "comfort": 3654,
      "Ġsorts": 3655,
      "ellig": 3656,
      "Ġwing": 3657,
      "Ġobject": 3658,
      "Ġbent": 3659,
      "Ġanx": 3660,
      "Ġcere": 3661,
      "Ġsurf": 3662,
      "Ġpengu": 3663,
      "Ġwarned": 3664,
      "Ġintellig": 3665,
      "Ġearth": 3666,
      "Ġwindows": 3667,
      "Ġspoke": 3668,
      "Ġpup": 3669,
      "gest": 3670,
      "There": 3671,
      "Ġuncomfort": 3672,
      "Ġhumble": 3673,
      "ric": 3674,
      "Ġpant": 3675,
      "Ġpale": 3676,
      "Ġuncomfortable": 3677,
      "Ġplaced": 3678,
      "Ġsunflower": 3679,
      "Ġbadly": 3680,
      "anda": 3681,
      "Ġolder": 3682,
      "ract": 3683,
      "Ġanxious": 3684,
      "Ġslides": 3685,
      "Ġbiggest": 3686,
      "Ġscale": 3687,
      "Ġcompl": 3688,
      "ĠcouldnÃ¢": 3689,
      "Ġsir": 3690,
      "Ġflute": 3691,
      "Ow": 3692,
      "ices": 3693,
      "Ġstatue": 3694,
      "Ġscoot": 3695,
      "Ġgrowing": 3696,
      "Ġcounting": 3697,
      "Ġcooking": 3698,
      "Ġtrap": 3699,
      "Ġliz": 3700,
      "ikes": 3701,
      "Ġtunnel": 3702,
      "Ġbeetle": 3703,
      "Ġcelebrate": 3704,
      "host": 3705,
      "icycle": 3706,
      "Ġmel": 3707,
      "Ġcupboard": 3708,
      "They": 3709,
      "Ġsofa": 3710,
      "Ġaw": 3711,
      "Ġnail": 3712,
      "Ġharmless": 3713,
      "Ġscatter": 3714,
      "Ġenv": 3715,
      "Ġmole": 3716,
      "Ġdeaf": 3717,
      "Ġnurse": 3718,
      "Ġsuper": 3719,
      "Ġtool": 3720,
      "Ġperm": 3721,
      "Ġvalue": 3722,
      "ĠHere": 3723,
      "Ġer": 3724,
      "Ġpeace": 3725,
      "Yay": 3726,
      "Ġref": 3727,
      "Ġshut": 3728,
      "Ġjumps": 3729,
      "Ġcrocodile": 3730,
      "Ġhung": 3731,
      "Ġpersistent": 3732,
      "Ġghost": 3733,
      "Ġgifted": 3734,
      "ĠCharl": 3735,
      "Ġrefused": 3736,
      "ĠPat": 3737,
      "Ġcharming": 3738,
      "Ġtrick": 3739,
      "ĠGive": 3740,
      "Ġneat": 3741,
      "Ġnames": 3742,
      "Ġyaw": 3743,
      "opus": 3744,
      "ctopus": 3745,
      "Ġcrane": 3746,
      "Ġcourage": 3747,
      "Ġcurt": 3748,
      "Ġpretending": 3749,
      "Ġpony": 3750,
      "Ġcereal": 3751,
      "Ġflour": 3752,
      "Ġsandwiches": 3753,
      "agg": 3754,
      "Ġsnuggled": 3755,
      "Ġcurtain": 3756,
      "Ġsupport": 3757,
      "Ġordinary": 3758,
      "cream": 3759,
      "Ġchasing": 3760,
      "Ġuniver": 3761,
      "ince": 3762,
      "Ġquestion": 3763,
      "Ġenvelope": 3764,
      "aches": 3765,
      "ĠUn": 3766,
      "Ġdrawer": 3767,
      "Ġvi": 3768,
      "Ġtriang": 3769,
      "Ġpian": 3770,
      "ĠTr": 3771,
      "Ġcamp": 3772,
      "Ġcomputer": 3773,
      "Ġoctopus": 3774,
      "Ġrules": 3775,
      "Ġstation": 3776,
      "Ġlively": 3777,
      "Ġgloomy": 3778,
      "ips": 3779,
      "Ġsend": 3780,
      "Ġuncle": 3781,
      "Ġraven": 3782,
      "ubby": 3783,
      "Ġcho": 3784,
      "Ġintelligent": 3785,
      "He": 3786,
      "Ġmay": 3787,
      "Ġpiano": 3788,
      "Ġmush": 3789,
      "Tommy": 3790,
      "ĠRob": 3791,
      "Ġspeed": 3792,
      "Ġpackage": 3793,
      "Ġfan": 3794,
      "Ġshaking": 3795,
      "ro": 3796,
      "Ġblueber": 3797,
      "Ġhelmet": 3798,
      "Ġcrystal": 3799,
      "Ġneedle": 3800,
      "Ġmushroom": 3801,
      "Ġturkey": 3802,
      "Ġcollar": 3803,
      "Ġparade": 3804,
      "Ġcreatures": 3805,
      "heart": 3806,
      "ÅĵThat": 3807,
      "Ġhurry": 3808,
      "Ġtwirled": 3809,
      "Ġphot": 3810,
      "ath": 3811,
      "Ġlizard": 3812,
      "ocer": 3813,
      "ĠSm": 3814,
      "erable": 3815,
      "enry": 3816,
      "orant": 3817,
      "par": 3818,
      "Ġattract": 3819,
      "Ġalert": 3820,
      "Max": 3821,
      "Ġmiserable": 3822,
      "Ġthief": 3823,
      "gust": 3824,
      "Ġzebra": 3825,
      "Ġsoldier": 3826,
      "Ġhunter": 3827,
      "od": 3828,
      "ceed": 3829,
      "Ġtask": 3830,
      "Ġpepper": 3831,
      "illie": 3832,
      "Ġanywhere": 3833,
      "Ġdug": 3834,
      "Ġdisgust": 3835,
      "Ġfireman": 3836,
      "cc": 3837,
      "Ġener": 3838,
      "ĠRed": 3839,
      "Ġribb": 3840,
      "Ġcarp": 3841,
      "cut": 3842,
      "ĠBefore": 3843,
      "Ġwishes": 3844,
      "Ġseal": 3845,
      "Ġresist": 3846,
      "Ġled": 3847,
      "Ġvide": 3848,
      "Ġignorant": 3849,
      "Ġbeep": 3850,
      "Ġbandage": 3851,
      "Ġknot": 3852,
      "Ġstickers": 3853,
      "ĠBrownie": 3854,
      "Ġscreen": 3855,
      "cond": 3856,
      "ĠGrace": 3857,
      "Ġradio": 3858,
      "Ġhelpless": 3859,
      "Ġbounced": 3860,
      "Ġtrash": 3861,
      "Give": 3862,
      "Ġsecond": 3863,
      "aked": 3864,
      "Ġleash": 3865,
      "Ġrepe": 3866,
      "Ġpracticed": 3867,
      "Ġmuff": 3868,
      "Ġchance": 3869,
      "Ġletters": 3870,
      "Ġattractive": 3871,
      "Ġmill": 3872,
      "Ġimpat": 3873,
      "Ġcrick": 3874,
      "Ġstirred": 3875,
      "Ġjeep": 3876,
      "Ġstretched": 3877,
      "ser": 3878,
      "Ġnobody": 3879,
      "Ġthread": 3880,
      "urb": 3881,
      "Ġcube": 3882,
      "ummer": 3883,
      "Ġchubby": 3884,
      "eng": 3885,
      "Ġshine": 3886,
      "Ġpasta": 3887,
      "Ġpigeon": 3888,
      "Ġfact": 3889,
      "Ġjet": 3890,
      "ĠAnnie": 3891,
      "Ġcompassionate": 3892,
      "Ġsquare": 3893,
      "Ġtooth": 3894,
      "If": 3895,
      "Ġclub": 3896,
      "coli": 3897,
      "tless": 3898,
      "Ġcoco": 3899,
      "Ġtrump": 3900,
      "Ġdisturb": 3901,
      "Ġdecorate": 3902,
      "orable": 3903,
      "ĠTweetie": 3904,
      "Ġbrighter": 3905,
      "Ġcocoa": 3906,
      "Ġjug": 3907,
      "Ġimpatient": 3908,
      "Ġsteps": 3909,
      "iest": 3910,
      "arian": 3911,
      "Ġtire": 3912,
      "Ġcompetitive": 3913,
      "Ġscoop": 3914,
      "Ġfurther": 3915,
      "Ġotter": 3916,
      "Ġrespectful": 3917,
      "Ġsucceed": 3918,
      "Timmy": 3919,
      "Ġtroubled": 3920,
      "Ġpressed": 3921,
      "olin": 3922,
      "Ġbathroom": 3923,
      "Ġitself": 3924,
      "Ġostr": 3925,
      "Ġcandle": 3926,
      "Ġmug": 3927,
      "Ġaftern": 3928,
      "ĠJerry": 3929,
      "Ġattic": 3930,
      "Ġrestless": 3931,
      "Ġstarts": 3932,
      "Ġtravel": 3933,
      "Ġpilot": 3934,
      "Ġpun": 3935,
      "ĠBet": 3936,
      "Ġsomewhere": 3937,
      "ations": 3938,
      "Ġquar": 3939,
      "aurant": 3940,
      "Ġcarpet": 3941,
      "Ġdess": 3942,
      "Ġanyway": 3943,
      "Ġshouts": 3944,
      "Ġshoe": 3945,
      "Ġdisgusting": 3946,
      "Ġadorable": 3947,
      "Ġrestaurant": 3948,
      "Ġskip": 3949,
      "Ġleop": 3950,
      "Ġfort": 3951,
      "Ġpants": 3952,
      "Ġintr": 3953,
      "Ġvine": 3954,
      "Ġtray": 3955,
      "Ġnuts": 3956,
      "Ġcase": 3957,
      "Ġgor": 3958,
      "Ġwaff": 3959,
      "Ġfearful": 3960,
      "Ġscrew": 3961,
      "Ġenvious": 3962,
      "Ġsweetheart": 3963,
      "opter": 3964,
      "Ġcards": 3965,
      "Ġallig": 3966,
      "icopter": 3967,
      "Ġbroc": 3968,
      "Ġdistant": 3969,
      "Ġbet": 3970,
      "Ġafternoon": 3971,
      "Ġenthusiastic": 3972,
      "enny": 3973,
      "Ġbroccoli": 3974,
      "Ġhipp": 3975,
      "Ġfilthy": 3976,
      "Ġgiggle": 3977,
      "Ġexper": 3978,
      "ĠLee": 3979,
      "Ġjud": 3980,
      "Ġtrumpet": 3981,
      "Ġcooked": 3982,
      "ĠEverything": 3983,
      "Ġhelicopter": 3984,
      "Ġmonkeys": 3985,
      "night": 3986,
      "Ġpor": 3987,
      "ĠWill": 3988,
      "irit": 3989,
      "Ġsandbox": 3990,
      "aroo": 3991,
      "angaroo": 3992,
      "Ġharsh": 3993,
      "ĠWould": 3994,
      "Ġcrawl": 3995,
      "case": 3996,
      "ĠCharlie": 3997,
      "ĠLilly": 3998,
      "Ġnowhere": 3999,
      "Ġsplit": 4000,
      "Ġmeas": 4001,
      "Ġbackpack": 4002,
      "Ġsoar": 4003,
      "Ġten": 4004,
      "Ġsent": 4005,
      "Ġbelt": 4006,
      "Ġbatht": 4007,
      "Ġexplain": 4008,
      "Ġadmire": 4009,
      "Ġscooter": 4010,
      "ĠSnow": 4011,
      "Ġpoem": 4012,
      "Ġcountry": 4013,
      "Ġstack": 4014,
      "Ġbathtub": 4015,
      "Ġants": 4016,
      "Ġpipe": 4017,
      "Ġaero": 4018,
      "Ġbarking": 4019,
      "Ġquite": 4020,
      "stairs": 4021,
      "Ġspeak": 4022,
      "Ġkangaroo": 4023,
      "Ġlid": 4024,
      "Ġsquash": 4025,
      "can": 4026,
      "ĠHenry": 4027,
      "book": 4028,
      "Ġleopard": 4029,
      "Ġmama": 4030,
      "Ġhappier": 4031,
      "Ġtemp": 4032,
      "Ġspell": 4033,
      "Ġcows": 4034,
      "Ġrot": 4035,
      "Ġbicycle": 4036,
      "Ġsepar": 4037,
      "Ġlistening": 4038,
      "imi": 4039,
      "Ġwhist": 4040,
      "Ġsummer": 4041,
      "ĠPap": 4042,
      "ĠMaria": 4043,
      "Ġstared": 4044,
      "Ġcricket": 4045,
      "Ġcush": 4046,
      "Ġgrabs": 4047,
      "Ġmessage": 4048,
      "ĠdidnÃ¢": 4049,
      "uct": 4050,
      "Ġostrich": 4051,
      "Ġvol": 4052,
      "Ġfirework": 4053,
      "Ġhuman": 4054,
      "Ġgiven": 4055,
      "Ġloop": 4056,
      "Ġcomet": 4057,
      "Ġmule": 4058,
      "hood": 4059,
      "ĠMillie": 4060,
      "Ġsort": 4061,
      "cus": 4062,
      "Ġgorilla": 4063,
      "Ġpaid": 4064,
      "Ġfinds": 4065,
      "ĠBaby": 4066,
      "year": 4067,
      "ipping": 4068,
      "Ġyogurt": 4069,
      "Ġobser": 4070,
      "Ġdessert": 4071,
      "Ġmeat": 4072,
      "uddy": 4073,
      "Ġviolin": 4074,
      "Ġur": 4075,
      "cope": 4076,
      "Bye": 4077,
      "Ġmodest": 4078,
      "Ġhedge": 4079,
      "ucked": 4080,
      "Ġspirit": 4081,
      "ĠSandy": 4082,
      "xi": 4083,
      "Ġpulls": 4084,
      "Ġtripped": 4085,
      "Ġmelon": 4086,
      "ĠBunny": 4087,
      "Ġpaws": 4088,
      "Ġjellyfish": 4089,
      "ĠKate": 4090,
      "Ġalligator": 4091,
      "Ġrescue": 4092,
      "ogn": 4093,
      "Ġsize": 4094,
      "Ġholes": 4095,
      "ĠPapa": 4096,
      "Ġprov": 4097,
      "ĠJess": 4098,
      "ĠWhar": 4099,
      "Ġroared": 4100,
      "Ġforgave": 4101,
      "Ġfive": 4102,
      "Ġwheat": 4103,
      "Ġcats": 4104,
      "Ġlands": 4105,
      "Ġpurse": 4106,
      "Ġrecogn": 4107,
      "Ġhippo": 4108,
      "Ġhall": 4109,
      "Ġsheet": 4110,
      "Ġpal": 4111,
      "Ġcact": 4112,
      "Ġinse": 4113,
      "Ġpushing": 4114,
      "ophone": 4115,
      "Ġbikes": 4116,
      "Ġorganize": 4117,
      "rec": 4118,
      "Ġbubble": 4119,
      "Ġswinging": 4120,
      "Ġsle": 4121,
      "Ġraft": 4122,
      "ĠMimi": 4123,
      "Ġscold": 4124,
      "Ġstarting": 4125,
      "Ġsalt": 4126,
      "Ġshade": 4127,
      "Ġbehave": 4128,
      "Ġbin": 4129,
      "Ġfle": 4130,
      "ĠTed": 4131,
      "Ġrice": 4132,
      "Ġlightning": 4133,
      "apes": 4134,
      "Ġoat": 4135,
      "Ġhaircut": 4136,
      "Ġtriangle": 4137,
      "sist": 4138,
      "Ġfu": 4139,
      "eer": 4140,
      "Ġbuzz": 4141,
      "ement": 4142,
      "Ġenergy": 4143,
      "ĠBuddy": 4144,
      "iskers": 4145,
      "Ġfrowned": 4146,
      "Ġlear": 4147,
      "aled": 4148,
      "Ġlearnt": 4149,
      "Ġporch": 4150,
      "Ġeither": 4151,
      "Ġped": 4152,
      "Ġriding": 4153,
      "Ġlip": 4154,
      "Ġmath": 4155,
      "cano": 4156,
      "seum": 4157,
      "Ġtrains": 4158,
      "Ġended": 4159,
      "Ġnotebook": 4160,
      "Ġsticker": 4161,
      "inking": 4162,
      "ĠDanny": 4163,
      "ĠRos": 4164,
      "Ġlend": 4165,
      "Ġwallet": 4166,
      "Ġluck": 4167,
      "Ġevening": 4168,
      "reci": 4169,
      "Ġpanda": 4170,
      "ĠWhiskers": 4171,
      "Ġcactus": 4172,
      "Ġjokes": 4173,
      "Ġchalk": 4174,
      "Ġpapers": 4175,
      "Ġbananas": 4176,
      "Ġmuseum": 4177,
      "Ġsweater": 4178,
      "Ġtap": 4179,
      "Ġappreci": 4180,
      "Ġpalace": 4181,
      "Ġlions": 4182,
      "Ġtaxi": 4183,
      "Ġvolcano": 4184,
      "Ġshopkeeper": 4185,
      "Ġchain": 4186,
      "Ġbears": 4187,
      "Ġshove": 4188,
      "Ġboots": 4189,
      "Ġrolling": 4190,
      "Ġstrawberry": 4191,
      "Ġhadn": 4192,
      "Ġneighbour": 4193,
      "bul": 4194,
      "Ġshakes": 4195,
      "Ġbarrel": 4196,
      "ses": 4197,
      "aund": 4198,
      "ffe": 4199,
      "Ġscurvy": 4200,
      "ffee": 4201,
      "Ġsilver": 4202,
      "urch": 4203,
      "Ġlaund": 4204,
      "Ġalive": 4205,
      "Ġsmells": 4206,
      "Ġmild": 4207,
      "play": 4208,
      "Ġreind": 4209,
      "ÅĵYou": 4210,
      "Ġlaundry": 4211,
      "ĠKat": 4212,
      "Ġsteak": 4213,
      "Ġavoc": 4214,
      "Ġpole": 4215,
      "Ġink": 4216,
      "Ġstrugg": 4217,
      "iron": 4218,
      "Ġpushes": 4219,
      "Ġputting": 4220,
      "Ġvisited": 4221,
      "Ġbul": 4222,
      "Ġgoal": 4223,
      "Ġsoftly": 4224,
      "Ġmagnet": 4225,
      "ĠTony": 4226,
      "edy": 4227,
      "Ġtricks": 4228,
      "Ġdrawings": 4229,
      "Ġmicrophone": 4230,
      "Ġroot": 4231,
      "Ġclapping": 4232,
      "Ġpad": 4233,
      "Ġbase": 4234,
      "Ġhive": 4235,
      "Ġmotorcy": 4236,
      "Ġshield": 4237,
      "Ġtube": 4238,
      "Ġleaned": 4239,
      "Ġcolours": 4240,
      "Ġsailor": 4241,
      "Ġairport": 4242,
      "Ġzoomed": 4243,
      "Ġfalling": 4244,
      "Ġrag": 4245,
      "Ġpit": 4246,
      "Ġbelongs": 4247,
      "Ġshelter": 4248,
      "ĠInst": 4249,
      "ĠBun": 4250,
      "aggie": 4251,
      "Ġunlock": 4252,
      "Ġsprink": 4253,
      "elery": 4254,
      "Ġchecked": 4255,
      "ĠHarry": 4256,
      "Ġinsist": 4257,
      "Ġpenguin": 4258,
      "happy": 4259,
      "Ġambul": 4260,
      "Ġmarched": 4261,
      "Ġclimbing": 4262,
      "Ġpebble": 4263,
      "Ġdisplay": 4264,
      "Ġreindeer": 4265,
      "ait": 4266,
      "Ġsaus": 4267,
      "Ġjudge": 4268,
      "Ġaeroplane": 4269,
      "iling": 4270,
      "acht": 4271,
      "Ġdishes": 4272,
      "ophy": 4273,
      "Ġdive": 4274,
      "Ġavail": 4275,
      "Ġbarks": 4276,
      "castle": 4277,
      "Ġquit": 4278,
      "Ġpolish": 4279,
      "ĠBu": 4280,
      "ĠOr": 4281,
      "Ġfields": 4282,
      "Ġgrapes": 4283,
      "Mia": 4284,
      "Ġsandcastle": 4285,
      "Ġambulance": 4286,
      "Ġrubber": 4287,
      "Ġpeek": 4288,
      "Ġapologized": 4289,
      "Ġyacht": 4290,
      "Ġsoil": 4291,
      "Ġcoffee": 4292,
      "Ġskill": 4293,
      "Ġcostume": 4294,
      "Ġelev": 4295,
      "Ġtrophy": 4296,
      "Ġoy": 4297,
      "ĠdonÃ¢": 4298,
      "Ġrhin": 4299,
      "Ġstrip": 4300,
      "Ġfeelings": 4301,
      "Ġplanet": 4302,
      "ense": 4303,
      "Ġhoping": 4304,
      "oscope": 4305,
      "anic": 4306,
      "Ġfilm": 4307,
      "Ġdanger": 4308,
      "Dad": 4309,
      "Ġprun": 4310,
      "Ġpa": 4311,
      "Ġunhappy": 4312,
      "Ġdrops": 4313,
      "Ġart": 4314,
      "Ġshrimp": 4315,
      "Ġmedal": 4316,
      "Ġkitty": 4317,
      "âĤ¬âĢľ": 4318,
      "Ġthanks": 4319,
      "Ġraining": 4320,
      "chanic": 4321,
      "Ġminute": 4322,
      "Ġelevator": 4323,
      "Ġcord": 4324,
      "Ġcelery": 4325,
      "Ġonion": 4326,
      "Ġavailable": 4327,
      "Ġeraser": 4328,
      "Ġincl": 4329,
      "Ġpage": 4330,
      "reeze": 4331,
      "Ġshouldn": 4332,
      "Ġfisher": 4333,
      "Ġperfectly": 4334,
      "Ġshort": 4335,
      "Ġwool": 4336,
      "Ġimagine": 4337,
      "Ġmarry": 4338,
      "Ġbasketball": 4339,
      "Ġmechanic": 4340,
      "Ġwinter": 4341,
      "Ġdiary": 4342,
      "nam": 4343,
      "Ġherb": 4344,
      "Ġflies": 4345,
      "Ġcomplete": 4346,
      "Ġrever": 4347,
      "Ġclosely": 4348,
      "Ġcardboard": 4349,
      "Ġinsect": 4350,
      "Ġmagaz": 4351,
      "Ġeagerly": 4352,
      "Ġplayer": 4353,
      "eath": 4354,
      "Ġjournal": 4355,
      "ĠSmith": 4356,
      "Jim": 4357,
      "Ġappl": 4358,
      "Ġvend": 4359,
      "Ġbaking": 4360,
      "Ġfurn": 4361,
      "Ġglove": 4362,
      "iture": 4363,
      "Ha": 4364,
      "Ġdisag": 4365,
      "Ġfog": 4366,
      "ĠJames": 4367,
      "Ġfurniture": 4368,
      "Ġstuffed": 4369,
      "Ġtub": 4370,
      "Ġbreaks": 4371,
      "Ġimagination": 4372,
      "Ġbulb": 4373,
      "ories": 4374,
      "Ġtreasures": 4375,
      "gen": 4376,
      "Ġchurch": 4377,
      "Ġpair": 4378,
      "ecause": 4379,
      "Ġcooler": 4380,
      "azz": 4381,
      "Ġwife": 4382,
      "any": 4383,
      "Ġheaded": 4384,
      "Ġcounter": 4385,
      "ĠThere": 4386,
      "Ġfreez": 4387,
      "Ġfrogs": 4388,
      "quit": 4389,
      "Ġtut": 4390,
      "place": 4391,
      "Ġknob": 4392,
      "ĠJul": 4393,
      "Ġskull": 4394,
      "ashed": 4395,
      "ween": 4396,
      "osquit": 4397,
      "Ġswitch": 4398,
      "Ġfootball": 4399,
      "ides": 4400,
      "ĠInstead": 4401,
      "Ġoffer": 4402,
      "Ġlie": 4403,
      "Ġbetween": 4404,
      "Ġsunset": 4405,
      "aulif": 4406,
      "Ġcheek": 4407,
      "Ġstrang": 4408,
      "Ġsym": 4409,
      "Ġswung": 4410,
      "Ġfactory": 4411,
      "ĠClara": 4412,
      "Ġcups": 4413,
      "Ġmotorcycle": 4414,
      "ength": 4415,
      "Ġchirp": 4416,
      "right": 4417,
      "osquito": 4418,
      "Ġflame": 4419,
      "Ġtwink": 4420,
      "..": 4421,
      "Ġshouting": 4422,
      "Ġpainter": 4423,
      "rib": 4424,
      "Ġgolf": 4425,
      "affe": 4426,
      "Ġpeach": 4427,
      "Ġornam": 4428,
      "kelet": 4429,
      "Ġblowing": 4430,
      "Ġhut": 4431,
      "Ġsung": 4432,
      "Ġhotel": 4433,
      "Jack": 4434,
      "Ġseeing": 4435,
      "ges": 4436,
      "Ġfolder": 4437,
      "Ġvendor": 4438,
      "lass": 4439,
      "Ġcaulif": 4440,
      "Ġvideo": 4441,
      "Ġmixer": 4442,
      "Ġcree": 4443,
      "Mama": 4444,
      "izes": 4445,
      "Ġthrows": 4446,
      "Ġpirates": 4447,
      "ccer": 4448,
      "Ġcreated": 4449,
      "orses": 4450,
      "Ġheads": 4451,
      "Ġkay": 4452,
      "Ġoil": 4453,
      "Ġframe": 4454,
      "Your": 4455,
      "Ġmosquito": 4456,
      "ĠMaggie": 4457,
      "Mum": 4458,
      "angu": 4459,
      "mm": 4460,
      "ĠMay": 4461,
      "Ġcushion": 4462,
      "Ġsoccer": 4463,
      "Ġfisherman": 4464,
      "Ġcoal": 4465,
      "aws": 4466,
      "aped": 4467,
      "Ġsymbo": 4468,
      "zzy": 4469,
      "Ġtrail": 4470,
      "Ġhorses": 4471,
      "oceros": 4472,
      "Ġpopped": 4473,
      "Ġlangu": 4474,
      "Ġwipe": 4475,
      "Ġpine": 4476,
      "Ġattention": 4477,
      "Ġskelet": 4478,
      "Molly": 4479,
      "Ġbattery": 4480,
      "Ġstud": 4481,
      "Ġpowder": 4482,
      "Ġlaser": 4483,
      "Ġcauliflower": 4484,
      "ĠGod": 4485,
      "Ġrac": 4486,
      "render": 4487,
      "Ġpear": 4488,
      "Ġforgotten": 4489,
      "Ġweather": 4490,
      "Ġlives": 4491,
      "Ġmop": 4492,
      "Ġcelebrated": 4493,
      "ef": 4494,
      "Ġax": 4495,
      "Ġfishing": 4496,
      "elcome": 4497,
      "ĠIÃ¢": 4498,
      "eady": 4499,
      "Ġmaze": 4500,
      "Ġsurround": 4501,
      "Ġyoga": 4502,
      "Ġphoto": 4503,
      "Ġdear": 4504,
      "Ġwaving": 4505,
      "Ġslept": 4506,
      "Ġsneak": 4507,
      "unately": 4508,
      "Ġgiraffe": 4509,
      "Ġintrod": 4510,
      "Ġrhinoceros": 4511,
      "Ġpoke": 4512,
      "Ġswamp": 4513,
      "Ġflea": 4514,
      "Ġunpack": 4515,
      "Ġpoints": 4516,
      "Ġitch": 4517,
      "Ġglowing": 4518,
      "Ġfireplace": 4519,
      "loo": 4520,
      "Ġbreeze": 4521,
      "ney": 4522,
      "lasses": 4523,
      "Ġpoint": 4524,
      "Ġsub": 4525,
      "Ġconf": 4526,
      "Ġsunglasses": 4527,
      "Ġkingdom": 4528,
      "Ġmemories": 4529,
      "ĠSte": 4530,
      "Ġtutor": 4531,
      "Ġiron": 4532,
      "Ġtuna": 4533,
      "ĠRosie": 4534,
      "Ġvest": 4535,
      "spap": 4536,
      "Ġpetals": 4537,
      "Ġaxe": 4538,
      "Ġmistakes": 4539,
      "Ġreve": 4540,
      "Ġcomplain": 4541,
      "Ġdancer": 4542,
      "Ġbaseball": 4543,
      "Ġchickens": 4544,
      "Ġparent": 4545,
      "Ġig": 4546,
      "hero": 4547,
      "Ġseas": 4548,
      "Ġnewspap": 4549,
      "ĠitÃ¢": 4550,
      "Ġstrength": 4551,
      "ckey": 4552,
      "Ġgreedy": 4553,
      "ĠTrue": 4554,
      "Ġceiling": 4555,
      "ĠRu": 4556,
      "Ġsquirrels": 4557,
      "Ġhockey": 4558,
      "cuss": 4559,
      "Ġigloo": 4560,
      "Ġgrin": 4561,
      "Ġskeleton": 4562,
      "Ġsniffed": 4563,
      "Ġcable": 4564,
      "Ġsuperhero": 4565,
      "Ġargue": 4566,
      "ues": 4567,
      "Ġnapkin": 4568,
      "Ġgolden": 4569,
      "Ġhanging": 4570,
      "Ġmusician": 4571,
      "Ġskirt": 4572,
      "medi": 4573,
      "Ġtemple": 4574,
      "Ġstaff": 4575,
      "Ġunif": 4576,
      "Ġbury": 4577,
      "mediately": 4578,
      "Ġtheater": 4579,
      "Ġuniform": 4580,
      "Ġdiscuss": 4581,
      "Ġeaten": 4582,
      "erc": 4583,
      "Ġslipper": 4584,
      "Ġwelcomed": 4585,
      "chie": 4586,
      "Ġshoulder": 4587,
      "Ġzipper": 4588,
      "Ġquietly": 4589,
      "ossible": 4590,
      "Ġlime": 4591,
      "Ġinvest": 4592,
      "istol": 4593,
      "Ġmicroscope": 4594,
      "Ġpinch": 4595,
      "chair": 4596,
      "Ġflapped": 4597,
      "Ġslippery": 4598,
      "Ġaccepted": 4599,
      "Ġfought": 4600,
      "Ġinvestig": 4601,
      "Ġpistol": 4602,
      "Ġdoors": 4603,
      "Ġminer": 4604,
      "Ġradish": 4605,
      "Ġplastic": 4606,
      "Ġthrowing": 4607,
      "Ġcalls": 4608,
      "Ġbouncing": 4609,
      "itter": 4610,
      "tress": 4611,
      "Ġshovel": 4612,
      "Ġmattress": 4613,
      "house": 4614,
      "Ġcreek": 4615,
      "Ġkayak": 4616,
      "Ġsurrender": 4617,
      "Ġmoves": 4618,
      "aud": 4619,
      "Ġvroom": 4620,
      "Ġsticky": 4621,
      "Ġlawy": 4622,
      "Ġcob": 4623,
      "Wait": 4624,
      "Ġmarble": 4625,
      "Ġcub": 4626,
      "Ġavocado": 4627,
      "Ġcared": 4628,
      "Ġsuff": 4629,
      "Ġfreezer": 4630,
      "auc": 4631,
      "Ġlotion": 4632,
      "ĠFirst": 4633,
      "ison": 4634,
      "Ġfauc": 4635,
      "And": 4636,
      "was": 4637,
      "ĠTina": 4638,
      "Ġarmchair": 4639,
      "men": 4640,
      "inked": 4641,
      "Ġwriting": 4642,
      "Ġreef": 4643,
      "Ġmakeup": 4644,
      "Ġmystery": 4645,
      "web": 4646,
      "Ġvalley": 4647,
      "Ġtug": 4648,
      "Ġinvestigate": 4649,
      "Ġnews": 4650,
      "Ġsailing": 4651,
      "Ġcherries": 4652,
      "Ġcrib": 4653,
      "washer": 4654,
      "imney": 4655,
      "Ġexerc": 4656,
      "Ġoyster": 4657,
      "Ġfaucet": 4658,
      "Qu": 4659,
      "Ġsplashing": 4660,
      "Ġhar": 4661,
      "Ġticket": 4662,
      "Ġcollected": 4663,
      "Ġworth": 4664,
      "Ġchimney": 4665,
      "Ġtoil": 4666,
      "Ġquarrel": 4667,
      "Ġpresents": 4668,
      "Ġdishwasher": 4669,
      "Ġmagazine": 4670,
      "Ġhappens": 4671,
      "Ġsprayed": 4672,
      "Ġwags": 4673,
      "ÅĵItÃ¢": 4674,
      "Ġregret": 4675,
      "Thar": 4676,
      "Ġprevent": 4677,
      "Ġcobweb": 4678,
      "Ġveil": 4679,
      "Ġentered": 4680,
      "Ġcastles": 4681,
      "Ġtear": 4682,
      "Ġshrugged": 4683,
      "Ġweigh": 4684,
      "Ġapplaud": 4685,
      "Ġpassport": 4686,
      "Ġchess": 4687,
      "Ġseparate": 4688,
      "Ġscolded": 4689,
      "Thanks": 4690,
      "Ġtoilet": 4691,
      "Ġalarm": 4692,
      "bles": 4693,
      "ĠSee": 4694,
      "Ġblankets": 4695,
      "Ġrake": 4696,
      "Ġignored": 4697,
      "Ġtucked": 4698,
      "Ġlawyer": 4699,
      "Ġchoice": 4700,
      "Ġhopes": 4701,
      "Ġcoats": 4702,
      "Ġsince": 4703,
      "Ġfollows": 4704,
      "Ġkisses": 4705,
      "Ġcandles": 4706,
      "Ġclassroom": 4707,
      "Ġpuddles": 4708,
      "Ġeasily": 4709,
      "Ġapart": 4710,
      "Ġdisappear": 4711,
      "ĠFreddy": 4712,
      "Ġappro": 4713,
      "Ġbeef": 4714,
      "Ġburned": 4715,
      "Ġchairs": 4716,
      "ived": 4717,
      "ĠSad": 4718,
      "Ġtip": 4719,
      "Ġbother": 4720,
      "Ġletting": 4721,
      "Ġstra": 4722,
      "Re": 4723,
      "erinarian": 4724,
      "live": 4725,
      "Ġward": 4726,
      "Ġdressed": 4727,
      "Ġcane": 4728,
      "Ġtrusted": 4729,
      "Ġyield": 4730,
      "Ġstraight": 4731,
      "Ġsizes": 4732,
      "Ġlanguage": 4733,
      "ring": 4734,
      "Ġveterinarian": 4735,
      "Ġdem": 4736,
      "Ġteleph": 4737,
      "Ġraz": 4738,
      "Ġcaring": 4739,
      "Ġplanes": 4740,
      "Ġwardrobe": 4741,
      "Ġjewelry": 4742,
      "atched": 4743,
      "Ġblinked": 4744,
      "iday": 4745,
      "Ġshower": 4746,
      "Ġrise": 4747,
      "res": 4748,
      "Ġmissile": 4749,
      "Ġkeeping": 4750,
      "Ġapr": 4751,
      "Ġlawn": 4752,
      "Ġrequ": 4753,
      "Ġcabinet": 4754,
      "Ġcrossed": 4755,
      "Ġinf": 4756,
      "Ġoak": 4757,
      "Ġble": 4758,
      "ĠHowever": 4759,
      "Ġwhisper": 4760,
      "ĠOll": 4761,
      "Ġbookshe": 4762,
      "vision": 4763,
      "Ġtelephone": 4764,
      "Ġnewspaper": 4765,
      "mend": 4766,
      "Ġclaws": 4767,
      "Ġrooms": 4768,
      "ah": 4769,
      "Ġsigh": 4770,
      "Ġpuzzles": 4771,
      "Ġaut": 4772,
      "Ġtrade": 4773,
      "Ġincre": 4774,
      "Ġstable": 4775,
      "ival": 4776,
      "Ġcell": 4777,
      "Ġtornado": 4778,
      "Ġscratch": 4779,
      "una": 4780,
      "anges": 4781,
      "Ġbookcase": 4782,
      "ampoo": 4783,
      "Ġperson": 4784,
      "ĠMilly": 4785,
      "Ġblueberries": 4786,
      "ĠHelp": 4787,
      "Ġamazement": 4788,
      "Ġsnap": 4789,
      "ommend": 4790,
      "Ġsqueezed": 4791,
      "Ġrail": 4792,
      "rove": 4793,
      "Ġbookshelf": 4794,
      "Ġrecommend": 4795,
      "Ġopera": 4796,
      "Ġsubway": 4797,
      "ĠRuby": 4798,
      "Ġgym": 4799,
      "Ġdelay": 4800,
      "Ġgrill": 4801,
      "Ġpra": 4802,
      "Ġrazor": 4803,
      "Ġblouse": 4804,
      "Ġrequest": 4805,
      "Ġcrawling": 4806,
      "Ġpur": 4807,
      "Ġpoked": 4808,
      "ety": 4809,
      "âĤ¬.": 4810,
      "Ġtelevision": 4811,
      "Ġbill": 4812,
      "Ġhol": 4813,
      "iction": 4814,
      "ĠPr": 4815,
      "omes": 4816,
      "Ġfollowing": 4817,
      "Ġshampoo": 4818,
      "Ġfile": 4819,
      "Ġlicks": 4820,
      "Ġsqueeze": 4821,
      "Ġholiday": 4822,
      "Ġspear": 4823,
      "Because": 4824,
      "Ġexperience": 4825,
      "Ġlumber": 4826,
      "Ġsymbol": 4827,
      "Ġimprove": 4828,
      "Ġperfume": 4829,
      "Ġserve": 4830,
      "tled": 4831,
      "Ġdemand": 4832,
      "Ġmint": 4833,
      "Ġsteam": 4834,
      "Ġcliff": 4835,
      "Ġringing": 4836,
      "Ġcrow": 4837,
      "fortunately": 4838,
      "ictionary": 4839,
      "Ġribbon": 4840,
      "Ġimmediately": 4841,
      "Ġhelper": 4842,
      "Ġmuffin": 4843,
      "Ġattach": 4844,
      "Ġfest": 4845,
      "Ġwaste": 4846,
      "Ġgrowled": 4847,
      "Ġisn": 4848,
      "Ġbegged": 4849,
      "Ġdictionary": 4850,
      "Ġmatches": 4851,
      "Ġshrink": 4852,
      "Ġbirdc": 4853,
      "Ġprop": 4854,
      "Ġideas": 4855,
      "ĠSnowy": 4856,
      "Ġwarmth": 4857,
      "Ġmustache": 4858,
      "ores": 4859,
      "Ġsneeze": 4860,
      "Ġdrain": 4861,
      "asp": 4862,
      "Ġinvite": 4863,
      "ĠPeople": 4864,
      "hic": 4865,
      "Ġgear": 4866,
      "ups": 4867,
      "Ġbirdcage": 4868,
      "Ġvehic": 4869,
      "ĠLuck": 4870,
      "Ġalright": 4871,
      "alend": 4872,
      "Ġfuel": 4873,
      "Ġrabbits": 4874,
      "Ġcalend": 4875,
      "Ġweep": 4876,
      "Ġyucky": 4877,
      "Ġflutter": 4878,
      "Ġinstr": 4879,
      "ĠLuckily": 4880,
      "Ġblood": 4881,
      "Ġfallen": 4882,
      "lier": 4883,
      "Ġmarried": 4884,
      "ĠEach": 4885,
      "Ġberry": 4886,
      "Ġrow": 4887,
      "Ġpastry": 4888,
      "ucture": 4889,
      "Did": 4890,
      "asis": 4891,
      "Ġstructure": 4892,
      "Ġworms": 4893,
      "Ġsurprises": 4894,
      "Ġbelow": 4895,
      "Ġbravely": 4896,
      "Ġcalendar": 4897,
      "Ġoasis": 4898,
      "Ġwandered": 4899,
      "Ġnovel": 4900,
      "Ġwigg": 4901,
      "Ġkneel": 4902,
      "ising": 4903,
      "Ġrefres": 4904,
      "Ġdire": 4905,
      "Ġhurting": 4906,
      "Ġunderstanding": 4907,
      "Ġlaughter": 4908,
      "omeday": 4909,
      "Ġpages": 4910,
      "Ġfloat": 4911,
      "Ġhearts": 4912,
      "Ġenter": 4913,
      "Ok": 4914,
      "ĠKatie": 4915,
      "inky": 4916,
      "Ġfiref": 4917,
      "Ġitem": 4918,
      "omob": 4919,
      "ĠKing": 4920,
      "Ġharb": 4921,
      "Ġreaches": 4922,
      "Ġadmir": 4923,
      "ĠLiz": 4924,
      "Ġapron": 4925,
      "Is": 4926,
      "Ġdirect": 4927,
      "Ġsafety": 4928,
      "ĠOllie": 4929,
      "Ġautomob": 4930,
      "Ġcrash": 4931,
      "Ġburied": 4932,
      "Ġjunk": 4933,
      "Ġbathe": 4934,
      "ÅĵNo": 4935,
      "Ġbuckle": 4936,
      "Ġstrawberries": 4937,
      "Ġmyself": 4938,
      "achel": 4939,
      "Ġrelaxed": 4940,
      "Ġskills": 4941,
      "Ġignore": 4942,
      "Ġinvit": 4943,
      "Ġplates": 4944,
      "Ġbrain": 4945,
      "Welcome": 4946,
      "icing": 4947,
      "'ve": 4948,
      "Ġwhip": 4949,
      "Ġspade": 4950,
      "Ġmoments": 4951,
      "htray": 4952,
      "ĠWho": 4953,
      "Ġquiz": 4954,
      "Ġreverse": 4955,
      "Ġshot": 4956,
      "Ġcre": 4957,
      "Ġashtray": 4958,
      "ĠJoy": 4959,
      "Ġfestival": 4960,
      "Ġbeamed": 4961,
      "'.": 4962,
      "Ġsnapped": 4963,
      "friger": 4964,
      "ĠRachel": 4965,
      "Ġteaching": 4966,
      "Ġsomeday": 4967,
      "Ġrefriger": 4968,
      "Ġornament": 4969,
      "Ġraise": 4970,
      "ĠEveryday": 4971,
      "Ġoffic": 4972,
      "Ġreceived": 4973,
      "Ġrefrigerator": 4974,
      "Ġearlier": 4975,
      "Ġlic": 4976,
      "Ġvac": 4977,
      "Ġweap": 4978,
      "Ġtong": 4979,
      "Ġmass": 4980,
      "Ġharbor": 4981,
      "ĠBetsy": 4982,
      "ĠIts": 4983,
      "Ġmodel": 4984,
      "Ġga": 4985,
      "ĠCat": 4986,
      "Ġspots": 4987,
      "Ġsparkling": 4988,
      "Ġinsisted": 4989,
      "Ġvanished": 4990,
      "Ġsaving": 4991,
      "ission": 4992,
      "Ġbumped": 4993,
      "Ġsocks": 4994,
      "ĠBuzz": 4995,
      "Ġthumb": 4996,
      "anna": 4997,
      "Ġdried": 4998,
      "Ġsupply": 4999,
      "ĠSteve": 5000,
      "Ġblackboard": 5001,
      "igail": 5002,
      "Ġjail": 5003,
      "Ġjewels": 5004,
      "ium": 5005,
      "ĠV": 5006,
      "xy": 5007,
      "Ġspending": 5008,
      "Ġscattered": 5009,
      "Ġbalanc": 5010,
      "Ġtoes": 5011,
      "Ġscooped": 5012,
      "Ġsettled": 5013,
      "Ġpermission": 5014,
      "Ġsparkle": 5015,
      "Ġprepare": 5016,
      "Ġknown": 5017,
      "Ġbreathe": 5018,
      "Ġyawned": 5019,
      "Yuck": 5020,
      "ĠPenny": 5021,
      "amber": 5022,
      "Ġachie": 5023,
      "Ġdestroyed": 5024,
      "Ġbathrobe": 5025,
      "Bob": 5026,
      "ĠAbigail": 5027,
      "Ġfro": 5028,
      "osed": 5029,
      "Ġtease": 5030,
      "Ġremain": 5031,
      "Ġhardly": 5032,
      "Ġencouraged": 5033,
      "Ġreplace": 5034,
      "Ġwaffle": 5035,
      "ĠHave": 5036,
      "Ġpride": 5037,
      "Ġlemonade": 5038,
      "Ġhanger": 5039,
      "Ġsits": 5040,
      "Ġpulling": 5041,
      "Ġdecorations": 5042,
      "sters": 5043,
      "Ġremove": 5044,
      "ops": 5045,
      "Ġcuddled": 5046,
      "Ġdaisy": 5047,
      "Ġhate": 5048,
      "Ġlicense": 5049,
      "avid": 5050,
      "Ġbeans": 5051,
      "ĠPoppy": 5052,
      "Ġsimp": 5053,
      "Ġport": 5054,
      "Ġrespons": 5055,
      "sit": 5056,
      "Ġpraised": 5057,
      "Ġchirping": 5058,
      "Ġhits": 5059,
      "ĠAm": 5060,
      "antly": 5061,
      "Ġther": 5062,
      "Ġequ": 5063,
      "xture": 5064,
      "Ġfastest": 5065,
      "Ġpatiently": 5066,
      "Ġsuffer": 5067,
      "Ġbuzzing": 5068,
      "Ġdresses": 5069,
      "sity": 5070,
      "Ġmention": 5071,
      "Ġcartoon": 5072,
      "nies": 5073,
      "Ġbleed": 5074,
      "Ġrhy": 5075,
      "Ġautomobile": 5076,
      "Ġwiz": 5077,
      "Ġpoppy": 5078,
      "Ġdestination": 5079,
      "Ġappreciate": 5080,
      "Ġtaller": 5081,
      "Ġhomes": 5082,
      "Ġmall": 5083,
      "Ġglitter": 5084,
      "Ġwob": 5085,
      "Ġnation": 5086,
      "Ġdigg": 5087,
      "Ġflav": 5088,
      "Ġclimbs": 5089,
      "Ġguy": 5090,
      "Ġpalm": 5091,
      "Ġwashing": 5092,
      "Ġlabel": 5093,
      "Ġbelieved": 5094,
      "Ġdigging": 5095,
      "Ġapproached": 5096,
      "Ġhesit": 5097,
      "Ġdare": 5098,
      "Ġtore": 5099,
      "Ġnone": 5100,
      "Mmm": 5101,
      "Ġdeeper": 5102,
      "Ġwine": 5103,
      "Ġinfant": 5104,
      "asc": 5105,
      "Ġhers": 5106,
      "Ġscore": 5107,
      "ari": 5108,
      "Ġmitten": 5109,
      "Ġchamber": 5110,
      "Ġsausage": 5111,
      "Ġrestore": 5112,
      "Ġstruggling": 5113,
      "Ġheat": 5114,
      "Ġtongue": 5115,
      "Ġhills": 5116,
      "Ġhurric": 5117,
      "Ġpunish": 5118,
      "Ġpillows": 5119,
      "ĠFrank": 5120,
      "Ġbillboard": 5121,
      "Ġsneezed": 5122,
      "ĠDavid": 5123,
      "Ġsport": 5124,
      "xc": 5125,
      "Ġwizard": 5126,
      "Ġupstairs": 5127,
      "Ġthrilled": 5128,
      "Ġprovide": 5129,
      "Ġawe": 5130,
      "ĠMat": 5131,
      "Ġca": 5132,
      "Ġwarning": 5133,
      "Ġpanic": 5134,
      "Ġtwisted": 5135,
      "Ġglowed": 5136,
      "Ġuniverse": 5137,
      "Ġtherm": 5138,
      "Ġvacation": 5139,
      "Ġworse": 5140,
      "Jimmy": 5141,
      "Ġcrunch": 5142,
      "Ġwhere": 5143,
      "Ġshed": 5144,
      "Ġsolved": 5145,
      "Ġparts": 5146,
      "Ġpoison": 5147,
      "osity": 5148,
      "Ġevent": 5149,
      "Ġsetting": 5150,
      "Ġtour": 5151,
      "Mummy": 5152,
      "Ġremained": 5153,
      "ĠSpike": 5154,
      "Ġairplane": 5155,
      "Ġhurricane": 5156,
      "Ġthermomet": 5157,
      "Ġplays": 5158,
      "Ġexamine": 5159,
      "Ġsparkles": 5160,
      "Ġshooting": 5161,
      "Sp": 5162,
      "Ġneighborhood": 5163,
      "Ġsty": 5164,
      "Ġchores": 5165,
      "Ġoranges": 5166,
      "Ġfloated": 5167,
      "Ġranch": 5168,
      "Ġchall": 5169,
      "thm": 5170,
      "Ġweeks": 5171,
      "Ġleak": 5172,
      "ĠBubb": 5173,
      "Ġpaints": 5174,
      "Ġuniversity": 5175,
      "Ġthermometer": 5176,
      "Ġbites": 5177,
      "Ġrepeat": 5178,
      "Ġbang": 5179,
      "adium": 5180,
      "Ġfloating": 5181,
      "Ġfixing": 5182,
      "Ġmeasured": 5183,
      "Ġstadium": 5184,
      "Ġgrinned": 5185,
      "!'": 5186,
      "These": 5187,
      "sed": 5188,
      "!\",": 5189,
      "Ġsurrounded": 5190,
      "Ġduring": 5191,
      "Ġsupposed": 5192,
      "Ġrhythm": 5193,
      "Ġbrings": 5194,
      "Ġmassage": 5195,
      "Ġcherry": 5196,
      "Ġpaused": 5197,
      "Ġgifts": 5198,
      "Ġfut": 5199,
      "Ġfasc": 5200,
      "Ġsprinkles": 5201,
      "Ġsew": 5202,
      "Ġfuture": 5203,
      "Ġmemory": 5204,
      "ĠUnfortunately": 5205,
      "ÅĵIÃ¢": 5206,
      "Ġteasp": 5207,
      "Ġgrey": 5208,
      "Ġcollection": 5209,
      "Ġsigns": 5210,
      "rise": 5211,
      "omach": 5212,
      "Ġmarbles": 5213,
      "Ġjazz": 5214,
      "Ġstomach": 5215,
      "emember": 5216,
      "Would": 5217,
      "ĠGood": 5218,
      "Ġgust": 5219,
      "Ġactually": 5220,
      "Ġdiscovery": 5221,
      "Ġwisdom": 5222,
      "Ġpermit": 5223,
      "Ġinclud": 5224,
      "Ġflood": 5225,
      "Ġvehicle": 5226,
      "Ġtide": 5227,
      "Ġlily": 5228,
      "Ġsunrise": 5229,
      "Ġgirls": 5230,
      "ishing": 5231,
      "ĠZoe": 5232,
      "lest": 5233,
      "vet": 5234,
      "ÅĵThatÃ¢": 5235,
      "ĠJos": 5236,
      "Ġmeowed": 5237,
      "anny": 5238,
      "ĠMor": 5239,
      "Ġelephants": 5240,
      "Ġurge": 5241,
      "Ġexercise": 5242,
      "To": 5243,
      "Ġmailman": 5244,
      "Ġlugg": 5245,
      "Ġdecision": 5246,
      "Ġchewed": 5247,
      "Ġrush": 5248,
      "Ġweapon": 5249,
      "Ġobserve": 5250,
      "Ġluggage": 5251,
      "cles": 5252,
      "Ġunite": 5253,
      "Ġcartoons": 5254,
      "Ġfascin": 5255,
      "iers": 5256,
      "Ġsore": 5257,
      "ĠChr": 5258,
      "Ġtomatoes": 5259,
      "allow": 5260,
      "Ġpossible": 5261,
      "Ġtoe": 5262,
      "eration": 5263,
      "do": 5264,
      "Ġsunlight": 5265,
      "oves": 5266,
      "ities": 5267,
      "use": 5268,
      "Ġfolded": 5269,
      "Ġcurled": 5270,
      "Ġchirped": 5271,
      "Ġmelted": 5272,
      "Ġspill": 5273,
      "uing": 5274,
      "ĠBeth": 5275,
      "Ġcakes": 5276,
      "ole": 5277,
      "Ġsip": 5278,
      "Ġcollecting": 5279,
      "ĠSomeone": 5280,
      "son": 5281,
      "Ġgrape": 5282,
      "Ġspit": 5283,
      "Ġx": 5284,
      "isf": 5285,
      "Ġteaspoon": 5286,
      "sing": 5287,
      "Ġmineral": 5288,
      "Sh": 5289,
      "Ġbrus": 5290,
      "Ġdifference": 5291,
      "Ġproblems": 5292,
      "ĠJe": 5293,
      "Ġbak": 5294,
      "Ġjogging": 5295,
      "Ġtracks": 5296,
      "ĠRemy": 5297,
      "Ġwherever": 5298,
      "Ġmountains": 5299,
      "Ġmanage": 5300,
      "ĠSpark": 5301,
      "ipment": 5302,
      "Ready": 5303,
      "ib": 5304,
      "Ġsliding": 5305,
      "Ġlaid": 5306,
      "Not": 5307,
      "Ġequipment": 5308,
      "Ġlick": 5309,
      "Ġwatered": 5310,
      "Ġadmiring": 5311,
      "Ġcontain": 5312,
      "Ġsatisf": 5313,
      "oved": 5314,
      "Ġbricks": 5315,
      "eed": 5316,
      "bers": 5317,
      "eren": 5318,
      "Ġtwigs": 5319,
      "ĠNot": 5320,
      "Ġpatterns": 5321,
      "Ġkindly": 5322,
      "Ġpetted": 5323,
      "Ġskipping": 5324,
      "Ġseats": 5325,
      "Ġpotatoes": 5326,
      "Ġsoldiers": 5327,
      "etch": 5328,
      "Ġgloves": 5329,
      "zag": 5330,
      "nday": 5331,
      "Ġspaces": 5332,
      "joyed": 5333,
      "Ġreceive": 5334,
      "Ġkeeper": 5335,
      "Ġcopper": 5336,
      "idents": 5337,
      "Ġslice": 5338,
      "omas": 5339,
      "ĠLuna": 5340,
      "Ġlets": 5341,
      "Ġemer": 5342,
      "Ġgain": 5343,
      "ĠQu": 5344,
      "Ġcontinue": 5345,
      "py": 5346,
      "Ġordered": 5347,
      "Ġstrangers": 5348,
      "ĠJan": 5349,
      "walk": 5350,
      "Ġoverjoyed": 5351,
      "ĠSunday": 5352,
      "Ġwatches": 5353,
      "Ġgotten": 5354,
      "Ġpigs": 5355,
      "Ġzipped": 5356,
      "ĠJam": 5357,
      "mother": 5358,
      "Ġwhistling": 5359,
      "Ġbeside": 5360,
      "ÅĵThank": 5361,
      "Ġsafari": 5362,
      "Ġprayed": 5363,
      "ases": 5364,
      "Ġchallen": 5365,
      "Will": 5366,
      "ĠAd": 5367,
      "Ġexplor": 5368,
      "Ġpeered": 5369,
      "Ġnetwork": 5370,
      "Ġeff": 5371,
      "Ġinvitation": 5372,
      "ĠMoral": 5373,
      "ĠAn": 5374,
      "Ġmarching": 5375,
      "Ġours": 5376,
      "ĠCla": 5377,
      "Ġwooden": 5378,
      "ĠSharing": 5379,
      "Ġsidewalk": 5380,
      "ocery": 5381,
      "Ġearthqu": 5382,
      "Ġeagle": 5383,
      "igzag": 5384,
      "Ġgrocery": 5385,
      "Ġdoggy": 5386,
      "Ġdrinks": 5387,
      "Ġnavy": 5388,
      "Ġacorns": 5389,
      "Ġattached": 5390,
      "Ġraised": 5391,
      "Ġdisagreed": 5392,
      "Ġweren": 5393,
      "ĠLetÃ¢": 5394,
      "Ġtwirl": 5395,
      "loe": 5396,
      "Ġbeat": 5397,
      "Ġcompany": 5398,
      "Ġweight": 5399,
      "ĠJulie": 5400,
      "Ġmister": 5401,
      "cious": 5402,
      "Ġburning": 5403,
      "Ġonwards": 5404,
      "Al": 5405,
      "\",": 5406,
      "Ġhappiest": 5407,
      "ĠSuzy": 5408,
      "Ġracing": 5409,
      "Ouch": 5410,
      "Ġbrid": 5411,
      "ĠSunny": 5412,
      "Ġcrashed": 5413,
      "Ġfed": 5414,
      "Ġspoons": 5415,
      "Ġcrunchy": 5416,
      "Ġcomf": 5417,
      "Ġtremb": 5418,
      "ĠUncle": 5419,
      "Ġwhistled": 5420,
      "ĠSure": 5421,
      "Ġpeanuts": 5422,
      "Ġprice": 5423,
      "Jill": 5424,
      "seek": 5425,
      "ĠThomas": 5426,
      "Ġhurried": 5427,
      "Ġmeow": 5428,
      "Ġofficer": 5429,
      "ĠKay": 5430,
      "Ġrust": 5431,
      "Ġhist": 5432,
      "Ġbrick": 5433,
      "ĠChloe": 5434,
      "Ġrefreshed": 5435,
      "hest": 5436,
      "Ġpies": 5437,
      "Ġremem": 5438,
      "Ġworks": 5439,
      "Ġclearing": 5440,
      "Ġflap": 5441,
      "nie": 5442,
      "Ġoperation": 5443,
      "Ġprepared": 5444,
      "Ġbowed": 5445,
      "Ġscratched": 5446,
      "Ġremembers": 5447,
      "Ġexact": 5448,
      "Ġhistory": 5449,
      "Ġlips": 5450,
      "ÅĵWe": 5451,
      "Ġprune": 5452,
      "Really": 5453,
      "Ġescaped": 5454,
      "Ġfireworks": 5455,
      "amb": 5456,
      "Ġdinosaurs": 5457,
      "Ġmenu": 5458,
      "Ġbridges": 5459,
      "Ġtalent": 5460,
      "ĠNut": 5461,
      "Ġplanted": 5462,
      "Ġbuildings": 5463,
      "Ġrevealed": 5464,
      "Ġeasier": 5465,
      "Ġbye": 5466,
      "Ġturning": 5467,
      "Ġcomfy": 5468,
      "Ġolive": 5469,
      "Ġscreams": 5470,
      "Ġbrand": 5471,
      "Ġwre": 5472,
      "ompl": 5473,
      "Ġhated": 5474,
      "aded": 5475,
      "Ġsnowball": 5476,
      "Ġselling": 5477,
      "Ġrecognized": 5478,
      "Ġaccompl": 5479,
      "ences": 5480,
      "Ġwarn": 5481,
      "ĠBy": 5482,
      "Ġcrept": 5483,
      "Ġprecious": 5484,
      "Ġlandsc": 5485,
      "ĠSadly": 5486,
      "ky": 5487,
      "die": 5488,
      "Ġmuddy": 5489,
      "Ġpadd": 5490,
      "Ġwid": 5491,
      "Ġsettle": 5492,
      "Ġdrinking": 5493,
      "bey": 5494,
      "Ġsings": 5495,
      "xygen": 5496,
      "Ġbeds": 5497,
      "Ġpupp": 5498,
      "ĠChir": 5499,
      "ĠJosh": 5500,
      "Ġearthquake": 5501,
      "iosity": 5502,
      "Ġbra": 5503,
      "Ġreminder": 5504,
      "Ġspaceship": 5505,
      "Ġmeasuring": 5506,
      "Ġslip": 5507,
      "Ġperched": 5508,
      "Ġbones": 5509,
      "Ġserved": 5510,
      "Ġeffort": 5511,
      "look": 5512,
      "Ġappear": 5513,
      "Ġpec": 5514,
      "ecture": 5515,
      "umes": 5516,
      "Ġwonders": 5517,
      "Ġshadows": 5518,
      "Ġforgi": 5519,
      "Ġwaits": 5520,
      "Ġvoices": 5521,
      "ÅĵCan": 5522,
      "Ġcuddle": 5523,
      "ashion": 5524,
      "Ġvel": 5525,
      "Ġpedal": 5526,
      "Billy": 5527,
      "Ġpitch": 5528,
      "Ġcomforted": 5529,
      "Ġresponsible": 5530,
      "Ġlecture": 5531,
      "Ġcircus": 5532,
      "Ġrained": 5533,
      "Ġagreement": 5534,
      "Ġeveryday": 5535,
      "Ġobey": 5536,
      "affic": 5537,
      "Ġsoared": 5538,
      "Ġallow": 5539,
      "Ġanytime": 5540,
      "Ġtrapped": 5541,
      "Ġvict": 5542,
      "Ġcal": 5543,
      "Ġzigzag": 5544,
      "Ġwhatever": 5545,
      "Ġtastes": 5546,
      "ĠJamie": 5547,
      "Ġapologize": 5548,
      "Ġlandscape": 5549,
      "Ġcutting": 5550,
      "Ġsucceeded": 5551,
      "Ġshopping": 5552,
      "Ġrang": 5553,
      "Ġpets": 5554,
      "Ġvillag": 5555,
      "Ġsecrets": 5556,
      "lives": 5557,
      "ĠCoco": 5558,
      "ecting": 5559,
      "Ġvelvet": 5560,
      "Ġprinter": 5561,
      "Ġdisturbed": 5562,
      "ĠPip": 5563,
      "Ġwaist": 5564,
      "Ġpanc": 5565,
      "Ġitems": 5566,
      "Ġyawn": 5567,
      "Ġswims": 5568,
      "Ġbun": 5569,
      "Ġtraffic": 5570,
      "Ġpracticing": 5571,
      "Ġsteel": 5572,
      "Ġbringing": 5573,
      "Ġoats": 5574,
      "Ġquack": 5575,
      "Ġwrit": 5576,
      "Ġexactly": 5577,
      "Ġsisters": 5578,
      "Ġrested": 5579,
      "Ġvisiting": 5580,
      "Ġactiv": 5581,
      "Ġsimple": 5582,
      "ĠAlways": 5583,
      "Ġcostumes": 5584,
      "annah": 5585,
      "Ġanswers": 5586,
      "ĠItÃ¢": 5587,
      "izing": 5588,
      "Ġstro": 5589,
      "ĠLu": 5590,
      "Ġolives": 5591,
      "Daddy": 5592,
      "isten": 5593,
      "ĠAnne": 5594,
      "Ġbrushed": 5595,
      "Ġrul": 5596,
      "Ġstyle": 5597,
      "Ġmouths": 5598,
      "ĠBig": 5599,
      "ĠFor": 5600,
      "ĠKe": 5601,
      "Ġsoak": 5602,
      "abel": 5603,
      "ishes": 5604,
      "Ġoutdo": 5605,
      "neath": 5606,
      "oggy": 5607,
      "Ġbreaking": 5608,
      "Ġcuriosity": 5609,
      "Ġfashion": 5610,
      "mble": 5611,
      "ĠNina": 5612,
      "Ġowned": 5613,
      "Ġrele": 5614,
      "Ġladyb": 5615,
      "Ġencourage": 5616,
      "Gr": 5617,
      "ÅĵDon": 5618,
      "Ġknelt": 5619,
      "Ġfascinated": 5620,
      "ica": 5621,
      "oming": 5622,
      "Ġleather": 5623,
      "Ġimage": 5624,
      "iggy": 5625,
      "Ġvillagers": 5626,
      "Ġnails": 5627,
      "Ġbeneath": 5628,
      "Ġunderground": 5629,
      "icorn": 5630,
      "ĠThese": 5631,
      "ena": 5632,
      "Ġsadness": 5633,
      "Ġwaffles": 5634,
      "Ġunicorn": 5635,
      "enty": 5636,
      "ĠLucky": 5637,
      "inda": 5638,
      "ĠFloppy": 5639,
      "terday": 5640,
      "Ġunlocked": 5641,
      "Ġdied": 5642,
      "Ġrecognize": 5643,
      "Ġdownstairs": 5644,
      "Ġcreation": 5645,
      "Ġcatching": 5646,
      "Ġgrandmother": 5647,
      "Ġoxygen": 5648,
      "Ġmonsters": 5649,
      "Ġchef": 5650,
      "ĠOw": 5651,
      "Ġpinc": 5652,
      "Ġeats": 5653,
      "ĠMad": 5654,
      "ĠNutty": 5655,
      "Ġpupil": 5656,
      "Spot": 5657,
      "Ġnightm": 5658,
      "ĠSomething": 5659,
      "Ġwanting": 5660,
      "Ġjogged": 5661,
      "Ġcape": 5662,
      "Ġstripes": 5663,
      "Ġtremble": 5664,
      "Ġsix": 5665,
      "Ġdoctors": 5666,
      "ĠRabbit": 5667,
      "ĠClaire": 5668,
      "Ġsoaring": 5669,
      "Ġblueberry": 5670,
      "Ġstruggled": 5671,
      "Ġlemons": 5672,
      "Ġwondering": 5673,
      "Ġbleeding": 5674,
      "Ġpunished": 5675,
      "Ġgained": 5676,
      "Ġfamil": 5677,
      "She": 5678,
      "Ġfetch": 5679,
      "Ġwreck": 5680,
      "Ġexamined": 5681,
      "Ġnicer": 5682,
      "Ġguessed": 5683,
      "Ġplanned": 5684,
      "Ġcaut": 5685,
      "ĠTiny": 5686,
      "Ġsitu": 5687,
      "Ġmachines": 5688,
      "Ġmission": 5689,
      "Ġargued": 5690,
      "Ġarea": 5691,
      "ĠHop": 5692,
      "Ġpiles": 5693,
      "Ġherbs": 5694,
      "Ġfreeze": 5695,
      "Ġstirring": 5696,
      "Ġintroduc": 5697,
      "ĠLul": 5698,
      "Ġstealing": 5699,
      "Ġripped": 5700,
      "Ġchallenge": 5701,
      "Ġtugged": 5702,
      "ĠBetty": 5703,
      "Ġlap": 5704,
      "Ġstudied": 5705,
      "Ġfiremen": 5706,
      "ĠTilly": 5707,
      "Ġbend": 5708,
      "Ġwagging": 5709,
      "nes": 5710,
      "Ġzooming": 5711,
      "Ġsatisfied": 5712,
      "Little": 5713,
      "ĠCarl": 5714,
      "Ġaccidents": 5715,
      "Ġvictory": 5716,
      "Ġfrost": 5717,
      "Ġinstruct": 5718,
      "Yum": 5719,
      "Ġbehav": 5720,
      "Ġproperly": 5721,
      "Ġkeys": 5722,
      "Ġshivering": 5723,
      "Ġwinning": 5724,
      "looking": 5725,
      "Ġbunnies": 5726,
      "Ġincrease": 5727,
      "agull": 5728,
      "Ġtune": 5729,
      "Or": 5730,
      "Ġgathering": 5731,
      "Ġmice": 5732,
      "Ġexit": 5733,
      "Ġfa": 5734,
      "Ġoutdoors": 5735,
      "Ġwinner": 5736,
      "ody": 5737,
      "ury": 5738,
      "Ġtwirling": 5739,
      "Ġfirefighter": 5740,
      "Ġslapped": 5741,
      "Ġloaded": 5742,
      "Ġvegetable": 5743,
      "Ġpeel": 5744,
      "ding": 5745,
      "Ġteasing": 5746,
      "Ġdecorated": 5747,
      "Ġcontr": 5748,
      "Ġdeser": 5749,
      "Ġsupplies": 5750,
      "Ġyelling": 5751,
      "Ġune": 5752,
      "Ġneighbourhood": 5753,
      "Ġseagull": 5754,
      "Ġunderneath": 5755,
      "Ġsights": 5756,
      "Ġtickets": 5757,
      "Ġann": 5758,
      "ĠCar": 5759,
      "aching": 5760,
      "ĠChirpy": 5761,
      "Ġpancakes": 5762,
      "ĠHannah": 5763,
      "ĠJessie": 5764,
      "Ġbegin": 5765,
      "Ġburrow": 5766,
      "Ġrides": 5767,
      "Ġpeaches": 5768,
      "ĠLulu": 5769,
      "Ġmixing": 5770,
      "ux": 5771,
      "Ġreleased": 5772,
      "Ġdraws": 5773,
      "Ġweighed": 5774,
      "aky": 5775,
      "ĠFo": 5776,
      "Ġsneaked": 5777,
      "ĠMatt": 5778,
      "ott": 5779,
      "ĠAunt": 5780,
      "indy": 5781,
      ".'": 5782,
      "Ġconfident": 5783,
      "Ġrealize": 5784,
      "Ġinstructions": 5785,
      "ĠEl": 5786,
      "ĠBubbles": 5787,
      "ales": 5788,
      "Ġspiders": 5789,
      "Ġlux": 5790,
      "ĠSusan": 5791,
      "Ġintroduce": 5792,
      "Ġdam": 5793,
      "Ġmuffins": 5794,
      "Ġpinched": 5795,
      "bie": 5796,
      "Ġbudge": 5797,
      "ĠletÃ¢": 5798,
      "Ġsolut": 5799,
      "ĠAdam": 5800,
      "ĠLike": 5801,
      "Ġcompetition": 5802,
      "ĠOut": 5803,
      "ĠAbby": 5804,
      "ĠBir": 5805,
      "Ġprinted": 5806,
      "ĠDid": 5807,
      "Ġzero": 5808,
      "Ġloving": 5809,
      "Ġstudying": 5810,
      "Ġpockets": 5811,
      "Ġinch": 5812,
      "Ġbaked": 5813,
      "Ġstruck": 5814,
      "ÅĵLook": 5815,
      "rees": 5816,
      "Ġshoulders": 5817,
      "Ġbunch": 5818,
      "Ġopin": 5819,
      "Ġlines": 5820,
      "Ġfrosting": 5821,
      "Ġrelease": 5822,
      "Ġdecides": 5823,
      "Goodbye": 5824,
      "Ġgiggling": 5825,
      "Ġbroom": 5826,
      "Ġourselves": 5827,
      "Ġweb": 5828,
      "Ġpastel": 5829,
      "Happy": 5830,
      "Ġstamps": 5831,
      "Ġtravell": 5832,
      "Ġcones": 5833,
      "zing": 5834,
      "ÅĵHello": 5835,
      "Ġstair": 5836,
      "Ġstitch": 5837,
      "ais": 5838,
      "Ġemergen": 5839,
      "Ġprunes": 5840,
      "Ġsides": 5841,
      "Ġladybug": 5842,
      "Ġgrant": 5843,
      "Ġscurried": 5844,
      "ler": 5845,
      "Ġstrings": 5846,
      "âĤ¬âĢĿ": 5847,
      "ĠCr": 5848,
      "Ġmarks": 5849,
      "Ġruler": 5850,
      "Ġtim": 5851,
      "Ġpears": 5852,
      "ednes": 5853,
      "ednesday": 5854,
      "Ġrepeated": 5855,
      "Ġdrif": 5856,
      "Ġkeeps": 5857,
      "Ġago": 5858,
      "Ġclaps": 5859,
      "Ġpoking": 5860,
      "xp": 5861,
      "anta": 5862,
      "ÅĵThis": 5863,
      "Ġcrowd": 5864,
      "ays": 5865,
      "Ġruin": 5866,
      "Ġprints": 5867,
      "kins": 5868,
      "Ġbrushes": 5869,
      "ced": 5870,
      "Ġdemanded": 5871,
      "Ġkicking": 5872,
      "abies": 5873,
      "Ġstretching": 5874,
      "Ġsting": 5875,
      "Ġneighbors": 5876,
      "ĠWednesday": 5877,
      "Ġmentioned": 5878,
      "ira": 5879,
      "lowers": 5880,
      "Ġtouching": 5881,
      "Ġtonight": 5882,
      "ĠLou": 5883,
      "Ġprotected": 5884,
      "Ġwrites": 5885,
      "Ġsweeties": 5886,
      "ern": 5887,
      "ĠZoom": 5888,
      "Ġdisagree": 5889,
      "Ġgoodnight": 5890,
      "Ġcontrol": 5891,
      "icky": 5892,
      "uesday": 5893,
      "Ġyouth": 5894,
      "Ġfab": 5895,
      "Ġbuckets": 5896,
      "Ġribbons": 5897,
      "jam": 5898,
      "uctantly": 5899,
      "tiest": 5900,
      "Ġprettiest": 5901,
      "ĠSanta": 5902,
      "Ġvent": 5903,
      "Ġparked": 5904,
      "Ġcamping": 5905,
      "Ġproject": 5906,
      "Ġsoaked": 5907,
      "zie": 5908,
      "Ġbarely": 5909,
      "Ġhorns": 5910,
      "ĠBoth": 5911,
      "Ġbouncy": 5912,
      "ĠLinda": 5913,
      "Ġchat": 5914,
      "riage": 5915,
      "hins": 5916,
      "Ġdiscovering": 5917,
      "ĠTuesday": 5918,
      "ÅĵDonÃ¢": 5919,
      "Ġeast": 5920,
      "ik": 5921,
      "Ġtwinkling": 5922,
      "Ġresult": 5923,
      "Ġsurface": 5924,
      "Ġdent": 5925,
      "Ġstole": 5926,
      "ÅĵWhy": 5927,
      "Ġvowed": 5928,
      "Ġsorting": 5929,
      "Ġwest": 5930,
      "Ġtexture": 5931,
      "ĠMomo": 5932,
      "Ġgazed": 5933,
      "Ġpurred": 5934,
      "ĠAfterwards": 5935,
      "Ġsteep": 5936,
      "Ġguys": 5937,
      "Ġbabies": 5938,
      "Ġshock": 5939,
      "Ġbeard": 5940,
      "Ġmovies": 5941,
      "sc": 5942,
      "Ġcautious": 5943,
      "xpected": 5944,
      "ĠKayla": 5945,
      "zen": 5946,
      "ĠJeff": 5947,
      "Ġpowers": 5948,
      "Ġapplauded": 5949,
      "Ġsilence": 5950,
      "ĠHoppy": 5951,
      "Ġentire": 5952,
      "thank": 5953,
      "over": 5954,
      "Ġpebbles": 5955,
      "Ġ1": 5956,
      "Ġloose": 5957,
      "Ġtickle": 5958,
      "Ġguns": 5959,
      "Ġurged": 5960,
      "Ġdragons": 5961,
      "ĠLuke": 5962,
      "Ġacted": 5963,
      "Ġdragged": 5964,
      "Ġunexpected": 5965,
      "Ġluxury": 5966,
      "edding": 5967,
      "Ġcatches": 5968,
      "Ġnightmare": 5969,
      "Uh": 5970,
      "ason": 5971,
      "Ġmittens": 5972,
      "Ġmuscles": 5973,
      "Ġrocking": 5974,
      "Ġchewing": 5975,
      "Ġflat": 5976,
      "uly": 5977,
      "Ġcompleted": 5978,
      "Ġdolphins": 5979,
      "Ġdot": 5980,
      "Ġcurtains": 5981,
      "Ġfabric": 5982,
      "Ġemergency": 5983,
      "une": 5984,
      "Ġpearl": 5985,
      "Ġblink": 5986,
      "Ġintroduced": 5987,
      "Ġdirection": 5988,
      "Ġchips": 5989,
      "oat": 5990,
      "Ġseason": 5991,
      "Ġimportance": 5992,
      "ĠLizzy": 5993,
      "Ġstrike": 5994,
      "Ġhonk": 5995,
      "Ġreluctantly": 5996,
      "Ġbank": 5997,
      "Ġeight": 5998,
      "Ġslim": 5999,
      "usted": 6000,
      "Ġfigured": 6001,
      "Ġhighest": 6002,
      "Ġshivered": 6003,
      "Ġfrozen": 6004,
      "Ġlibrarian": 6005,
      "Ġsolution": 6006,
      "Ġcontest": 6007,
      "Ġrocked": 6008,
      "Ġconc": 6009,
      "Ġpatience": 6010,
      "Ġachieve": 6011,
      "Ġscreaming": 6012,
      "Ġchases": 6013,
      "ien": 6014,
      "Ġpouring": 6015,
      "ĠJenna": 6016,
      "Ġshelves": 6017,
      "Ġwound": 6018,
      "Ġcrumb": 6019,
      "Ġtheirs": 6020,
      "Ġrubbing": 6021,
      "esome": 6022,
      "Ġhugging": 6023,
      "Ġdrives": 6024,
      "Ġstaring": 6025,
      "Ġsorted": 6026,
      "Remember": 6027,
      "Ġsnail": 6028,
      "Ġroaring": 6029,
      "Ġmeeting": 6030,
      "Ġstomp": 6031,
      "ÅĵOh": 6032,
      "Ġinclude": 6033,
      "Ġplanets": 6034,
      "Somet": 6035,
      "ledge": 6036,
      "ĠMart": 6037,
      "Ġcupc": 6038,
      "Ġmater": 6039,
      "Ġsafer": 6040,
      "Ġmateri": 6041,
      "Ġpoliceman": 6042,
      "fit": 6043,
      "Ġmaster": 6044,
      "Ġcurly": 6045,
      "Ġsituation": 6046,
      "Ġfoods": 6047,
      "Ġgreet": 6048,
      "Ġcast": 6049,
      "Ġawesome": 6050,
      "ĠcanÃ¢": 6051,
      "Ġusual": 6052,
      "Ġsighs": 6053,
      "itely": 6054,
      "Ġknowledge": 6055,
      "irts": 6056,
      "Ġpassing": 6057,
      "Ġshined": 6058,
      "ashing": 6059,
      "Ġflags": 6060,
      "Ġexha": 6061,
      "Ġdared": 6062,
      "Ġbalancing": 6063,
      "Ġplenty": 6064,
      "ĠSuzie": 6065,
      "ĠyouÃ¢": 6066,
      "Ġmatched": 6067,
      "Ġtowels": 6068,
      "Ġlied": 6069,
      "Ġbead": 6070,
      "Ġheav": 6071,
      "ults": 6072,
      "Ġhomework": 6073,
      "Ġcomm": 6074,
      "Ġoutfit": 6075,
      "though": 6076,
      "Ġslimy": 6077,
      "Ġbravery": 6078,
      "ares": 6079,
      "ĠDolly": 6080,
      "Ġtruly": 6081,
      "Ġpretends": 6082,
      "ĠJac": 6083,
      "Ġzookeeper": 6084,
      "Ġcheering": 6085,
      "oey": 6086,
      "Ġheel": 6087,
      "Ġwedding": 6088,
      "ĠYes": 6089,
      "Ġgoals": 6090,
      "Ġswoop": 6091,
      "Ġrainbows": 6092,
      "jamas": 6093,
      "Ġsausages": 6094,
      "Ġgrace": 6095,
      "Just": 6096,
      "ĠCindy": 6097,
      "xcuse": 6098,
      "Today": 6099,
      "Ġthreat": 6100,
      "Ġaccomplish": 6101,
      "Ġpatted": 6102,
      "Ġcaused": 6103,
      "ĠSlow": 6104,
      "Ġreaching": 6105,
      "Ġpaintings": 6106,
      "opping": 6107,
      "Ġresting": 6108,
      "ĠQuack": 6109,
      "ĠPinky": 6110,
      "Ġarguing": 6111,
      "Ġradishes": 6112,
      "Ġpacking": 6113,
      "Excuse": 6114,
      "Ġsobb": 6115,
      "...": 6116,
      "Ġgrowling": 6117,
      "Ġblooming": 6118,
      "aa": 6119,
      "Ġspraying": 6120,
      "iar": 6121,
      "Ġwaiter": 6122,
      "Ġexhausted": 6123,
      "ĠMic": 6124,
      "Ġstruggle": 6125,
      "izzie": 6126,
      "Ġsweets": 6127,
      "Ġsticking": 6128,
      "Ġstranger": 6129,
      "Ġpout": 6130,
      "Ġge": 6131,
      "Ġmarkers": 6132,
      "Ġworker": 6133,
      "Ġmotion": 6134,
      "Ġkneeled": 6135,
      "ĠLaur": 6136,
      "Ġpaddled": 6137,
      "Ġgrowl": 6138,
      "Ġsled": 6139,
      "immer": 6140,
      "Ġmane": 6141,
      "When": 6142,
      "ĠMon": 6143,
      "Ġsnugg": 6144,
      "Ġsway": 6145,
      "Ġstartled": 6146,
      "Ġcubes": 6147,
      "Ye": 6148,
      "Ġrescued": 6149,
      "Ġspike": 6150,
      "Ġwritten": 6151,
      "Ġdusty": 6152,
      "Ġtraveled": 6153,
      "Ġinviting": 6154,
      "hello": 6155,
      "Ġboo": 6156,
      "ĠJon": 6157,
      "Ġexpected": 6158,
      "ĠJacob": 6159,
      "Ġcuts": 6160,
      "Ġcent": 6161,
      "ĠTara": 6162,
      "Ġslap": 6163,
      "Ġguest": 6164,
      "Ġbottles": 6165,
      "Ġmatching": 6166,
      "Ġsinger": 6167,
      "Ġflavor": 6168,
      "Ġimpro": 6169,
      "lee": 6170,
      "Ġlearns": 6171,
      "Ġreveal": 6172,
      "Ġprincesses": 6173,
      "Ġcreating": 6174,
      "Ġregretted": 6175,
      "Ġfart": 6176,
      "Ġbloomed": 6177,
      "Ġtrembling": 6178,
      "Ġreplaced": 6179,
      "Ġfir": 6180,
      "Ġarrive": 6181,
      "Ġmarriage": 6182,
      "ĠJulia": 6183,
      "pite": 6184,
      "you": 6185,
      "Ġrecorded": 6186,
      "aisies": 6187,
      "Yeah": 6188,
      "ĠLizzie": 6189,
      "Ġpencils": 6190,
      "Ġincluded": 6191,
      "njoy": 6192,
      "Ġchuck": 6193,
      "bbie": 6194,
      "Ġobserved": 6195,
      "Ġcomplet": 6196,
      "ĠLena": 6197,
      "ĠJessica": 6198,
      "va": 6199,
      "Ġdaisies": 6200,
      "Ġpots": 6201,
      "Ġactivities": 6202,
      "ĠMil": 6203,
      "Ġsiren": 6204,
      "Ġprayer": 6205,
      "Ġfirm": 6206,
      "Ġtimer": 6207,
      "ĠPipp": 6208,
      "Ġpajamas": 6209,
      "Ġroads": 6210,
      "Ġwires": 6211,
      "Ch": 6212,
      "Ġremoved": 6213,
      "Ġdarkness": 6214,
      "Ġworries": 6215,
      "Ġuses": 6216,
      "Ġventured": 6217,
      "Ġcountryside": 6218,
      "ction": 6219,
      "Ġorganizing": 6220,
      "Ġcompletely": 6221,
      "Ġworkers": 6222,
      "Ġopening": 6223,
      "Ġfairies": 6224,
      "Ġrelief": 6225,
      "Ġwasted": 6226,
      "angled": 6227,
      "Ġleap": 6228,
      "Ġowners": 6229,
      "Ġreply": 6230,
      "pes": 6231,
      "Ġstorekeeper": 6232,
      "Ġcott": 6233,
      "Ġbelly": 6234,
      "Ġranger": 6235,
      "Ġfault": 6236,
      "bbled": 6237,
      "ĠJohnson": 6238,
      "ĠFox": 6239,
      "Ġpartic": 6240,
      "Ġquacked": 6241,
      "Ġleader": 6242,
      "Ġpolishing": 6243,
      "Ġstern": 6244,
      "Ġbecoming": 6245,
      "Ġflames": 6246,
      "Ġlamb": 6247,
      "Ġkites": 6248,
      "Ġagrees": 6249,
      "ĠSlowly": 6250,
      "Ġpoems": 6251,
      "Ġpenguins": 6252,
      "ĠwasnÃ¢": 6253,
      "iding": 6254,
      "ĠMel": 6255,
      "ĠTwo": 6256,
      "coon": 6257,
      "Ġfaced": 6258,
      "Ġgrocer": 6259,
      "ĠChrist": 6260,
      "Sometimes": 6261,
      "Ġseesaw": 6262,
      "ora": 6263,
      "Ġeverybody": 6264,
      "vers": 6265,
      "umble": 6266,
      "Ġmelting": 6267,
      "Ġscales": 6268,
      "Ġfolding": 6269,
      "Ġsquealed": 6270,
      "Ġhealed": 6271,
      "Ġvanish": 6272,
      "Ġhelmets": 6273,
      "ĠJones": 6274,
      "Ġwink": 6275,
      "ĠFollow": 6276,
      "oul": 6277,
      "Ġlogs": 6278,
      "Ġthroat": 6279,
      "Ġcrabs": 6280,
      "ĠLeave": 6281,
      "Ġtract": 6282,
      "Ġusually": 6283,
      "Ġopinion": 6284,
      "Ġcrumbs": 6285,
      "Ġripe": 6286,
      "Ġdipped": 6287,
      "Ġseems": 6288,
      "Ġtwinkle": 6289,
      "Ġlollipops": 6290,
      "Ġcash": 6291,
      "Ġrisk": 6292,
      "fl": 6293,
      "Ġteaches": 6294,
      "ĠBye": 6295,
      "Ġgroceries": 6296,
      "ĠMira": 6297,
      "Ġden": 6298,
      "ivery": 6299,
      "Ġknights": 6300,
      "Ġprovided": 6301,
      "Ġdentist": 6302,
      "asm": 6303,
      "Ġpolished": 6304,
      "Ġvalued": 6305,
      "Ġtoss": 6306,
      "Ġpeeking": 6307,
      "Ġstaying": 6308,
      "ĠWatch": 6309,
      "Ġsnakes": 6310,
      "Ġtractor": 6311,
      "Ġinterested": 6312,
      "ĠPut": 6313,
      "Ġscrubb": 6314,
      "Ġrubs": 6315,
      "Ġcautiously": 6316,
      "Ġcracked": 6317,
      "Ah": 6318,
      "Ġunited": 6319,
      "araway": 6320,
      "zes": 6321,
      "ĠDr": 6322,
      "Ġrings": 6323,
      "Ġfaraway": 6324,
      "Ġdesert": 6325,
      "ĠSorry": 6326,
      "ĠIs": 6327,
      "ĠBeing": 6328,
      "Ġwinked": 6329,
      "Ġmisses": 6330,
      "Ġprotecting": 6331,
      "Ġunf": 6332,
      "Ġmarked": 6333,
      "Ġfreed": 6334,
      "ĠBird": 6335,
      "Ġyoun": 6336,
      "ĠSque": 6337,
      "Ġyounger": 6338,
      "Ġcloses": 6339,
      "Ġwrist": 6340,
      "mas": 6341,
      "Ġbalanced": 6342,
      "Ġwandering": 6343,
      "ĠMany": 6344,
      "Ġchuckled": 6345,
      "Ġfuzzy": 6346,
      "ĠLarry": 6347,
      "Ġforehead": 6348,
      "Ġlistens": 6349,
      "Ġpastries": 6350,
      "Ġsingle": 6351,
      "Ġsigned": 6352,
      "Ġbeads": 6353,
      "Ġparticular": 6354,
      "ĠJune": 6355,
      "boo": 6356,
      "Ġroses": 6357,
      "ĠDoggy": 6358,
      "Ġactions": 6359,
      "Ġdirections": 6360,
      "Ġhowever": 6361,
      "ÅĵMommy": 6362,
      "Ġcopy": 6363,
      "igi": 6364,
      "Ġboom": 6365,
      "Ġcough": 6366,
      "Ġsplashes": 6367,
      "go": 6368,
      "rance": 6369,
      "ĠBess": 6370,
      "Ġcrackers": 6371,
      "Ġbaker": 6372,
      "Ġnaps": 6373,
      "Ġcous": 6374,
      "Ġavo": 6375,
      "ĠSophia": 6376,
      "hile": 6377,
      "Ġswir": 6378,
      "Ġroots": 6379,
      "ĠWithout": 6380,
      "Ġfilling": 6381,
      "Ġsnowballs": 6382,
      "Ġyesterday": 6383,
      "ÅĵWhatÃ¢": 6384,
      "Ġrestored": 6385,
      "Ġfluttered": 6386,
      "Ġdelivery": 6387,
      "Ġrolls": 6388,
      "arling": 6389,
      "Ġstem": 6390,
      "Ġconn": 6391,
      "Ġswooped": 6392,
      "Ġgaze": 6393,
      "Ġsuitcase": 6394,
      "Ġwiggled": 6395,
      "ĠFriend": 6396,
      "Ġtipto": 6397,
      "ĠAbbie": 6398,
      "Ġsomebody": 6399,
      "ĠNothing": 6400,
      "Ġsweat": 6401,
      "ĠChristmas": 6402,
      "Bad": 6403,
      "Ġitchy": 6404,
      "Ġbumpy": 6405,
      "Ġrefle": 6406,
      "Ġphotos": 6407,
      "ĠKeep": 6408,
      "Ġslam": 6409,
      "Ëľ": 6410,
      "ĠEverybody": 6411,
      "âĤ¬Ëľ": 6412,
      "Ġstroll": 6413,
      "oline": 6414,
      "Then": 6415,
      "Ġtwin": 6416,
      "Ġpastels": 6417,
      "Ġburst": 6418,
      "Ġcelebration": 6419,
      "Ġtrips": 6420,
      "Ġpedals": 6421,
      "ids": 6422,
      "ĠGigi": 6423,
      "Ġbacked": 6424,
      "Ġtallest": 6425,
      "Ġawake": 6426,
      "Ġcause": 6427,
      "Ġfroze": 6428,
      "Ġcashier": 6429,
      "ĠMickey": 6430,
      "Ġremote": 6431,
      "Ġlined": 6432,
      "Ġnect": 6433,
      "Ġdarker": 6434,
      "aved": 6435,
      "Ġdetermination": 6436,
      "Ġnectar": 6437,
      "ility": 6438,
      "ĠLaura": 6439,
      "Ġspeaking": 6440,
      "Ġsecure": 6441,
      "ormed": 6442,
      "ĠSparky": 6443,
      "using": 6444,
      "Ġstare": 6445,
      "Ġknees": 6446,
      "Ġwow": 6447,
      "Ġpiggy": 6448,
      "anes": 6449,
      "oys": 6450,
      "Ġcomplaining": 6451,
      "Ġbars": 6452,
      "Ġrecording": 6453,
      "Ġsneaky": 6454,
      "Ġvideos": 6455,
      "ĠPandy": 6456,
      "ĠExc": 6457,
      "Run": 6458,
      "Ġhealth": 6459,
      "St": 6460,
      "Ġliqu": 6461,
      "abby": 6462,
      "Ġpleasure": 6463,
      "Ġacting": 6464,
      "?\",": 6465,
      "Ġentrance": 6466,
      "atches": 6467,
      "Ġwears": 6468,
      "Ġrockets": 6469,
      "Ġdelivered": 6470,
      "Ġmiles": 6471,
      "Ġglee": 6472,
      "Ġinsp": 6473,
      "esmer": 6474,
      "Ġcoloured": 6475,
      "ĠEnjoy": 6476,
      "Ġopp": 6477,
      "ords": 6478,
      "Ġexpect": 6479,
      "Ġtricked": 6480,
      "ĠNick": 6481,
      "Ġmesmer": 6482,
      "ĠPam": 6483,
      "sequ": 6484,
      "boat": 6485,
      "ĠEmmy": 6486,
      "Ġcheeks": 6487,
      "ĠJazz": 6488,
      "yond": 6489,
      "Ġaff": 6490,
      "Ġbeyond": 6491,
      "Ġnoon": 6492,
      "Ġconsequ": 6493,
      "Ġafterwards": 6494,
      "Ġhissed": 6495,
      "Ġstays": 6496,
      "Ġinsects": 6497,
      "Ġglasses": 6498,
      "Ġbowls": 6499,
      "ĠExcited": 6500,
      "Ġjoking": 6501,
      "hell": 6502,
      "oar": 6503,
      "Ġtickled": 6504,
      "Ġsobbed": 6505,
      "Ġfarther": 6506,
      "Ġcolored": 6507,
      "olen": 6508,
      "affes": 6509,
      "ĠJay": 6510,
      "ĠDays": 6511,
      "Ġscaring": 6512,
      "Ġstolen": 6513,
      "ĠStella": 6514,
      "Fine": 6515,
      "ĠBuzzy": 6516,
      "Ġsense": 6517,
      "Ġsandcastles": 6518,
      "Ġtricky": 6519,
      "Grandma": 6520,
      "Ġrule": 6521,
      "ĠMa": 6522,
      "Ġcovers": 6523,
      "Ġmasks": 6524,
      "lly": 6525,
      "dies": 6526,
      "iki": 6527,
      "Ġpurr": 6528,
      "Ġdeal": 6529,
      "Ġinstrum": 6530,
      "ÅĵCome": 6531,
      "Ġcalmed": 6532,
      "Ġgiraffes": 6533,
      "arter": 6534,
      "Ġhandful": 6535,
      "?'": 6536,
      "Ġtalented": 6537,
      "Ġpause": 6538,
      "Ġtangled": 6539,
      "Ġindeed": 6540,
      "Ġsmarter": 6541,
      "Ġadding": 6542,
      "Ġscarves": 6543,
      "Ġcandies": 6544,
      "Ġlung": 6545,
      "Ġshirts": 6546,
      "Ġachieved": 6547,
      "Ġchoices": 6548,
      "aging": 6549,
      "Ġconsequences": 6550,
      "Ġliquid": 6551,
      "ĠPrincess": 6552,
      "Ġyourselves": 6553,
      "Ġleading": 6554,
      "Ġbumps": 6555,
      "Ġbehavi": 6556,
      "aren": 6557,
      "choo": 6558,
      "Ġreads": 6559,
      "Ġbatteries": 6560,
      "igers": 6561,
      "Ġhesitated": 6562,
      "Ġimpossible": 6563,
      "Ġbadge": 6564,
      "ths": 6565,
      "weet": 6566,
      "Ġmi": 6567,
      "ĠEls": 6568,
      "ĠGet": 6569,
      "Ġpaddle": 6570,
      "Ġmixture": 6571,
      "Ġunp": 6572,
      "ept": 6573,
      "ĠRobert": 6574,
      "oke": 6575,
      "ĠMaya": 6576,
      "ĠPl": 6577,
      "Ġexplorers": 6578,
      "Ġdarling": 6579,
      "Ġmagnets": 6580,
      "Ġkicks": 6581,
      "Ġclowns": 6582,
      "Ġpos": 6583,
      "Ġyum": 6584,
      "Ġrecommended": 6585,
      "Shh": 6586,
      "ĠChris": 6587,
      "ĠSnugg": 6588,
      "Ġweeping": 6589,
      "Ġgracefully": 6590,
      "ĠMilo": 6591,
      "ners": 6592,
      "Ġdefe": 6593,
      "ĠTess": 6594,
      "Ġseashell": 6595,
      "Ġseeker": 6596,
      "ĠZip": 6597,
      "Ġbakery": 6598,
      "anging": 6599,
      "ĠMikey": 6600,
      "Ġfirefighters": 6601,
      "ĠOlive": 6602,
      "Ġaccomplishment": 6603,
      "Ġsi": 6604,
      "Ġquarre": 6605,
      "brush": 6606,
      "Ġsalty": 6607,
      "Ġimproved": 6608,
      "ĠRy": 6609,
      "Ġswept": 6610,
      "atul": 6611,
      "coat": 6612,
      "Ġdeserve": 6613,
      "Ġstroked": 6614,
      "ĠRobby": 6615,
      "Ġflapping": 6616,
      "Ġwipes": 6617,
      "Ġbeginning": 6618,
      "Ġrus": 6619,
      "urry": 6620,
      "Ġcomplained": 6621,
      "Ġmushrooms": 6622,
      "Whe": 6623,
      "Those": 6624,
      "Ġhider": 6625,
      "Ġconv": 6626,
      "obody": 6627,
      "ppers": 6628,
      "ana": 6629,
      "Ġsteer": 6630,
      "Ġknocks": 6631,
      "Ġcust": 6632,
      "Ġthorn": 6633,
      "Ġlighter": 6634,
      "Ġseven": 6635,
      "Ġteased": 6636,
      "ments": 6637,
      "ĠRock": 6638,
      "ĠSnuggles": 6639,
      "Ġobjects": 6640,
      "Ġparties": 6641,
      "ĠMartha": 6642,
      "Ġtravelled": 6643,
      "ÅĵDo": 6644,
      "Ġthird": 6645,
      "ra": 6646,
      "Ġhearing": 6647,
      "ĠGranny": 6648,
      "blings": 6649,
      "ĠSqu": 6650,
      "iles": 6651,
      "Ġtigers": 6652,
      "Ġhoriz": 6653,
      "Ġcans": 6654,
      "Ġcupcakes": 6655,
      "ÅĵYouÃ¢": 6656,
      "Ġbasement": 6657,
      "Ġfever": 6658,
      "Ġsnuck": 6659,
      "Ġheading": 6660,
      "Ġfoul": 6661,
      "Ġseconds": 6662,
      "Ġdots": 6663,
      "Ġraincoat": 6664,
      "Ġsiblings": 6665,
      "Ġhorizon": 6666,
      "ĠAbi": 6667,
      "ĠSc": 6668,
      "elia": 6669,
      "Ġblagg": 6670,
      "Ġblaggart": 6671,
      "Ġsmiley": 6672,
      "Ġperformance": 6673,
      "Ġcustom": 6674,
      "Ġartist": 6675,
      "Ġhallway": 6676,
      "come": 6677,
      "Ġbeam": 6678,
      "Ġmarker": 6679,
      "Ġsnatched": 6680,
      "ĠThanks": 6681,
      "Ġyells": 6682,
      "Ġjackets": 6683,
      "Ġfluttering": 6684,
      "indr": 6685,
      "Ġdrums": 6686,
      "ÅĵHi": 6687,
      "ĠRyan": 6688,
      "step": 6689,
      "ans": 6690,
      "Ġruining": 6691,
      "ĠWater": 6692,
      "Ġgems": 6693,
      "Ġbedtime": 6694,
      "Next": 6695,
      "itches": 6696,
      "igning": 6697,
      "ĠwouldnÃ¢": 6698,
      "Ġraindr": 6699,
      "Ġneither": 6700,
      "mies": 6701,
      "igued": 6702,
      "Ġwee": 6703,
      "Ġbuying": 6704,
      "ĠAlong": 6705,
      "ady": 6706,
      "Ġpuppies": 6707,
      "ition": 6708,
      "Ġpaying": 6709,
      "Ġscrubbed": 6710,
      "Ġcelebrating": 6711,
      "Ġfamilies": 6712,
      "tuce": 6713,
      "Ġdollhouse": 6714,
      "Ġannoy": 6715,
      "ÅĵWow": 6716,
      "Ġcreamy": 6717,
      "band": 6718,
      "Ġamong": 6719,
      "Ġmate": 6720,
      "cho": 6721,
      "Ġpeacefully": 6722,
      "Ġlettuce": 6723,
      "Ġrivers": 6724,
      "Ġscratches": 6725,
      "river": 6726,
      "Ġwrapping": 6727,
      "Ġwidened": 6728,
      "Ġdrifted": 6729,
      "Ġwadd": 6730,
      "atur": 6731,
      "ivity": 6732,
      "Ġtasks": 6733,
      "andpar": 6734,
      "ades": 6735,
      "Ġtreehouse": 6736,
      "fall": 6737,
      "Ġcapt": 6738,
      "Ġhides": 6739,
      "Fr": 6740,
      "ĠFinn": 6741,
      "alph": 6742,
      "Ġwins": 6743,
      "Ġbehaved": 6744,
      "Ġrusty": 6745,
      "uzz": 6746,
      "Ġplayers": 6747,
      "ĠwonÃ¢": 6748,
      "Ġlun": 6749,
      "ĠKaren": 6750,
      "ael": 6751,
      "ĠNo": 6752,
      "Ġcuddly": 6753,
      "immering": 6754,
      "Ġuns": 6755,
      "Ġrewarded": 6756,
      "Ġarrows": 6757,
      "ounce": 6758,
      "Ġwilling": 6759,
      "ĠJacky": 6760,
      "Ġlower": 6761,
      "Lucy": 6762,
      "hog": 6763,
      "Ġneedles": 6764,
      "Ġrumble": 6765,
      "Ġsource": 6766,
      "ĠMabel": 6767,
      "Ġcreativity": 6768,
      "Ġshrinking": 6769,
      "ĠRover": 6770,
      "Ġlosing": 6771,
      "Ġtemper": 6772,
      "Ġrepaired": 6773,
      "Ġfears": 6774,
      "Ġecho": 6775,
      "iece": 6776,
      "Ġgrandpar": 6777,
      "pr": 6778,
      "Ġincluding": 6779,
      "ĠBinky": 6780,
      "Ġtiptoed": 6781,
      "Ġchoo": 6782,
      "itched": 6783,
      "ĠGoodbye": 6784,
      "Ġcreations": 6785,
      "Ġtapped": 6786,
      "Ġgrassy": 6787,
      "Ġchefs": 6788,
      "ongr": 6789,
      "ĠJanie": 6790,
      "ĠSim": 6791,
      "Le": 6792,
      "Ġminerals": 6793,
      "Ġseparated": 6794,
      "Ġsprinkled": 6795,
      "Ġimagining": 6796,
      "hew": 6797,
      "Ġrising": 6798,
      "Ġgranted": 6799,
      "ichael": 6800,
      "Ġclick": 6801,
      "Ġchop": 6802,
      "Ġaud": 6803,
      "Ġgross": 6804,
      "Ġtempt": 6805,
      "ĠDuring": 6806,
      "Ġaren": 6807,
      "ĠRobbie": 6808,
      "ĠKiki": 6809,
      "Ġswimsuit": 6810,
      "ĠRemember": 6811,
      "ertain": 6812,
      "ongratul": 6813,
      "jo": 6814,
      "Great": 6815,
      "ĠSadie": 6816,
      "Ġtiss": 6817,
      "Ġpans": 6818,
      "int": 6819,
      "Ġlimes": 6820,
      "Ġstomped": 6821,
      "Ġscrewd": 6822,
      "Ġcoup": 6823,
      "ĠNobody": 6824,
      "Ġgrabbing": 6825,
      "ĠBee": 6826,
      "Ġpouted": 6827,
      "Ġbackwards": 6828,
      "Ġspong": 6829,
      "itude": 6830,
      "ntil": 6831,
      "ÅĵMy": 6832,
      "oor": 6833,
      "Ġdecorating": 6834,
      "Ġdamage": 6835,
      "ishy": 6836,
      "Ġhesitant": 6837,
      "Ġearn": 6838,
      "Ġprinting": 6839,
      "Ġpeppers": 6840,
      "Ġhedgehog": 6841,
      "Ġtodd": 6842,
      "Ġstung": 6843,
      "Have": 6844,
      "Ġunpacked": 6845,
      "Ġsquares": 6846,
      "ĠQ": 6847,
      "Ġtramp": 6848,
      "Time": 6849,
      "Ġslower": 6850,
      "Ġcowb": 6851,
      "Ġdiving": 6852,
      "Ġwobb": 6853,
      "Ġplanning": 6854,
      "ĠUntil": 6855,
      "Ġbeloved": 6856,
      "ably": 6857,
      "Ġonions": 6858,
      "Ġmaterials": 6859,
      "ĠJudy": 6860,
      "Ġheavier": 6861,
      "Ġchip": 6862,
      "Ġgrowls": 6863,
      "Ġraindrops": 6864,
      "ĠMarie": 6865,
      "Ġwrink": 6866,
      "Ġarr": 6867,
      "Ġpointy": 6868,
      "ĠSqueaky": 6869,
      "Ġsnowmen": 6870,
      "ĠBluey": 6871,
      "Ġsurroundings": 6872,
      "Ġhus": 6873,
      "ĠFlop": 6874,
      "Ġscrewdriver": 6875,
      "Ġpromises": 6876,
      "Ġavoid": 6877,
      "Ġmer": 6878,
      "Ġrecipe": 6879,
      "Ġaudience": 6880,
      "Ġcousin": 6881,
      "Ġsailboat": 6882,
      "Meow": 6883,
      "ĠSince": 6884,
      "Ġrustling": 6885,
      "Ġneighbours": 6886,
      "cher": 6887,
      "Yummy": 6888,
      "Ġblocking": 6889,
      "Ġforgiven": 6890,
      "Ġcenter": 6891,
      "kend": 6892,
      "ĠMichael": 6893,
      "Ġslices": 6894,
      "Ġgobbled": 6895,
      "rif": 6896,
      "Ġwiping": 6897,
      "Sammy": 6898,
      "Ġweekend": 6899,
      "Ġtemperature": 6900,
      "ĠEarth": 6901,
      "eds": 6902,
      "Ġtrampoline": 6903,
      "ueen": 6904,
      "Ġhelpers": 6905,
      "Ġwobbled": 6906,
      "Ġrip": 6907,
      "Ġwindy": 6908,
      "ippy": 6909,
      "Ġcouple": 6910,
      "yes": 6911,
      "Ġstool": 6912,
      "Ġdiscussed": 6913,
      "Ġdesigned": 6914,
      "planes": 6915,
      "Ġornaments": 6916,
      "Ġyelp": 6917,
      "Ġdreamt": 6918,
      "Oops": 6919,
      "Ġnoses": 6920,
      "Ġcorners": 6921,
      "ĠMaddie": 6922,
      "ĠTodd": 6923,
      "lets": 6924,
      "ĠGrog": 6925,
      "ĠSimon": 6926,
      "child": 6927,
      "Ġpecked": 6928,
      "Ġslammed": 6929,
      "unched": 6930,
      "ĠNever": 6931,
      "Ġswans": 6932,
      "Ġafford": 6933,
      "iley": 6934,
      "ĠGina": 6935,
      "Rex": 6936,
      "ickly": 6937,
      "Ġsilent": 6938,
      "Ġfeast": 6939,
      "Ew": 6940,
      "ĠCur": 6941,
      "Ġsports": 6942,
      "Ġhitting": 6943,
      "Roar": 6944,
      "Ġage": 6945,
      "ĠFar": 6946,
      "Ġstreets": 6947,
      "ĠMeg": 6948,
      "Ġtissue": 6949,
      "Ġdads": 6950,
      "Ġache": 6951,
      "Ġaside": 6952,
      "ĠJackie": 6953,
      "Ġsponge": 6954,
      "Ġstain": 6955,
      "Ġrequested": 6956,
      "ĠBack": 6957,
      "Ġmeals": 6958,
      "Ġcuriously": 6959,
      "Ġforks": 6960,
      "Jenny": 6961,
      "Ġsunflowers": 6962,
      "Ġreflection": 6963,
      "Ġsnowfl": 6964,
      "Ġwarnings": 6965,
      "ĠRalph": 6966,
      "Ġtails": 6967,
      "ĠListen": 6968,
      "ĠZoey": 6969,
      "Ġdances": 6970,
      "ĠAlthough": 6971,
      "Ġprett": 6972,
      "Ġplans": 6973,
      "Ġbows": 6974,
      "Ġastr": 6975,
      "ido": 6976,
      "Ġbud": 6977,
      "Ġshaped": 6978,
      "Ġfamiliar": 6979,
      "ĠQueen": 6980,
      "ĠFrog": 6981,
      "Ġsparks": 6982,
      "Ġvanilla": 6983,
      "Ġdet": 6984,
      "Ġleaning": 6985,
      "ĠThose": 6986,
      "Ġdollars": 6987,
      "Jane": 6988,
      "Ġremembering": 6989,
      "Ġadult": 6990,
      "Ġcoloring": 6991,
      "Ġbreathed": 6992,
      "Ġintrigued": 6993,
      "Ġgreeted": 6994,
      "Ġsale": 6995,
      "Ġscrews": 6996,
      "Ġgrandchild": 6997,
      "Ġduckling": 6998,
      "Ġforgets": 6999,
      "osen": 7000,
      "Ġgasp": 7001,
      "Ġchosen": 7002,
      "ĠZara": 7003,
      "Ġastron": 7004,
      "ĠHoot": 7005,
      "Ġthrown": 7006,
      "Ġspreading": 7007,
      "Ġprettier": 7008,
      "ndy": 7009,
      "Ġtwice": 7010,
      "Ġpraying": 7011,
      "vin": 7012,
      "uches": 7013,
      "Ġtunnels": 7014,
      "aker": 7015,
      "Ġshops": 7016,
      "Ġhour": 7017,
      "Ġpotion": 7018,
      "--": 7019,
      "Ġtouches": 7020,
      "Ġastronaut": 7021,
      "cl": 7022,
      "Ġswords": 7023,
      "ĠFriends": 7024,
      "ĠOur": 7025,
      "Ġenthusiasm": 7026,
      "Ġhusband": 7027,
      "Ġmoo": 7028,
      "Ġsailors": 7029,
      "Ġgardener": 7030,
      "Ġhops": 7031,
      "Ġzipping": 7032,
      "rect": 7033,
      "acter": 7034,
      "Ġspikes": 7035,
      "Ġsuperheroes": 7036,
      "Ġreason": 7037,
      "Ġmagician": 7038,
      "Ġwishing": 7039,
      "Ġdaring": 7040,
      "Ġspoonful": 7041,
      "Ġgrandparents": 7042,
      "mallow": 7043,
      "Ġleast": 7044,
      "Ġmarsh": 7045,
      "ĠAmelia": 7046,
      "Ġreass": 7047,
      "Ġskunk": 7048,
      "Ġdod": 7049,
      "Ġchanging": 7050,
      "ĠFido": 7051,
      "ĠDe": 7052,
      "Ġborrowed": 7053,
      "Ġscamp": 7054,
      "Ġcounts": 7055,
      "ĠAsh": 7056,
      "Ġpens": 7057,
      "Ġflight": 7058,
      "Ġforgetting": 7059,
      "Alice": 7060,
      "Ġbodies": 7061,
      "Ġrotten": 7062,
      "Ġflavors": 7063,
      "Ġ10": 7064,
      "Ġguests": 7065,
      "Woof": 7066,
      "ĠStar": 7067,
      "Ġhopeful": 7068,
      "ives": 7069,
      "erate": 7070,
      "ounced": 7071,
      "Ġsnuggle": 7072,
      "Ġmesmerized": 7073,
      "fly": 7074,
      "Ġheroes": 7075,
      "Ġsending": 7076,
      "Ġcorrect": 7077,
      "ĠSun": 7078,
      "Ġcharacter": 7079,
      "Ġwoof": 7080,
      "Ġmuscle": 7081,
      "Ġbuzzed": 7082,
      "Ġseaw": 7083,
      "Ġneatly": 7084,
      "Ġgrows": 7085,
      "Ġcro": 7086,
      "oni": 7087,
      "Ġwraps": 7088,
      "Whee": 7089,
      "Ġposs": 7090,
      "Ġsteady": 7091,
      "Ġnibb": 7092,
      "Ġfeeding": 7093,
      "Ġmarshmallow": 7094,
      "irrel": 7095,
      "Ġhandsome": 7096,
      "Our": 7097,
      "Ġcond": 7098,
      "Ġraccoon": 7099,
      "Ġmints": 7100,
      "ĠBec": 7101,
      "Ġdelivering": 7102,
      "Ġnine": 7103,
      "Ġoh": 7104,
      "antha": 7105,
      "Ġdived": 7106,
      "Ġpolitely": 7107,
      "osty": 7108,
      "Ġonward": 7109,
      "ne": 7110,
      "Ġalien": 7111,
      "Ġzebras": 7112,
      "Ġsuffering": 7113,
      "acing": 7114,
      "Ġwarmer": 7115,
      "Ġnapkins": 7116,
      "ĠUnder": 7117,
      "Boo": 7118,
      "Ġmatey": 7119,
      "Amy": 7120,
      "years": 7121,
      "Ġsneezing": 7122,
      "Ġbaths": 7123,
      "Ġhonked": 7124,
      "ĠFu": 7125,
      "no": 7126,
      "the": 7127,
      "Ġplucked": 7128,
      "Ġcrashing": 7129,
      "Ġmatters": 7130,
      "ĠWendy": 7131,
      "Ġposter": 7132,
      "Ġplain": 7133,
      "ĠthatÃ¢": 7134,
      "meal": 7135,
      "Ġlifts": 7136,
      "Sally": 7137,
      "Ġrefreshing": 7138,
      "ÅĵMom": 7139,
      "Ġunsure": 7140,
      "Ġseaweed": 7141,
      "ĠBirthday": 7142,
      "Ġlungs": 7143,
      "ĠSof": 7144,
      "Ġstudents": 7145,
      "Ġincreased": 7146,
      "ĠAli": 7147,
      "und": 7148,
      "Ġcrew": 7149,
      "Ġstands": 7150,
      "Some": 7151,
      "Ġjoining": 7152,
      "Sue": 7153,
      "Ġtoddler": 7154,
      "Ġscen": 7155,
      "allowed": 7156,
      "ĠDes": 7157,
      "Ġproper": 7158,
      "Ġpreparing": 7159,
      "Ġswallowed": 7160,
      "Ġoatmeal": 7161,
      "Ġthud": 7162,
      "Ġdip": 7163,
      "Ġglued": 7164,
      "ÅĵBut": 7165,
      "Ġexpress": 7166,
      "ĠFrosty": 7167,
      "ĠLove": 7168,
      "ĠLia": 7169,
      "Ġwhispers": 7170,
      "oken": 7171,
      "Ġrespond": 7172,
      "ĠBessie": 7173,
      "ĠPill": 7174,
      "Ġwatering": 7175,
      "Ġamount": 7176,
      "Ġtoaster": 7177,
      "Ġdie": 7178,
      "ĠBaa": 7179,
      "Ġropes": 7180,
      "Ġperformed": 7181,
      "ĠProud": 7182,
      "Ġcaptain": 7183,
      "Ġhaw": 7184,
      "ĠRuth": 7185,
      "Ġstarfish": 7186,
      "Ġleads": 7187,
      "Ġtrembled": 7188,
      "Ġpresses": 7189,
      "iel": 7190,
      "Ġwobbly": 7191,
      "Ġtriangles": 7192,
      "Ġhawk": 7193,
      "Ġlessons": 7194,
      "ĠFarmer": 7195,
      "Ġcushions": 7196,
      "Ġbiting": 7197,
      "Ġpostman": 7198,
      "ĠHolly": 7199,
      "ĠThatÃ¢": 7200,
      "while": 7201,
      "Ġgeese": 7202,
      "ĠMomma": 7203,
      "ÅĵWell": 7204,
      "Ġdancers": 7205,
      "Ġpops": 7206,
      "Ġfoc": 7207,
      "Ġscraped": 7208,
      "Ġtalks": 7209,
      "Ġsniffs": 7210,
      "Ġresisted": 7211,
      "Ġfocused": 7212,
      "Ġmerry": 7213,
      "Ġtrot": 7214,
      "Ġtables": 7215,
      "Ġbully": 7216,
      "Ġadults": 7217,
      "Ġpanicked": 7218,
      "ĠBel": 7219,
      "rified": 7220,
      "Ġconfl": 7221,
      "Ġrushing": 7222,
      "ĠMouse": 7223,
      "vant": 7224,
      "Ġnecklaces": 7225,
      "Ġpuppet": 7226,
      "ĠSquirrel": 7227,
      "ĠPatch": 7228,
      "Ġsofter": 7229,
      "Ġslips": 7230,
      "Ġfirmly": 7231,
      "Ġfreedom": 7232,
      "Ġwaddled": 7233,
      "Ġbrav": 7234,
      "iona": 7235,
      "ados": 7236,
      "Ġjoyful": 7237,
      "Ġfirefly": 7238,
      "Ġencouraging": 7239,
      "Ġtested": 7240,
      "Ġcoop": 7241,
      "attered": 7242,
      "Ġdropping": 7243,
      "Ġwrigg": 7244,
      "ÅĵWhere": 7245,
      "Ġdrawers": 7246,
      "een": 7247,
      "ĠOnly": 7248,
      "ĠStay": 7249,
      "Ġfrowning": 7250,
      "onna": 7251,
      "rey": 7252,
      "Ġwaterfall": 7253,
      "Ġworn": 7254,
      "Ġwiggle": 7255,
      "Bun": 7256,
      "Ġrobber": 7257,
      "ĠDavey": 7258,
      "Ġev": 7259,
      "ĠMean": 7260,
      "Ġtake": 7261,
      "ĠSamantha": 7262,
      "ĠBubba": 7263,
      "Ġfaded": 7264,
      "Ġblast": 7265,
      "Ġnervously": 7266,
      "Ġlifting": 7267,
      "Ġscampered": 7268,
      "ĠMaddy": 7269,
      "azing": 7270,
      "Ġdrivers": 7271,
      "Ġhumans": 7272,
      "Ġrout": 7273,
      "bird": 7274,
      "Ġbubb": 7275,
      "Ġspat": 7276,
      "Ġexplod": 7277,
      "Ġappreciation": 7278,
      "Ġpours": 7279,
      "retty": 7280,
      "ĠMegan": 7281,
      "gie": 7282,
      "Ġsqueak": 7283,
      "ĠHoney": 7284,
      "Ġthoughts": 7285,
      "Ġpennies": 7286,
      "Ġrespected": 7287,
      "Ġquarreling": 7288,
      "Ġdrawn": 7289,
      "stick": 7290,
      "Ġthroughout": 7291,
      "Ġtwinkled": 7292,
      "ĠTuna": 7293,
      "Ġleapt": 7294,
      "ĠFlopsy": 7295,
      "Ġocc": 7296,
      "Ġpigeons": 7297,
      "Ġstacked": 7298,
      "ĠRay": 7299,
      "Ġpeck": 7300,
      "Ġdresser": 7301,
      "ĠFuzzy": 7302,
      "Joe": 7303,
      "ĠPillage": 7304,
      "Ġscient": 7305,
      "Ġfits": 7306,
      "ĠFe": 7307,
      "Ġscientist": 7308,
      "ears": 7309,
      "ĠMeanwhile": 7310,
      "Every": 7311,
      "ĠMina": 7312,
      "Ġbravest": 7313,
      "Ġbattle": 7314,
      "ĠKaty": 7315,
      "Ġavocados": 7316,
      "Mary": 7317,
      "Ġovercome": 7318,
      "Ġmonths": 7319,
      "Ġstrongest": 7320,
      "Ġelf": 7321,
      "ashes": 7322,
      "Ġpolar": 7323,
      "ĠSofia": 7324,
      "ggy": 7325,
      "fire": 7326,
      "Ġnotes": 7327,
      "Listen": 7328,
      "Ġfail": 7329,
      "Ġgonna": 7330,
      "acy": 7331,
      "Ġplaytime": 7332,
      "Ġnur": 7333,
      "col": 7334,
      "Ġcertain": 7335,
      "ĠAng": 7336,
      "ĠFreddie": 7337,
      "Ġwept": 7338,
      "Ġnood": 7339,
      "ĠUp": 7340,
      "Ġmunch": 7341,
      "Ġspins": 7342,
      "Ġscored": 7343,
      "Ġcolder": 7344,
      "Ġechoed": 7345,
      "bage": 7346,
      "Ġcosy": 7347,
      "Ġconvers": 7348,
      "Ġwakes": 7349,
      "ĠDog": 7350,
      "Ġgarbage": 7351,
      "Ġplayroom": 7352,
      "Ġdesigns": 7353,
      "Ġperforming": 7354,
      "ĠEva": 7355,
      "ĠFire": 7356,
      "Ġsever": 7357,
      "Mine": 7358,
      "aft": 7359,
      "Ġsank": 7360,
      "ĠFiona": 7361,
      "Ġflown": 7362,
      "Ġtricycle": 7363,
      "Ġsweetest": 7364,
      "Ġprove": 7365,
      "Ġprobably": 7366,
      "Ġforgiving": 7367,
      "Ġmarshmallows": 7368,
      "Ġgest": 7369,
      "ĠOwl": 7370,
      "Ġbehaving": 7371,
      "iment": 7372,
      "Ġguide": 7373,
      "Ġpumpkins": 7374,
      "Ġexplorer": 7375,
      "Ġsqueezing": 7376,
      "Ġdef": 7377,
      "Ġrobots": 7378,
      "please": 7379,
      "ÅĵIf": 7380,
      "Ġtossed": 7381,
      "Ġblinking": 7382,
      "ĠStop": 7383,
      "engers": 7384,
      "Ġcausing": 7385,
      "ĠPh": 7386,
      "Ġdisob": 7387,
      "Ġbells": 7388,
      "...\"": 7389,
      "undred": 7390,
      "Very": 7391,
      "Ġshown": 7392,
      "broken": 7393,
      "Ġcobwebs": 7394,
      "ÅĵOkay": 7395,
      "urprise": 7396,
      "ĠDespite": 7397,
      "Ġsquishy": 7398,
      "ĠJojo": 7399,
      "Like": 7400,
      "Ġspices": 7401,
      "ĠMo": 7402,
      "Ġhaird": 7403,
      "Ġpassengers": 7404,
      "Ġcongratul": 7405,
      "Ġcraft": 7406,
      "Ġties": 7407,
      "Ġtighter": 7408,
      "Ġhealing": 7409,
      "Ġangels": 7410,
      "?!\"": 7411,
      "asty": 7412,
      "Cl": 7413,
      "Ġyielded": 7414,
      "aying": 7415,
      "Ġreversed": 7416,
      "ilda": 7417,
      "Ġpound": 7418,
      "ĠMae": 7419,
      "Ġaimed": 7420,
      "ĠCurious": 7421,
      "ĠLouise": 7422,
      "upt": 7423,
      "Ġnapping": 7424,
      "Ġgiggles": 7425,
      "Ġnearly": 7426,
      "Ġpays": 7427,
      "ĠIm": 7428,
      "Ġunw": 7429,
      "ĠStill": 7430,
      "Ġ2": 7431,
      "Ġkittens": 7432,
      "Ġhi": 7433,
      "Ġinstruments": 7434,
      "Ġwider": 7435,
      "ĠBirdy": 7436,
      "Ġtil": 7437,
      "Ġinj": 7438,
      "Follow": 7439,
      "ĠBecause": 7440,
      "ammy": 7441,
      "Ġreun": 7442,
      "mates": 7443,
      "alloween": 7444,
      "Ġnuzz": 7445,
      "Ġsewing": 7446,
      "ading": 7447,
      "Ġdoorway": 7448,
      "Ġconflict": 7449,
      "esty": 7450,
      "Ġclues": 7451,
      "Ġappreciated": 7452,
      "Ġpaintbrush": 7453,
      "but": 7454,
      "found": 7455,
      "Ġcoug": 7456,
      "Ġshoo": 7457,
      "rying": 7458,
      "ĠWell": 7459,
      "Ġgrandd": 7460,
      "Ġbrushing": 7461,
      "Ġaction": 7462,
      "Lisa": 7463,
      "Watch": 7464,
      "agic": 7465,
      "Ġease": 7466,
      "Ġloading": 7467,
      "Ġpassports": 7468,
      "Ġcottage": 7469,
      "onies": 7470,
      "Alright": 7471,
      "ĠHalloween": 7472,
      "Ġbru": 7473,
      "Ġpaths": 7474,
      "ighting": 7475,
      "ca": 7476,
      "Ġheartbroken": 7477,
      "Ġais": 7478,
      "Ġblocked": 7479,
      "Ġmerma": 7480,
      "ĠRocky": 7481,
      "Ġlaying": 7482,
      "Ġslipping": 7483,
      "isc": 7484,
      "oudy": 7485,
      "Ġpuff": 7486,
      "Ġresults": 7487,
      "Ġsweep": 7488,
      "Ġbelts": 7489,
      "Ġpins": 7490,
      "Ġfigures": 7491,
      "Ġbits": 7492,
      "Johnny": 7493,
      "Ġrepeating": 7494,
      "Ġevil": 7495,
      "Ġsoaking": 7496,
      "antastic": 7497,
      "idey": 7498,
      "Ġmailed": 7499,
      "ĠPen": 7500,
      "ĠStart": 7501,
      "bec": 7502,
      "Ġwithin": 7503,
      "piece": 7504,
      "ĠAr": 7505,
      "Ġtwisty": 7506,
      "Ġtwisting": 7507,
      "ĠPippin": 7508,
      "ĠHope": 7509,
      "Ġsuffered": 7510,
      "ĠMaisy": 7511,
      "ĠAlly": 7512,
      "Ġtuck": 7513,
      "Ġconnected": 7514,
      "Ġtar": 7515,
      "Ġpuzzled": 7516,
      "acle": 7517,
      "âĤ¬,": 7518,
      "ĠGreen": 7519,
      "Ġaccomplished": 7520,
      "Ġdamaged": 7521,
      "Ġnoodles": 7522,
      "ino": 7523,
      "Ġbuses": 7524,
      "Ġcrossing": 7525,
      "Ġanger": 7526,
      "Ġbreathing": 7527,
      "Ġlicking": 7528,
      "Ġbehavior": 7529,
      "Ġroars": 7530,
      "Ġseveral": 7531,
      "Ġtying": 7532,
      "Ġshrug": 7533,
      "Ġshovels": 7534,
      "Ġresponsib": 7535,
      "Ġhundred": 7536,
      "Ġbracelets": 7537,
      "Ġsurrendered": 7538,
      "ĠPippa": 7539,
      "Ġrisks": 7540,
      "Ġfinishing": 7541,
      "Ġfleas": 7542,
      "Ġtoward": 7543,
      "Ġsurfing": 7544,
      "ÅĵPlease": 7545,
      "Ġdespite": 7546,
      "Ġencount": 7547,
      "ĠSpidey": 7548,
      "Ġdesp": 7549,
      "Ġstreamers": 7550,
      "Ġhairdress": 7551,
      "Ġhumming": 7552,
      "Ġlending": 7553,
      "Ġdefin": 7554,
      "lves": 7555,
      "itting": 7556,
      "byes": 7557,
      "ĠTime": 7558,
      "Ġsupported": 7559,
      "Ġshady": 7560,
      "Ġoysters": 7561,
      "Ġcleaner": 7562,
      "Ġquieter": 7563,
      "Ġawoke": 7564,
      "Vroom": 7565,
      "Ġgoodbyes": 7566,
      "Ġwhose": 7567,
      "ÅĵOf": 7568,
      "Ġluckily": 7569,
      "Ġignoring": 7570,
      "Ġstitches": 7571,
      "Ġrainy": 7572,
      "ĠHel": 7573,
      "isions": 7574,
      "Ġrather": 7575,
      "eling": 7576,
      "Take": 7577,
      "Ġtablet": 7578,
      "Ġponies": 7579,
      "Ġedges": 7580,
      "ĠJonny": 7581,
      "Ġcuddles": 7582,
      "erk": 7583,
      "Ġfantastic": 7584,
      "dding": 7585,
      "ĠEliz": 7586,
      "unity": 7587,
      "via": 7588,
      "ĠAg": 7589,
      "hel": 7590,
      "Ġcloudy": 7591,
      "Ġslither": 7592,
      "Ġfrowns": 7593,
      "Surprise": 7594,
      "Ġhanding": 7595,
      "Ġfinal": 7596,
      "Ġsnowflakes": 7597,
      "ĠBecky": 7598,
      "ĠPretty": 7599,
      "ppies": 7600,
      "Ġsmal": 7601,
      "ĠWally": 7602,
      "Ġsped": 7603,
      "Ġdrown": 7604,
      "Ġelbow": 7605,
      "Ġhairdresser": 7606,
      "Ġcotton": 7607,
      "Ġthorns": 7608,
      "ĠWil": 7609,
      "Ġdefinitely": 7610,
      "rac": 7611,
      "Ġrains": 7612,
      "Ġcoral": 7613,
      "Ġfocus": 7614,
      "ĠAuntie": 7615,
      "Ġgesture": 7616,
      "ĠAny": 7617,
      "Ġkings": 7618,
      "Ġsurv": 7619,
      "Ġsmallest": 7620,
      "In": 7621,
      "Ġsy": 7622,
      "Ġwisely": 7623,
      "ÅĵNow": 7624,
      "Ġreminding": 7625,
      "Ġcorrectly": 7626,
      "ĠX": 7627,
      "Ġvines": 7628,
      "ĠBo": 7629,
      "Ġdecisions": 7630,
      "Ġdriveway": 7631,
      "onnie": 7632,
      "ening": 7633,
      "ĠJaney": 7634,
      "ecrow": 7635,
      "Ġpeeled": 7636,
      "Ġnewfound": 7637,
      "Ġsqueaked": 7638,
      "ĠLuc": 7639,
      "Ġchopped": 7640,
      "Ġstudent": 7641,
      "Ġgranddaughter": 7642,
      "Ġsharks": 7643,
      "Ġsnort": 7644,
      "Ġwarri": 7645,
      "ĠKelly": 7646,
      "Ġgrandson": 7647,
      "ĠRain": 7648,
      "Ġsymbols": 7649,
      "Ġaf": 7650,
      "Ġweeds": 7651,
      "Mr": 7652,
      "ĠMother": 7653,
      "Ġsimply": 7654,
      "Ġfishes": 7655,
      "Ġwhir": 7656,
      "ĠKevin": 7657,
      "ĠFroggy": 7658,
      "Ġbandages": 7659,
      "Ġwobble": 7660,
      "line": 7661,
      "onse": 7662,
      "Ġresponse": 7663,
      "Ġnasty": 7664,
      "Ġexcept": 7665,
      "Ġexercises": 7666,
      "Ġstopping": 7667,
      "steps": 7668,
      "Ġoccas": 7669,
      "Ġbanged": 7670,
      "Ġexperien": 7671,
      "Ġafar": 7672,
      "Ġdarl": 7673,
      "Ġinspired": 7674,
      "Ġdarlings": 7675,
      "father": 7676,
      "Ġtravels": 7677,
      "Ġtipped": 7678,
      "Ġdisturbing": 7679,
      "Ġfills": 7680,
      "ĠPepper": 7681,
      "Ġlent": 7682,
      "Ġni": 7683,
      "oger": 7684,
      "Ġflipped": 7685,
      "ÅĵHey": 7686,
      "Ġfootsteps": 7687,
      "worm": 7688,
      "ĠWelcome": 7689,
      "Ġpedaled": 7690,
      "Ġsheets": 7691,
      "Ġbirdhouse": 7692,
      "ĠDaniel": 7693,
      "Ġwindowsill": 7694,
      "Ġspits": 7695,
      "Ġtravelling": 7696,
      "Ġships": 7697,
      "Ġpresented": 7698,
      "Ġconvinc": 7699,
      "abelle": 7700,
      "ĠJax": 7701,
      "Ġscarecrow": 7702,
      "ms": 7703,
      "Ġaddress": 7704,
      "sol": 7705,
      "Ġpunishment": 7706,
      "Ġapologised": 7707,
      "Em": 7708,
      "mered": 7709,
      "Ġplanting": 7710,
      "ĠExcitedly": 7711,
      "Ġantic": 7712,
      "Ġforests": 7713,
      "Ġchocolates": 7714,
      "Ġsurfboard": 7715,
      "Ġcongratulated": 7716,
      "bur": 7717,
      "ĠSe": 7718,
      "ĠDory": 7719,
      "ddie": 7720,
      "ĠBounce": 7721,
      "Ġattack": 7722,
      "Ġarranged": 7723,
      "Ġreassured": 7724,
      "Ġbelieving": 7725,
      "Ġtrotted": 7726,
      "ĠElle": 7727,
      "Ġreunited": 7728,
      "andas": 7729,
      "Ġla": 7730,
      "Ġmarve": 7731,
      "ĠFeeling": 7732,
      "Ġnodding": 7733,
      "Ġencouragement": 7734,
      "Ġcheers": 7735,
      "Ġlies": 7736,
      "Ġimages": 7737,
      "Ġpoppies": 7738,
      "action": 7739,
      "ails": 7740,
      "Ġreapp": 7741,
      "Ġcampfire": 7742,
      "Ġbusiness": 7743,
      "Ġclerk": 7744,
      "Ġsuits": 7745,
      "Ġtarget": 7746,
      "ooky": 7747,
      "Ġsails": 7748,
      "Ġmagnif": 7749,
      "ĠSplash": 7750,
      "issa": 7751,
      "ĠJoan": 7752,
      "ĠFlo": 7753,
      "Ġofficers": 7754,
      "ĠFighting": 7755,
      "Ġterrified": 7756,
      "Ġbackpacks": 7757,
      "Ġcovering": 7758,
      "utter": 7759,
      "ĠBow": 7760,
      "Ġknots": 7761,
      "Ġactivity": 7762,
      "Beep": 7763,
      "inkle": 7764,
      "Ġyelped": 7765,
      "Ġgrip": 7766,
      "Ġsurprising": 7767,
      "Ġwrinkled": 7768,
      "Ġsmelling": 7769,
      "ĠOther": 7770,
      "Ġexpert": 7771,
      "gies": 7772,
      "Ġmasterpiece": 7773,
      "Ġdep": 7774,
      "otte": 7775,
      "ĠSnowman": 7776,
      "Ġchanges": 7777,
      "Ġgener": 7778,
      "Ġconcert": 7779,
      "Ġmood": 7780,
      "ĠWoo": 7781,
      "Ġchilly": 7782,
      "ĠStan": 7783,
      "Ġspills": 7784,
      "ĠOkay": 7785,
      "Ġspeeding": 7786,
      "lph": 7787,
      "Ġtesting": 7788,
      "Ġtasting": 7789,
      "Ġpleaded": 7790,
      "Ġsniffing": 7791,
      "Ġbraver": 7792,
      "Ġcomforting": 7793,
      "Ġdelayed": 7794,
      "Ġgears": 7795,
      "ĠStartled": 7796,
      "ĠPhil": 7797,
      "ĠDuck": 7798,
      "Ġcalmly": 7799,
      "asha": 7800,
      "Ġlabels": 7801,
      "Ġdisc": 7802,
      "Ġmermaid": 7803,
      "Ġsuggestion": 7804,
      "Ġsens": 7805,
      "ĠTry": 7806,
      "ĠElly": 7807,
      "ĠAmanda": 7808,
      "acles": 7809,
      "Ġdiscussing": 7810,
      "Ġjars": 7811,
      "Ġspies": 7812,
      "Ġbelongings": 7813,
      "Ġmischie": 7814,
      "ĠQuackers": 7815,
      "Ġworrying": 7816,
      "Ġmagazines": 7817,
      "Ġbothering": 7818,
      "Ġcrowns": 7819,
      "Ġartwork": 7820,
      "Ġunderstands": 7821,
      "Ġdisplayed": 7822,
      "Ġmischievous": 7823,
      "Wh": 7824,
      "Ġpuck": 7825,
      "Ġefforts": 7826,
      "pen": 7827,
      "Ġadmiration": 7828,
      "rier": 7829,
      "Ġfoxes": 7830,
      "Ġburying": 7831,
      "screen": 7832,
      "emma": 7833,
      "Ġheight": 7834,
      "Ġunfortunately": 7835,
      "Mandy": 7836,
      "Ġsav": 7837,
      "Ġrefuse": 7838,
      "Ġseller": 7839,
      "ĠJean": 7840,
      "Ġbaskets": 7841,
      "ĠOutside": 7842,
      "Ġtoolbox": 7843,
      "ighing": 7844,
      "Ġbuddy": 7845,
      "Ġund": 7846,
      "Ġalthough": 7847,
      "Ġbitten": 7848,
      "Ġaware": 7849,
      "Ġtowns": 7850,
      "Ġexperienced": 7851,
      "Ġboil": 7852,
      "Ġdecl": 7853,
      "inted": 7854,
      "ĠCharlotte": 7855,
      "Ġhoo": 7856,
      "Teddy": 7857,
      "vroom": 7858,
      "Ġbless": 7859,
      "Ġdragonfly": 7860,
      "arrow": 7861,
      "Ġvehicles": 7862,
      "wise": 7863,
      "Ġpackages": 7864,
      "what": 7865,
      "bling": 7866,
      "Ġsolving": 7867,
      "Ġdump": 7868,
      "ager": 7869,
      "Ġpandas": 7870,
      "ats": 7871,
      "ugging": 7872,
      "Ġannoyed": 7873,
      "Ġtumbled": 7874,
      "Ġmomma": 7875,
      "Ġmemb": 7876,
      "ipes": 7877,
      "ĠNancy": 7878,
      "ĠRoger": 7879,
      "aturday": 7880,
      "Ġmembers": 7881,
      "Ġseashells": 7882,
      "ĠSnowball": 7883,
      "ÅĵThe": 7884,
      "Ġfires": 7885,
      "Ġwarmly": 7886,
      "ĠSaturday": 7887,
      "aint": 7888,
      "vels": 7889,
      "Ġnibbled": 7890,
      "All": 7891,
      "bell": 7892,
      "Jen": 7893,
      "Ġsunscreen": 7894,
      "Ġwealth": 7895,
      "Ġtroubles": 7896,
      "Ġpeas": 7897,
      "Ġtreated": 7898,
      "ĠSw": 7899,
      "ĠFrankie": 7900,
      "Ġsquaw": 7901,
      "Ġrotting": 7902,
      "Ġscent": 7903,
      "Ġmaterial": 7904,
      "aver": 7905,
      "ench": 7906,
      "ÅĵSure": 7907,
      "ĠTy": 7908,
      "Ġgazing": 7909,
      "ĠLina": 7910,
      "ĠFort": 7911,
      "Ġconqu": 7912,
      "ieve": 7913,
      "Ġinsisting": 7914,
      "Ġuntied": 7915,
      "ĠSpe": 7916,
      "ĠPatty": 7917,
      "Ġdisobey": 7918,
      "Ġprayers": 7919,
      "Ġenviron": 7920,
      "Joey": 7921,
      "Ġcoach": 7922,
      "Ġparted": 7923,
      "Ġconversation": 7924,
      "opper": 7925,
      "Ġcollap": 7926,
      "ĠElsa": 7927,
      "Ġencountered": 7928,
      "Ġjoins": 7929,
      "Ġloops": 7930,
      "Ġraces": 7931,
      "Ġsewed": 7932,
      "gers": 7933,
      "Ġsill": 7934,
      "Ġteachers": 7935,
      "Ġenvironment": 7936,
      "Ġscurrying": 7937,
      "Ġwhispering": 7938,
      "Ġjoked": 7939,
      "Ġargum": 7940,
      "Quick": 7941,
      "Ġpurpose": 7942,
      "Ġtilted": 7943,
      "tem": 7944,
      "ĠSasha": 7945,
      "Ġstored": 7946,
      "Ġorders": 7947,
      "Dear": 7948,
      "Ġloses": 7949,
      "aps": 7950,
      "Ġexch": 7951,
      "Ġhoops": 7952,
      "Ġgenie": 7953,
      "Ġcowboy": 7954,
      "gar": 7955,
      "ĠGus": 7956,
      "ĠFortunately": 7957,
      "ĠTammy": 7958,
      "ppa": 7959,
      "Ġspooky": 7960,
      "airy": 7961,
      "order": 7962,
      "Ġpermitted": 7963,
      "ĠBri": 7964,
      "Get": 7965,
      "Goodnight": 7966,
      "Ġtweet": 7967,
      "Ġaim": 7968,
      "ongo": 7969,
      "Sarah": 7970,
      "Ġdiamonds": 7971,
      "Ġtype": 7972,
      "iscuit": 7973,
      "ĠEddie": 7974,
      "Ġscram": 7975,
      "Ġpupils": 7976,
      "Ġanticip": 7977,
      "ĠHelen": 7978,
      "ĠAva": 7979,
      "Ġglittering": 7980,
      "Ġdrift": 7981,
      "Ġtrans": 7982,
      "Ġqueens": 7983,
      "Ġturtles": 7984,
      "Ġnearest": 7985,
      "illiam": 7986,
      "Ġbeaming": 7987,
      "Ġends": 7988,
      "Ġtubes": 7989,
      "Ġmaker": 7990,
      "Ġservant": 7991,
      "ÅĵSee": 7992,
      "ĠAna": 7993,
      "Ġfins": 7994,
      "Ġwhimp": 7995,
      "ĠRudy": 7996,
      "Ġvisitors": 7997,
      "Ġfilms": 7998,
      "ering": 7999,
      "Ġdonkey": 8000,
      "Ġspells": 8001,
      "Ġopport": 8002,
      "ĠEric": 8003,
      "Ġuntie": 8004,
      "Ġcleared": 8005,
      "Ġstroke": 8006,
      "ĠStitch": 8007,
      "Ġtapping": 8008,
      "ollen": 8009,
      "Ġoppos": 8010,
      "Ġwasting": 8011,
      "ĠAnt": 8012,
      "Ġcustomers": 8013,
      "Ġnurses": 8014,
      "ĠHold": 8015,
      "usty": 8016,
      "Ġhunters": 8017,
      "ĠLy": 8018,
      "Ġconvinced": 8019,
      "Ġswollen": 8020,
      "ĠSeeing": 8021,
      "Ġwounds": 8022,
      "Ġger": 8023,
      "Ġgoats": 8024,
      "Ġsweaty": 8025,
      "Ġdressing": 8026,
      "Ġslowed": 8027,
      "ĠSpeedy": 8028,
      "ĠPoor": 8029,
      "Ġdeclared": 8030,
      "Ġexamining": 8031,
      "orter": 8032,
      "elope": 8033,
      "ances": 8034,
      "nded": 8035,
      "Ġopposite": 8036,
      "ilities": 8037,
      "Ġcharacters": 8038,
      "sm": 8039,
      "ĠSk": 8040,
      "igger": 8041,
      "ĠChe": 8042,
      "Ġfailed": 8043,
      "Ġshall": 8044,
      "Tw": 8045,
      "Ġtidied": 8046,
      "Ġtransf": 8047,
      "Ġgrandfather": 8048,
      "itive": 8049,
      "Ġwarrior": 8050,
      "ĠElsie": 8051,
      "ĠLi": 8052,
      "ĠFinny": 8053,
      "Ġsternly": 8054,
      "Ġgoodies": 8055,
      "ĠTerry": 8056,
      "ĠMin": 8057,
      "ĠSpring": 8058,
      "Ġguessing": 8059,
      "Ġrobb": 8060,
      "Ġyoungest": 8061,
      "Ġscratching": 8062,
      "Leave": 8063,
      "Ġpeep": 8064,
      "Ġforgiveness": 8065,
      "ĠTaking": 8066,
      "Ġseagulls": 8067,
      "racted": 8068,
      "Ġinchworm": 8069,
      "Ġbeeped": 8070,
      "ĠLion": 8071,
      "Ġmeowing": 8072,
      "Ġrescuing": 8073,
      "tempt": 8074,
      "ĠWilliam": 8075,
      "Ġthanking": 8076,
      "Ġattempt": 8077,
      "ĠYouÃ¢": 8078,
      "Ġquestioned": 8079,
      "Ġdripping": 8080,
      "Ġscrambled": 8081,
      "Ġbou": 8082,
      "Ġtires": 8083,
      "Ġbouqu": 8084,
      "Ġgrat": 8085,
      "Ġactive": 8086,
      "Ġstall": 8087,
      "Ġform": 8088,
      "ĠBongo": 8089,
      "Ġanticipation": 8090,
      "rily": 8091,
      "Ġpicnics": 8092,
      "Ġnibble": 8093,
      "Ġaisle": 8094,
      "Ġblond": 8095,
      "Ġfloors": 8096,
      "Ġresponded": 8097,
      "Ġresponsibility": 8098,
      "Ġshin": 8099,
      "Ġsmashed": 8100,
      "Ġattacked": 8101,
      "Ġforce": 8102,
      "Ġexplains": 8103,
      "ĠIzzy": 8104,
      "Ġveg": 8105,
      "Ġknocking": 8106,
      "Ġemerged": 8107,
      "Ġobeyed": 8108,
      "Ġdiscoveries": 8109,
      "Ġlipstick": 8110,
      "Ġting": 8111,
      "ĠOli": 8112,
      "Ġvibr": 8113,
      "Ġrely": 8114,
      "Ġgratitude": 8115,
      "covered": 8116,
      "ĠBeh": 8117,
      "Stay": 8118,
      "Tr": 8119,
      "Ġrays": 8120,
      "Ġzooms": 8121,
      "Ġdecoration": 8122,
      "Ġcharge": 8123,
      "Ġclassmates": 8124,
      "An": 8125,
      "llow": 8126,
      "Ġmanners": 8127,
      "Any": 8128,
      "ĠGrand": 8129,
      "Ġsprout": 8130,
      "Ġsnug": 8131,
      "Ġvisits": 8132,
      "Ġsigning": 8133,
      "ĠJason": 8134,
      "Ġspy": 8135,
      "Ġaeroplanes": 8136,
      "Ġsoot": 8137,
      "ĠgirlÃ¢": 8138,
      "Ġtwists": 8139,
      "Ġsurvive": 8140,
      "acie": 8141,
      "becca": 8142,
      "ÅĵWho": 8143,
      "Ġinstantly": 8144,
      "munk": 8145,
      "Always": 8146,
      "Ġloc": 8147,
      "ippers": 8148,
      "ĠPeppa": 8149,
      "Ġwiggly": 8150,
      "ĠAmber": 8151,
      "uel": 8152,
      "ĠWin": 8153,
      "Ġseals": 8154,
      "Ġbreaths": 8155,
      "yl": 8156,
      "ĠTessa": 8157,
      "Ġunwr": 8158,
      "Ġramp": 8159,
      "ĠEver": 8160,
      "Ġrumbling": 8161,
      "Ġbuckled": 8162,
      "Ġstumble": 8163,
      "Ġbrightest": 8164,
      "Ġhen": 8165,
      "umbling": 8166,
      "Ġshrunk": 8167,
      "Ġmunched": 8168,
      "Ġcons": 8169,
      "Ġbeeh": 8170,
      "Ġincreasing": 8171,
      "Ġshimmering": 8172,
      "Ġmanager": 8173,
      "ĠChick": 8174,
      "athan": 8175,
      "Ġpurrs": 8176,
      "ĠRebecca": 8177,
      "idence": 8178,
      "Ġdoorbell": 8179,
      "Ġflaps": 8180,
      "Ġearned": 8181,
      "ĠPenelope": 8182,
      "ker": 8183,
      "Ġgro": 8184,
      "ching": 8185,
      "udged": 8186,
      "Ġmovements": 8187,
      "Ġlowered": 8188,
      "ĠBobbie": 8189,
      "ĠCrabby": 8190,
      "Ġswaying": 8191
    },
    "merges": [
      [
        "Ġ",
        "t"
      ],
      [
        "Ġ",
        "a"
      ],
      [
        "h",
        "e"
      ],
      [
        "Ġ",
        "s"
      ],
      [
        "Ġ",
        "w"
      ],
      [
        "n",
        "d"
      ],
      [
        "Ġt",
        "h"
      ],
      [
        "e",
        "d"
      ],
      [
        "Ġ",
        "b"
      ],
      [
        "Ġa",
        "nd"
      ],
      [
        "i",
        "n"
      ],
      [
        "Ġ",
        "h"
      ],
      [
        "Ġt",
        "o"
      ],
      [
        "e",
        "r"
      ],
      [
        "Ġw",
        "a"
      ],
      [
        "Ġ",
        "f"
      ],
      [
        "i",
        "t"
      ],
      [
        "Ġ",
        "l"
      ],
      [
        "Ġ",
        "m"
      ],
      [
        "a",
        "r"
      ],
      [
        "Ġ",
        "T"
      ],
      [
        "Ġ",
        "c"
      ],
      [
        "Ġ",
        "d"
      ],
      [
        "o",
        "u"
      ],
      [
        "Ġ",
        "he"
      ],
      [
        "Ġ",
        "p"
      ],
      [
        "o",
        "m"
      ],
      [
        "Ġwa",
        "s"
      ],
      [
        "i",
        "l"
      ],
      [
        "Ġ",
        "o"
      ],
      [
        "e",
        "n"
      ],
      [
        "in",
        "g"
      ],
      [
        "a",
        "y"
      ],
      [
        "Ġ",
        "S"
      ],
      [
        "r",
        "e"
      ],
      [
        "a",
        "t"
      ],
      [
        "Ġ",
        "g"
      ],
      [
        "i",
        "s"
      ],
      [
        "i",
        "d"
      ],
      [
        "Ġ",
        "n"
      ],
      [
        "a",
        "d"
      ],
      [
        "Ġt",
        "he"
      ],
      [
        "i",
        "m"
      ],
      [
        "l",
        "e"
      ],
      [
        "Ġb",
        "e"
      ],
      [
        "a",
        "n"
      ],
      [
        "o",
        "r"
      ],
      [
        "Ġs",
        "a"
      ],
      [
        "o",
        "n"
      ],
      [
        "o",
        "w"
      ],
      [
        "l",
        "l"
      ],
      [
        "Ġ",
        "it"
      ],
      [
        "Ġ",
        "H"
      ],
      [
        "o",
        "t"
      ],
      [
        "Ġ",
        "\""
      ],
      [
        "v",
        "er"
      ],
      [
        "ĠT",
        "he"
      ],
      [
        "e",
        "t"
      ],
      [
        "Ġhe",
        "r"
      ],
      [
        "ĠS",
        "he"
      ],
      [
        "ĠH",
        "e"
      ],
      [
        "a",
        "c"
      ],
      [
        "Ġ",
        "y"
      ],
      [
        "o",
        "o"
      ],
      [
        "ĠThe",
        "y"
      ],
      [
        "Ġ",
        "B"
      ],
      [
        "ĠT",
        "h"
      ],
      [
        "Ġ",
        "in"
      ],
      [
        "e",
        "s"
      ],
      [
        "u",
        "t"
      ],
      [
        "i",
        "g"
      ],
      [
        "Ġ",
        "r"
      ],
      [
        "Ġ",
        "e"
      ],
      [
        "Ġ",
        "L"
      ],
      [
        "Ġ",
        "u"
      ],
      [
        "v",
        "e"
      ],
      [
        "Ġs",
        "he"
      ],
      [
        "a",
        "s"
      ],
      [
        "Ġsa",
        "id"
      ],
      [
        "il",
        "y"
      ],
      [
        "i",
        "r"
      ],
      [
        "Ġo",
        "n"
      ],
      [
        "Ġ",
        "I"
      ],
      [
        "a",
        "m"
      ],
      [
        "Ġo",
        "f"
      ],
      [
        "k",
        "ed"
      ],
      [
        "i",
        "e"
      ],
      [
        "l",
        "d"
      ],
      [
        "Ġs",
        "t"
      ],
      [
        "it",
        "h"
      ],
      [
        "i",
        "c"
      ],
      [
        "Ġw",
        "ith"
      ],
      [
        "O",
        "n"
      ],
      [
        "il",
        "l"
      ],
      [
        "ĠL",
        "ily"
      ],
      [
        "k",
        "e"
      ],
      [
        "Ġs",
        "o"
      ],
      [
        "Ġh",
        "is"
      ],
      [
        "Ġp",
        "l"
      ],
      [
        "ver",
        "y"
      ],
      [
        "Ġh",
        "a"
      ],
      [
        "Ġd",
        "ay"
      ],
      [
        "Ġth",
        "at"
      ],
      [
        "n",
        "t"
      ],
      [
        "'",
        "s"
      ],
      [
        "Ġh",
        "o"
      ],
      [
        "Ġ",
        "A"
      ],
      [
        "t",
        "le"
      ],
      [
        "Ġu",
        "p"
      ],
      [
        "Ġy",
        "e"
      ],
      [
        "Ġpl",
        "ay"
      ],
      [
        "Ġh",
        "ad"
      ],
      [
        "Ġthe",
        "y"
      ],
      [
        "Ġf",
        "r"
      ],
      [
        "s",
        "t"
      ],
      [
        "e",
        "l"
      ],
      [
        "Ġm",
        "om"
      ],
      [
        "en",
        "t"
      ],
      [
        "Ġf",
        "or"
      ],
      [
        "ou",
        "nd"
      ],
      [
        "Ġ",
        "M"
      ],
      [
        "im",
        "e"
      ],
      [
        "u",
        "n"
      ],
      [
        "ou",
        "ld"
      ],
      [
        "m",
        "y"
      ],
      [
        "Ġg",
        "r"
      ],
      [
        "t",
        "er"
      ],
      [
        "p",
        "p"
      ],
      [
        "Ġl",
        "i"
      ],
      [
        "Ġs",
        "h"
      ],
      [
        "Ġwa",
        "nt"
      ],
      [
        "Ġa",
        "n"
      ],
      [
        "Ġm",
        "e"
      ],
      [
        "ou",
        "t"
      ],
      [
        "he",
        "r"
      ],
      [
        "Ġw",
        "h"
      ],
      [
        "c",
        "e"
      ],
      [
        "o",
        "g"
      ],
      [
        "Ġn",
        "ot"
      ],
      [
        "om",
        "e"
      ],
      [
        "Ġ",
        "very"
      ],
      [
        "Ġ",
        "Y"
      ],
      [
        "Ġs",
        "m"
      ],
      [
        "it",
        "tle"
      ],
      [
        "a",
        "ll"
      ],
      [
        "Ġt",
        "ime"
      ],
      [
        "a",
        "l"
      ],
      [
        "Ġl",
        "ittle"
      ],
      [
        "Ġ",
        "k"
      ],
      [
        "c",
        "h"
      ],
      [
        "Ġh",
        "im"
      ],
      [
        "Ġn",
        "e"
      ],
      [
        "Ġ",
        "re"
      ],
      [
        "ĠI",
        "t"
      ],
      [
        "Ġb",
        "ig"
      ],
      [
        "h",
        "t"
      ],
      [
        "Ġb",
        "ut"
      ],
      [
        "l",
        "y"
      ],
      [
        "oo",
        "k"
      ],
      [
        "Ġsa",
        "w"
      ],
      [
        ".",
        "\""
      ],
      [
        "Ġth",
        "ar"
      ],
      [
        "s",
        "e"
      ],
      [
        "r",
        "y"
      ],
      [
        "Ġa",
        "s"
      ],
      [
        "ac",
        "k"
      ],
      [
        "a",
        "in"
      ],
      [
        "id",
        "e"
      ],
      [
        "On",
        "e"
      ],
      [
        "'",
        "t"
      ],
      [
        "er",
        "e"
      ],
      [
        "Ġb",
        "r"
      ],
      [
        "!",
        "\""
      ],
      [
        "u",
        "g"
      ],
      [
        "ow",
        "n"
      ],
      [
        "v",
        "ed"
      ],
      [
        "ĠT",
        "im"
      ],
      [
        "Ġw",
        "ere"
      ],
      [
        "ar",
        "t"
      ],
      [
        "On",
        "ce"
      ],
      [
        "o",
        "re"
      ],
      [
        "Ġ",
        "W"
      ],
      [
        "as",
        "s"
      ],
      [
        "Ġl",
        "o"
      ],
      [
        "Ġ",
        "One"
      ],
      [
        "ie",
        "nd"
      ],
      [
        "Ġfr",
        "iend"
      ],
      [
        "Ġd",
        "o"
      ],
      [
        "u",
        "r"
      ],
      [
        "Ġs",
        "e"
      ],
      [
        "u",
        "m"
      ],
      [
        "Ġto",
        "o"
      ],
      [
        "Ġg",
        "o"
      ],
      [
        "Ġ",
        "J"
      ],
      [
        "i",
        "f"
      ],
      [
        "Ġ",
        "j"
      ],
      [
        "ar",
        "d"
      ],
      [
        "Ġwant",
        "ed"
      ],
      [
        "Ġd",
        "own"
      ],
      [
        "Ġup",
        "on"
      ],
      [
        "l",
        "ow"
      ],
      [
        "e",
        "c"
      ],
      [
        "Ġy",
        "ou"
      ],
      [
        "Ġthe",
        "m"
      ],
      [
        "Ġ",
        "out"
      ],
      [
        "Ġm",
        "an"
      ],
      [
        "a",
        "ve"
      ],
      [
        "ill",
        "ed"
      ],
      [
        "a",
        "g"
      ],
      [
        "Ġa",
        "t"
      ],
      [
        "ar",
        "n"
      ],
      [
        "i",
        "nd"
      ],
      [
        "Ġthe",
        "ir"
      ],
      [
        "Ġs",
        "p"
      ],
      [
        "w",
        "ay"
      ],
      [
        "Ġsm",
        "il"
      ],
      [
        "Ġd",
        "id"
      ],
      [
        "u",
        "l"
      ],
      [
        "Ġc",
        "ould"
      ],
      [
        "ĠT",
        "om"
      ],
      [
        "ĠB",
        "en"
      ],
      [
        "Ġc",
        "ar"
      ],
      [
        "ic",
        "e"
      ],
      [
        "Ġgr",
        "og"
      ],
      [
        "Ġha",
        "ve"
      ],
      [
        "c",
        "k"
      ],
      [
        "f",
        "illed"
      ],
      [
        "ass",
        "ie"
      ],
      [
        "Ġl",
        "assie"
      ],
      [
        "a",
        "ke"
      ],
      [
        "he",
        "n"
      ],
      [
        "Ġn",
        "o"
      ],
      [
        "Ġe",
        "x"
      ],
      [
        "he",
        "d"
      ],
      [
        "le",
        "s"
      ],
      [
        "Ġa",
        "r"
      ],
      [
        "Ġw",
        "ent"
      ],
      [
        "Ġc",
        "an"
      ],
      [
        "ĠY",
        "e"
      ],
      [
        "r",
        "i"
      ],
      [
        "e",
        "ll"
      ],
      [
        "l",
        "p"
      ],
      [
        "h",
        "ing"
      ],
      [
        "Ġc",
        "o"
      ],
      [
        "d",
        "y"
      ],
      [
        "oo",
        "d"
      ],
      [
        "?",
        "\""
      ],
      [
        "Ġfriend",
        "s"
      ],
      [
        "Ġn",
        "am"
      ],
      [
        "ĠB",
        "ut"
      ],
      [
        "Ġa",
        "ll"
      ],
      [
        "Ġhe",
        "lp"
      ],
      [
        "Ġk",
        "n"
      ],
      [
        "Ġ",
        "F"
      ],
      [
        "ig",
        "ht"
      ],
      [
        "ar",
        "k"
      ],
      [
        "Ġb",
        "ack"
      ],
      [
        "p",
        "l"
      ],
      [
        "Ġs",
        "ay"
      ],
      [
        "Ġ",
        "D"
      ],
      [
        "as",
        "t"
      ],
      [
        "Ġf",
        "un"
      ],
      [
        "Ġc",
        "l"
      ],
      [
        "Ġha",
        "pp"
      ],
      [
        "on",
        "e"
      ],
      [
        "ac",
        "e"
      ],
      [
        "Ġl",
        "e"
      ],
      [
        "s",
        "ide"
      ],
      [
        "Ġs",
        "c"
      ],
      [
        "ĠTim",
        "my"
      ],
      [
        "Ġsmil",
        "ed"
      ],
      [
        "Ġnam",
        "ed"
      ],
      [
        "Ġa",
        "l"
      ],
      [
        "ou",
        "g"
      ],
      [
        "Ġlo",
        "ved"
      ],
      [
        "e",
        "ad"
      ],
      [
        "el",
        "t"
      ],
      [
        "nd",
        "er"
      ],
      [
        "Ġas",
        "ked"
      ],
      [
        "is",
        "t"
      ],
      [
        "Ġto",
        "y"
      ],
      [
        "Ġl",
        "oo"
      ],
      [
        "Ġli",
        "ke"
      ],
      [
        "Ġr",
        "o"
      ],
      [
        "Ġf",
        "elt"
      ],
      [
        "Ġloo",
        "ked"
      ],
      [
        "Ġp",
        "r"
      ],
      [
        "a",
        "b"
      ],
      [
        "Ġs",
        "ome"
      ],
      [
        "Ġar",
        "ound"
      ],
      [
        "Ġse",
        "e"
      ],
      [
        "am",
        "e"
      ],
      [
        "Ġl",
        "ad"
      ],
      [
        "om",
        "et"
      ],
      [
        "er",
        "s"
      ],
      [
        "ĠB",
        "l"
      ],
      [
        "Ġb",
        "ir"
      ],
      [
        "Ġm",
        "en"
      ],
      [
        "r",
        "r"
      ],
      [
        "Ġw",
        "ould"
      ],
      [
        "ĠY",
        "o"
      ],
      [
        "Ġw",
        "e"
      ],
      [
        "f",
        "ul"
      ],
      [
        "Ġst",
        "art"
      ],
      [
        "u",
        "re"
      ],
      [
        "Ġb",
        "arn"
      ],
      [
        "â",
        "Ĥ"
      ],
      [
        "âĤ",
        "¬"
      ],
      [
        "g",
        "et"
      ],
      [
        "Ġbir",
        "d"
      ],
      [
        "Ġs",
        "omet"
      ],
      [
        "a",
        "v"
      ],
      [
        "Ġbarn",
        "ac"
      ],
      [
        "ing",
        "s"
      ],
      [
        "Ġa",
        "g"
      ],
      [
        "Ġw",
        "or"
      ],
      [
        "ĠW",
        "e"
      ],
      [
        "Ġwh",
        "at"
      ],
      [
        "Ġb",
        "o"
      ],
      [
        "ad",
        "e"
      ],
      [
        "Ġm",
        "ake"
      ],
      [
        "d",
        "d"
      ],
      [
        "ĠM",
        "om"
      ],
      [
        ",",
        "\""
      ],
      [
        "ou",
        "d"
      ],
      [
        "Ġr",
        "an"
      ],
      [
        "Ġb",
        "ot"
      ],
      [
        "Ġf",
        "e"
      ],
      [
        "Ġa",
        "way"
      ],
      [
        "Ġf",
        "l"
      ],
      [
        "i",
        "z"
      ],
      [
        "a",
        "nd"
      ],
      [
        "Ġsay",
        "s"
      ],
      [
        "Ġstart",
        "ed"
      ],
      [
        "o",
        "on"
      ],
      [
        "re",
        "e"
      ],
      [
        "Ã",
        "¢"
      ],
      [
        "ar",
        "ed"
      ],
      [
        "Ġ",
        "C"
      ],
      [
        "Ġm",
        "ade"
      ],
      [
        "Ġsomet",
        "hing"
      ],
      [
        "Ġto",
        "get"
      ],
      [
        "Ġtoget",
        "her"
      ],
      [
        "Ġt",
        "a"
      ],
      [
        "it",
        "ed"
      ],
      [
        "on",
        "g"
      ],
      [
        "t",
        "her"
      ],
      [
        "Ġlad",
        "dy"
      ],
      [
        "Ġp",
        "ark"
      ],
      [
        "Ġc",
        "he"
      ],
      [
        "Ġl",
        "ook"
      ],
      [
        "Ġs",
        "ad"
      ],
      [
        "Ġo",
        "ther"
      ],
      [
        "Ġne",
        "w"
      ],
      [
        "ag",
        "e"
      ],
      [
        "Ġ",
        "E"
      ],
      [
        "Ġex",
        "c"
      ],
      [
        "Ġp",
        "ut"
      ],
      [
        "Ġfr",
        "om"
      ],
      [
        "ig",
        "h"
      ],
      [
        "he",
        "s"
      ],
      [
        "u",
        "s"
      ],
      [
        "Ġh",
        "ug"
      ],
      [
        "e",
        "p"
      ],
      [
        "Ġag",
        "ain"
      ],
      [
        "Ġhapp",
        "y"
      ],
      [
        "Ġh",
        "ome"
      ],
      [
        "Ġw",
        "hen"
      ],
      [
        "Ġg",
        "ood"
      ],
      [
        "Ġwh",
        "o"
      ],
      [
        "o",
        "p"
      ],
      [
        "Ġwa",
        "l"
      ],
      [
        "Ġc",
        "h"
      ],
      [
        "Ġf",
        "ound"
      ],
      [
        "Ġthe",
        "n"
      ],
      [
        "ac",
        "h"
      ],
      [
        "Ġd",
        "ec"
      ],
      [
        "pp",
        "ed"
      ],
      [
        "ri",
        "ed"
      ],
      [
        "Ġt",
        "r"
      ],
      [
        "im",
        "b"
      ],
      [
        "u",
        "st"
      ],
      [
        "Ġg",
        "et"
      ],
      [
        "Ġa",
        "b"
      ],
      [
        "ic",
        "k"
      ],
      [
        "Ġplay",
        "ing"
      ],
      [
        "oug",
        "ht"
      ],
      [
        "a",
        "ug"
      ],
      [
        "u",
        "e"
      ],
      [
        "u",
        "ch"
      ],
      [
        "all",
        "y"
      ],
      [
        "Ġs",
        "w"
      ],
      [
        "ou",
        "s"
      ],
      [
        "n",
        "n"
      ],
      [
        "Ġth",
        "ings"
      ],
      [
        "Ġexc",
        "ited"
      ],
      [
        "t",
        "e"
      ],
      [
        "Ġli",
        "ked"
      ],
      [
        "Ġg",
        "ot"
      ],
      [
        "Ġt",
        "ell"
      ],
      [
        "id",
        "ed"
      ],
      [
        "ou",
        "r"
      ],
      [
        "u",
        "ck"
      ],
      [
        "k",
        "ing"
      ],
      [
        "Ġdec",
        "ided"
      ],
      [
        "Ġc",
        "ame"
      ],
      [
        "Ġe",
        "very"
      ],
      [
        "a",
        "p"
      ],
      [
        "Ġh",
        "at"
      ],
      [
        "Ġd",
        "og"
      ],
      [
        "Ġyou",
        "r"
      ],
      [
        "t",
        "en"
      ],
      [
        "ar",
        "a"
      ],
      [
        "ĠS",
        "am"
      ],
      [
        "Ġ",
        "v"
      ],
      [
        "k",
        "et"
      ],
      [
        "Ġsc",
        "ared"
      ],
      [
        "Ġon",
        "e"
      ],
      [
        "ou",
        "se"
      ],
      [
        "n",
        "y"
      ],
      [
        "Ġf",
        "ind"
      ],
      [
        "a",
        "x"
      ],
      [
        "Ġb",
        "l"
      ],
      [
        "i",
        "ver"
      ],
      [
        "Ġbe",
        "c"
      ],
      [
        "Ġcar",
        "e"
      ],
      [
        "Ġth",
        "an"
      ],
      [
        "Ġfe",
        "el"
      ],
      [
        "an",
        "t"
      ],
      [
        "nn",
        "a"
      ],
      [
        "Ġd",
        "ad"
      ],
      [
        "Ġ",
        "ke"
      ],
      [
        "u",
        "dd"
      ],
      [
        "om",
        "p"
      ],
      [
        "Ġw",
        "ill"
      ],
      [
        "l",
        "ing"
      ],
      [
        "o",
        "s"
      ],
      [
        "v",
        "ast"
      ],
      [
        "way",
        "s"
      ],
      [
        "ĠTh",
        "ar"
      ],
      [
        "es",
        "s"
      ],
      [
        "h",
        "at"
      ],
      [
        "in",
        "c"
      ],
      [
        "is",
        "ter"
      ],
      [
        "Ġdid",
        "n"
      ],
      [
        "b",
        "r"
      ],
      [
        "ĠM",
        "ax"
      ],
      [
        "Ġtoo",
        "k"
      ],
      [
        "Ġab",
        "out"
      ],
      [
        "oon",
        "s"
      ],
      [
        "Ġal",
        "ways"
      ],
      [
        "Ġl",
        "ot"
      ],
      [
        "Ġmom",
        "my"
      ],
      [
        "p",
        "h"
      ],
      [
        "Ġtoy",
        "s"
      ],
      [
        "Ġkn",
        "e"
      ],
      [
        "Ġp",
        "o"
      ],
      [
        "Ġp",
        "ill"
      ],
      [
        "is",
        "e"
      ],
      [
        "ĠS",
        "ara"
      ],
      [
        "iz",
        "z"
      ],
      [
        "it",
        "e"
      ],
      [
        "Ġout",
        "side"
      ],
      [
        "Ġt",
        "ree"
      ],
      [
        "c",
        "hes"
      ],
      [
        "Ġth",
        "ought"
      ],
      [
        "Ġb",
        "all"
      ],
      [
        "Ġm",
        "ore"
      ],
      [
        "ec",
        "i"
      ],
      [
        "en",
        "ed"
      ],
      [
        "Ġbot",
        "tle"
      ],
      [
        "Ġle",
        "arn"
      ],
      [
        "ĠA",
        "nna"
      ],
      [
        "Ġp",
        "re"
      ],
      [
        "ĠW",
        "hen"
      ],
      [
        "oo",
        "p"
      ],
      [
        "Ġkn",
        "ow"
      ],
      [
        "g",
        "ed"
      ],
      [
        "Ġl",
        "aug"
      ],
      [
        "Ġche",
        "st"
      ],
      [
        "Ġb",
        "low"
      ],
      [
        "eci",
        "al"
      ],
      [
        "Ġsp",
        "ecial"
      ],
      [
        "u",
        "ll"
      ],
      [
        "Ġs",
        "or"
      ],
      [
        "Ġpill",
        "age"
      ],
      [
        "Ġd",
        "r"
      ],
      [
        "o",
        "b"
      ],
      [
        "Ġc",
        "at"
      ],
      [
        "udd",
        "en"
      ],
      [
        "Ġkne",
        "w"
      ],
      [
        "Ġd",
        "ead"
      ],
      [
        "t",
        "o"
      ],
      [
        "u",
        "nder"
      ],
      [
        "i",
        "ve"
      ],
      [
        "re",
        "at"
      ],
      [
        "ver",
        "ed"
      ],
      [
        "ĠS",
        "h"
      ],
      [
        "Ġh",
        "ook"
      ],
      [
        "v",
        "y"
      ],
      [
        "Ġp",
        "ic"
      ],
      [
        "ĠH",
        "er"
      ],
      [
        "Ġr",
        "um"
      ],
      [
        "er",
        "in"
      ],
      [
        "ch",
        "or"
      ],
      [
        "Ġan",
        "chor"
      ],
      [
        "Ġan",
        "y"
      ],
      [
        "udden",
        "ly"
      ],
      [
        "f",
        "ter"
      ],
      [
        "Ġt",
[...]
