{
  "version": "1.0",
  "truncation": null,
  "padding": null,
  "added_tokens": [
    {
      "id": 0,
      "content": "<|endoftext|>",
      "single_word": false,
      "lstrip": false,
      "rstrip": false,
      "normalized": false,
      "special": true
    }
  ],
  "normalizer": null,
  "pre_tokenizer": {
    "type": "ByteLevel",
    "add_prefix_space": false,
    "trim_offsets": true,
    "use_regex": true
  },
  "post_processor": null,
  "decoder": {
    "type": "ByteLevel",
    "add_prefix_space": true,
    "trim_offsets": true,
    "use_regex": true
  },
  "model": {
    "type": "BPE",
    "dropout": null,
    "unk_token": null,
    "continuing_subword_prefix": null,
    "end_of_word_suffix": null,
    "fuse_unk": false,
    "byte_fallback": false,
    "ignore_merges": false,
    "vocab": {
      "<|endoftext|>": 0,
      "!": 1,
      "\"": 2,
      "#": 3,
      "$": 4,
      "%": 5,
      "&": 6,
      "'": 7,
      "(": 8,
      ")": 9,
      "*": 10,
      "+": 11,
      ",": 12,
      "-": 13,
      ".": 14,
      "/": 15,
      "0": 16,
      "1": 17,
      "2": 18,
      "3": 19,
      "4": 20,
      "5": 21,
      "6": 22,
      "7": 23,
      "8": 24,
      "9": 25,
      ":": 26,
      ";": 27,
      "<": 28,
      "=": 29,
      ">": 30,
      "?": 31,
      "@": 32,
      "A": 33,
      "B": 34,
      "C": 35,
      "D": 36,
      "E": 37,
      "F": 38,
      "G": 39,
      "H": 40,
      "I": 41,
      "J": 42,
      "K": 43,
      "L": 44,
      "M": 45,
      "N": 46,
      "O": 47,
      "P": 48,
      "Q": 49,
      "R": 50,
      "S": 51,
      "T": 52,
      "U": 53,
      "V": 54,
      "W": 55,
      "X": 56,
      "Y": 57,
      "Z": 58,
      "[": 59,
      "\\": 60,
      "]": 61,
      "^": 62,
      "_": 63,
      "`": 64,
      "a": 65,
      "b": 66,
      "c": 67,
      "d": 68,
      "e": 69,
      "f": 70,
      "g": 71,
      "h": 72,
      "i": 73,
      "j": 74,
      "k": 75,
      "l": 76,
      "m": 77,
      "n": 78,
      "o": 79,
      "p": 80,
      "q": 81,
      "r": 82,
      "s": 83,
      "t": 84,
      "u": 85,
      "v": 86,
      "w": 87,
      "x": 88,
      "y": 89,
      "z": 90,
      "{": 91,
      "|": 92,
      "}": 93,
      "~": 94,
      "¡": 95,
      "¢": 96,
      "£": 97,
      "¤": 98,
      "¥": 99,
      "¦": 100,
      "§": 101,
      "¨": 102,
      "©": 103,
      "ª": 104,
      "«": 105,
      "¬": 106,
      "®": 107,
      "¯": 108,
      "°": 109,
      "±": 110,
      "²": 111,
      "³": 112,
      "´": 113,
      "µ": 114,
      "¶": 115,
      "·": 116,
      "¸": 117,
      "¹": 118,
      "º": 119,
      "»": 120,
      "¼": 121,
      "½": 122,
      "¾": 123,
      "¿": 124,
      "À": 125,
      "Á": 126,
      "Â": 127,
      "Ã": 128,
      "Ä": 129,
      "Å": 130,
      "Æ": 131,
      "Ç": 132,
      "È": 133,
      "É": 134,
      "Ê": 135,
      "Ë": 136,
      "Ì": 137,
      "Í": 138,
      "Î": 139,
      "Ï": 140,
      "Ð": 141,
      "Ñ": 142,
      "Ò": 143,
      "Ó": 144,
      "Ô": 145,
      "Õ": 146,
      "Ö": 147,
      "×": 148,
      "Ø": 149,
      "Ù": 150,
      "Ú": 151,
      "Û": 152,
      "Ü": 153,
      "Ý": 154,
      "Þ": 155,
      "ß": 156,
      "à": 157,
      "á": 158,
      "â": 159,
      "ã": 160,
      "ä": 161,
      "å": 162,
      "æ": 163,
      "ç": 164,
      "è": 165,
      "é": 166,
      "ê": 167,
      "ë": 168,
      "ì": 169,
      "í": 170,
      "î": 171,
      "ï": 172,
      "ð": 173,
      "ñ": 174,
      "ò": 175,
      "ó": 176,
      "ô": 177,
      "õ": 178,
      "ö": 179,
      "÷": 180,
      "ø": 181,
      "ù": 182,
      "ú": 183,
      "û": 184,
      "ü": 185,
      "ý": 186,
      "þ": 187,
      "ÿ": 188,
      "Ā": 189,
      "ā": 190,
      "Ă": 191,
      "ă": 192,
      "Ą": 193,
      "ą": 194,
      "Ć": 195,
      "ć": 196,
      "Ĉ": 197,
      "ĉ": 198,
      "Ċ": 199,
      "ċ": 200,
      "Č": 201,
      "č": 202,
      "Ď": 203,
      "ď": 204,
      "Đ": 205,
      "đ": 206,
      "Ē": 207,
      "ē": 208,
      "Ĕ": 209,
      "ĕ": 210,
      "Ė": 211,
      "ė": 212,
      "Ę": 213,
      "ę": 214,
      "Ě": 215,
      "ě": 216,
      "Ĝ": 217,
      "ĝ": 218,
      "Ğ": 219,
      "ğ": 220,
      "Ġ": 221,
      "ġ": 222,
      "Ģ": 223,
      "ģ": 224,
      "Ĥ": 225,
      "ĥ": 226,
      "Ħ": 227,
      "ħ": 228,
      "Ĩ": 229,
      "ĩ": 230,
      "Ī": 231,
      "ī": 232,
      "Ĭ": 233,
      "ĭ": 234,
      "Į": 235,
      "į": 236,
      "İ": 237,
      "ı": 238,
      "Ĳ": 239,
      "ĳ": 240,
      "Ĵ": 241,
      "ĵ": 242,
      "Ķ": 243,
      "ķ": 244,
      "ĸ": 245,
      "Ĺ": 246,
      "ĺ": 247,
      "Ļ": 248,
      "ļ": 249,
      "Ľ": 250,
      "ľ": 251,
      "Ŀ": 252,
      "ŀ": 253,
      "Ł": 254,
      "ł": 255,
      "Ń": 256,
      "Ġt": 257,
      "Ġa": 258,
      "in": 259,
      "Ġth": 260,
      "er": 261,
      "Ġs": 262,
      "ed": 263,
      "nd": 264,
      "Ġw": 265,
      "Ġh": 266,
      "on": 267,
      "ing": 268,
      "en": 269,
      "es": 270,
      "Ġb": 271,
      "Ġc": 272,
      "ou": 273,
      "at": 274,
      "it": 275,
      "ar": 276,
      "or": 277,
      "Ġf": 278,
      "Ġm": 279,
      "Ġand": 280,
      "Ġto": 281,
      "Ġp": 282,
      "Ġd": 283,
      "Ġl": 284,
      "an": 285,
      "al": 286,
      "re": 287,
      "is": 288,
      "Ġo": 289,
      "om": 290,
      "as": 291,
      "le": 292,
      "Ġe": 293,
      "ly": 294,
      "Ġin": 295,
      "he": 296,
      "ĠT": 297,
      "ic": 298,
      "Ġn": 299,
      "ow": 300,
      "Ġthe": 301,
      "im": 302,
      "ion": 303,
      "Ġof": 304,
      "ĠS": 305,
      "id": 306,
      "Ġg": 307,
      "et": 308,
      "el": 309,
      "ent": 310,
      "ac": 311,
      "ay": 312,
      "ad": 313,
      "ver": 314,
      "il": 315,
      "Ġbe": 316,
      "Ġu": 317,
      "Ġr": 318,
      "ot": 319,
      "gh": 320,
      "ĠI": 321,
      "Ġwas": 322,
      "ir": 323,
      "st": 324,
      "Ġy": 325,
      "Ġre": 326,
      "ve": 327,
      "ĠA": 328,
      "Ġst": 329,
      "ec": 330,
      "ur": 331,
      "ut": 332,
      "Ġwh": 333,
      "Ġon": 334,
      "ith": 335,
      "am": 336,
      "ro": 337,
      "ĠB": 338,
      "Ġit": 339,
      "Ġfor": 340,
      "oo": 341,
      "Ġwith": 342,
      "Ġme": 343,
      "our": 344,
      "ĠH": 345,
      "ce": 346,
      "Ġ\"": 347,
      "ter": 348,
      "out": 349,
      "ĠTh": 350,
      "ch": 351,
      "Ġher": 352,
      "Ġhe": 353,
      "ol": 354,
      "ess": 355,
      "her": 356,
      "ul": 357,
      "Ġan": 358,
      "ri": 359,
      "ation": 360,
      "Ġthat": 361,
      "if": 362,
      "ĠM": 363,
      "ld": 364,
      "Ġal": 365,
      "pp": 366,
      "Ġex": 367,
      "Ġsa": 368,
      "ke": 369,
      "ain": 370,
      "Ġthey": 371,
      "ght": 372,
      "'s": 373,
      "est": 374,
      "ag": 375,
      "us": 376,
      "Ġcon": 377,
      "Ġshe": 378,
      "un": 379,
      "ill": 380,
      "Ġas": 381,
      "rou": 382,
      "ted": 383,
      "Ġsh": 384,
      "ĠL": 385,
      "Ġhis": 386,
      "ers": 387,
      "ĠThe": 388,
      "ould": 389,
      "os": 390,
      "ked": 391,
      "Ġne": 392,
      "Ġcom": 393,
      "um": 394,
      "ig": 395,
      "Ġtheir": 396,
      "Ġye": 397,
      "Ġch": 398,
      "ĠShe": 399,
      "ab": 400,
      "ĠThey": 401,
      "ĠHe": 402,
      "ĠW": 403,
      "Ġpl": 404,
      "Ġho": 405,
      "very": 406,
      "Ġso": 407,
      "Ġv": 408,
      "Ġha": 409,
      "Ġli": 410,
      "ne": 411,
      "ate": 412,
      "Ġup": 413,
      "ity": 414,
      "Ġle": 415,
      "em": 416,
      "ore": 417,
      "qu": 418,
      "Ġsom": 419,
      "ily": 420,
      "ist": 421,
      "ĠC": 422,
      "all": 423,
      "Ġk": 424,
      "rom": 425,
      "pl": 426,
      "--": 427,
      "Ġab": 428,
      "ep": 429,
      "nder": 430,
      "Ġhad": 431,
      "ard": 432,
      "ct": 433,
      "low": 434,
      "ant": 435,
      "ous": 436,
      "ĠO": 437,
      "ime": 438,
      "Ġday": 439,
      "Ġsu": 440,
      "Ġse": 441,
      "iz": 442,
      "ect": 443,
      "'t": 444,
      "Ġsp": 445,
      "Ġtr": 446,
      "ies": 447,
      "Ġpro": 448,
      "ĠY": 449,
      "th": 450,
      "Ġwe": 451,
      "and": 452,
      "end": 453,
      "ide": 454,
      "ind": 455,
      "ved": 456,
      "Ġj": 457,
      "arn": 458,
      "Ġor": 459,
      "own": 460,
      "Ġsaid": 461,
      "ere": 462,
      "king": 463,
      "ĠD": 464,
      "Ġat": 465,
      "Ġen": 466,
      "ĠF": 467,
      "ive": 468,
      "ight": 469,
      "ie": 470,
      "Ġbut": 471,
      "art": 472,
      "ack": 473,
      "ust": 474,
      "ial": 475,
      "Ġabout": 476,
      "tle": 477,
      "Ġwor": 478,
      "Ġnot": 479,
      "ort": 480,
      "ĠJ": 481,
      "Ġlo": 482,
      "Ġde": 483,
      "Ġyour": 484,
      "ach": 485,
      "Ġthem": 486,
      "ĠE": 487,
      "Ġint": 488,
      "ast": 489,
      "Ġun": 490,
      ".\"": 491,
      "Ġsm": 492,
      "ap": 493,
      "ass": 494,
      "av": 495,
      "Ġout": 496,
      "ure": 497,
      "ell": 498,
      "Ġhim": 499,
      "Ġfrom": 500,
      "Ġman": 501,
      "ions": 502,
      "ong": 503,
      "Ġdo": 504,
      "ĠLily": 505,
      "Ġus": 506,
      "Ġtime": 507,
      "ther": 508,
      "Ġcould": 509,
      "Ġplay": 510,
      "ile": 511,
      "op": 512,
      "one": 513,
      "Ġres": 514,
      "Ġdown": 515,
      "Ġdis": 516,
      "Ġad": 517,
      "ful": 518,
      "Ġwere": 519,
      "ice": 520,
      "ace": 521,
      "âĢ": 522,
      "ĠIt": 523,
      "Ġby": 524,
      "iv": 525,
      "ally": 526,
      "Ġim": 527,
      "ĠP": 528,
      "ook": 529,
      "Ġmom": 530,
      "my": 531,
      "age": 532,
      "ment": 533,
      "ip": 534,
      "riend": 535,
      "Ġall": 536,
      "Ġpr": 537,
      "ame": 538,
      "Ġbr": 539,
      "Ġcan": 540,
      "ge": 541,
      "hing": 542,
      "Ġcl": 543,
      "Ġour": 544,
      "Ġthar": 545,
      "ine": 546,
      "ons": 547,
      "Ġfriend": 548,
      "Ġhel": 549,
      "able": 550,
      "ood": 551,
      "Ġsomet": 552,
      "ound": 553,
      "ence": 554,
      "round": 555,
      "ings": 556,
      "Ġma": 557,
      "per": 558,
      "ĠR": 559,
      "way": 560,
      "Ġwhen": 561,
      "Ġfe": 562,
      "are": 563,
      "Ġev": 564,
      "ud": 565,
      "ĠOne": 566,
      "Ġsc": 567,
      "Ġgr": 568,
      "Ġevery": 569,
      "reat": 570,
      "act": 571,
      "od": 572,
      "ittle": 573,
      "Ġthis": 574,
      "get": 575,
      "Ġtoo": 576,
      "ue": 577,
      "ious": 578,
      "Ġother": 579,
      "uc": 580,
      "Ġlike": 581,
      "ave": 582,
      "ance": 583,
      "ry": 584,
      "Ġhelp": 585,
      "com": 586,
      "oc": 587,
      "Ġkn": 588,
      "Ġstr": 589,
      "Ġinto": 590,
      "Ġhow": 591,
      "igh": 592,
      "Ġapp": 593,
      "Ġac": 594,
      "ations": 595,
      "Ġsome": 596,
      "Ġwho": 597,
      "Ġlittle": 598,
      "ese": 599,
      "led": 600,
      "----": 601,
      "fer": 602,
      "Ġcomp": 603,
      "Ġdid": 604,
      "over": 605,
      "Ġbot": 606,
      "oun": 607,
      "Ġag": 608,
      "ated": 609,
      "Ġdec": 610,
      "Ġcont": 611,
      "fter": 612,
      "!\"": 613,
      "ling": 614,
      "Ġlearn": 615,
      "les": 616,
      "Ġimp": 617,
      "pt": 618,
      "Ġwould": 619,
      "ks": 620,
      "ĠBut": 621,
      "Ġvery": 622,
      "Ġupon": 623,
      "br": 624,
      "atch": 625,
      "se": 626,
      "Ġnew": 627,
      "rough": 628,
      "Ġgo": 629,
      "ĠAs": 630,
      "ite": 631,
      "Ġover": 632,
      "Ġhave": 633,
      "Ġwhat": 634,
      "ĠG": 635,
      "Ġfriends": 636,
      "Ġ*": 637,
      "ose": 638,
      "Ġbig": 639,
      "ff": 640,
      "?\"": 641,
      "sel": 642,
      "Ġmore": 643,
      "ving": 644,
      "Ġar": 645,
      "ĠTim": 646,
      "Ġem": 647,
      "Ġsaw": 648,
      "Ġsomething": 649,
      "Ġback": 650,
      "nce": 651,
      "Ġunder": 652,
      "Ġfl": 653,
      "ĠBl": 654,
      "Ġmen": 655,
      "ĠWe": 656,
      "illed": 657,
      "Ġam": 658,
      "Ġcol": 659,
      "Ġdisc": 660,
      "gether": 661,
      "ark": 662,
      "ĠâĢ": 663,
      "ost": 664,
      "Ġqu": 665,
      "ared": 666,
      "een": 667,
      "Ġ-": 668,
      "Ġrem": 669,
      "rr": 670,
      "Once": 671,
      "Ġknow": 672,
      "Ġaround": 673,
      "ĠYe": 674,
      "ided": 675,
      "ĠYo": 676,
      "Ġfel": 677,
      "uring": 678,
      "Ġthan": 679,
      "ead": 680,
      "ia": 681,
      "Ġone": 682,
      "ents": 683,
      "ces": 684,
      "iver": 685,
      "ĠN": 686,
      "ĠWh": 687,
      "Ġeven": 688,
      "ang": 689,
      "ĠIn": 690,
      "ish": 691,
      "Ġcomm": 692,
      "ting": 693,
      "ten": 694,
      "orm": 695,
      "ical": 696,
      "Ġthou": 697,
      "ever": 698,
      "anted": 699,
      "ond": 700,
      "Ġexpl": 701,
      "Ġwhile": 702,
      "ating": 703,
      "Ġtw": 704,
      "ib": 705,
      "Ġthese": 706,
      "ign": 707,
      "side": 708,
      "urn": 709,
      "amed": 710,
      "Ġbet": 711,
      "Ġstar": 712,
      "ade": 713,
      "Ġbarn": 714,
      "Ġthrough": 715,
      "wn": 716,
      "ans": 717,
      "Ġloo": 718,
      "Ġinter": 719,
      "Ġwanted": 720,
      "ater": 721,
      "Ġbarnac": 722,
      "Ġany": 723,
      "ise": 724,
      "Ġexc": 725,
      "ĠSt": 726,
      "Ġtogether": 727,
      "ward": 728,
      "ara": 729,
      "Ġpre": 730,
      "ber": 731,
      "Ġreal": 732,
      "ited": 733,
      "Ġhapp": 734,
      "pr": 735,
      "ome": 736,
      "Ġsee": 737,
      "fore": 738,
      "ult": 739,
      "Ġthen": 740,
      "ĠBen": 741,
      "Ġasked": 742,
      "og": 743,
      "Ġcr": 744,
      "Ġnamed": 745,
      "self": 746,
      "Ġno": 747,
      "Ġte": 748,
      "ree": 749,
      "rog": 750,
      "Ġdecided": 751,
      "Ġexper": 752,
      "Ġtal": 753,
      "Ġfelt": 754,
      "Ġpe": 755,
      "au": 756,
      "gg": 757,
      "arm": 758,
      "ĠAnd": 759,
      "ph": 760,
      "overed": 761,
      "Ġmake": 762,
      ",\"": 763,
      "als": 764,
      "ors": 765,
      "ĠTom": 766,
      "Ġfound": 767,
      "Ġmain": 768,
      "ket": 769,
      "ience": 770,
      "Ġif": 771,
      "ĠâĢĵ": 772,
      "ak": 773,
      "Ġinc": 774,
      "ary": 775,
      "ized": 776,
      "Ġfind": 777,
      "aus": 778,
      "Ġeach": 779,
      "oy": 780,
      "bers": 781,
      "ĠThis": 782,
      "Ġstarted": 783,
      "Ġwent": 784,
      "Ġits": 785,
      "other": 786,
      "ities": 787,
      "Ġbefore": 788,
      "ire": 789,
      "Ġjust": 790,
      "Ġdif": 791,
      "Ġbec": 792,
      "iled": 793,
      "Ġmade": 794,
      "pect": 795,
      "Ġloved": 796,
      "ars": 797,
      "Ġpart": 798,
      "Ġfun": 799,
      "cess": 800,
      "ild": 801,
      "Ġper": 802,
      "Ġthings": 803,
      "ĠK": 804,
      "ĠTimmy": 805,
      "ways": 806,
      "Ġagain": 807,
      "Ġro": 808,
      "Ġsur": 809,
      "form": 810,
      "lect": 811,
      "Ġthought": 812,
      "ĠSara": 813,
      "oin": 814,
      "Ġfeel": 815,
      "gan": 816,
      "filled": 817,
      "Ġtim": 818,
      "Ġneed": 819,
      "ened": 820,
      "hn": 821,
      "Ġgrog": 822,
      "Ġsay": 823,
      "Ġdes": 824,
      "ift": 825,
      "Ġunderst": 826,
      "Ġ(": 827,
      "Ġcommun": 828,
      "Ġty": 829,
      "Ġway": 830,
      "assie": 831,
      "Ġlassie": 832,
      "Ġtell": 833,
      "Ġlooked": 834,
      "ough": 835,
      "ny": 836,
      "Ġafter": 837,
      "ĠHow": 838,
      "ens": 839,
      "Ġbl": 840,
      "Ġbu": 841,
      "ures": 842,
      "Ġalways": 843,
      "ĠSh": 844,
      "Ġval": 845,
      "ich": 846,
      "Ġdiffer": 847,
      "Ġturn": 848,
      "Ġsk": 849,
      "ress": 850,
      "Ġspec": 851,
      "ual": 852,
      "ves": 853,
      "Ġyou": 854,
      "ific": 855,
      "uct": 856,
      "Ġcame": 857,
      "vent": 858,
      "ather": 859,
      "Ġact": 860,
      "Ġcreat": 861,
      "Ġind": 862,
      "Ġaway": 863,
      "Ġboth": 864,
      "Ġhome": 865,
      "tain": 866,
      "Ġke": 867,
      "den": 868,
      "Ġoff": 869,
      "dy": 870,
      "ick": 871,
      "lex": 872,
      "eng": 873,
      "ĠThar": 874,
      "Ġwill": 875,
      "Ġsmiled": 876,
      "ft": 877,
      "ax": 878,
      "Ġget": 879,
      "vast": 880,
      "ister": 881,
      "==": 882,
      "Ġcur": 883,
      "ople": 884,
      "Ġtri": 885,
      "vel": 886,
      "oons": 887,
      "ife": 888,
      "ĠSo": 889,
      "ĠU": 890,
      "Ġcare": 891,
      "ath": 892,
      "ected": 893,
      "Ġtwo": 894,
      "ird": 895,
      "ition": 896,
      "irst": 897,
      "Ġrum": 898,
      "iss": 899,
      "ail": 900,
      "Ġcons": 901,
      "ory": 902,
      "Ġent": 903,
      "Ġop": 904,
      "Ġhand": 905,
      "lows": 906,
      "Ġsmall": 907,
      "ake": 908,
      "Ġinst": 909,
      "Ġmu": 910,
      "Ġcar": 911,
      "Ġduring": 912,
      "izz": 913,
      "Ġunderstand": 914,
      "ĠSam": 915,
      "Ġwant": 916,
      "iqu": 917,
      "so": 918,
      "Ġgu": 919,
      "brace": 920,
      "aut": 921,
      "pped": 922,
      "Ġwhar": 923,
      "illage": 924,
      "--------": 925,
      "ord": 926,
      "ci": 927,
      "Ġrec": 928,
      "ys": 929,
      "Ġsw": 930,
      "under": 931,
      "Ġkne": 932,
      "ra": 933,
      "atches": 934,
      "Ġtales": 935,
      "Ġsuch": 936,
      "Ġdead": 937,
      "ĠCle": 938,
      "vy": 939,
      "Ġcouldn": 940,
      "Ġwithin": 941,
      "Ġpeople": 942,
      "aring": 943,
      "Ġdeep": 944,
      "oop": 945,
      "ued": 946,
      "Ġmo": 947,
      "Ġins": 948,
      "ied": 949,
      "Ġthose": 950,
      "ĠAfter": 951,
      "Ġless": 952,
      "old": 953,
      "Ġbottle": 954,
      "Ġpass": 955,
      "Ġlearned": 956,
      "comp": 957,
      "xt": 958,
      "Ġchest": 959,
      "Ġseem": 960,
      "Ġalso": 961,
      "wards": 962,
      "ently": 963,
      "Ġmany": 964,
      "Ġcall": 965,
      "ub": 966,
      "ĠStep": 967,
      "Ġgood": 968,
      "ĠSarah": 969,
      "Ġrel": 970,
      "ause": 971,
      "Ġbo": 972,
      "Ġown": 973,
      "Ġshow": 974,
      "ĠTo": 975,
      "Ġmuch": 976,
      "Ġwal": 977,
      "Ġatt": 978,
      "Ġbird": 979,
      "ĠWith": 980,
      "ange": 981,
      "ained": 982,
      "Ġtook": 983,
      "ros": 984,
      "Ġlad": 985,
      "ĠAn": 986,
      "ility": 987,
      "pport": 988,
      "Ġeveryone": 989,
      "vers": 990,
      "Ġlead": 991,
      "Ġimport": 992,
      "Ġhook": 993,
      "ĠBat": 994,
      "ĠHowever": 995,
      "imes": 996,
      "Ġwork": 997,
      "Ġpers": 998,
      "Ġanch": 999,
      "Ġknew": 1000,
      "Ġinv": 1001,
      "Ġanchor": 1002,
      "ĠArr": 1003,
      "ifteen": 1004,
      "ĠThunder": 1005,
      "ĠSav": 1006,
      "ĠDead": 1007,
      "Ġnin": 1008,
      "ness": 1009,
      "ĠSpl": 1010,
      "ounder": 1011,
      "Ġbris": 1012,
      "ĠAvast": 1013,
      "Ġblows": 1014,
      "ential": 1015,
      "ĠFifteen": 1016,
      "Ġtyph": 1017,
      "Ġhatches": 1018,
      "ĠBlow": 1019,
      "ĠBatten": 1020,
      "ĠArrr": 1021,
      "Ġyer": 1022,
      "Ġtyphoons": 1023,
      "ĠWeigh": 1024,
      "ĠSling": 1025,
      "Ġbrisket": 1026,
      "ĠThundering": 1027,
      "ict": 1028,
      "Ġbarnacles": 1029,
      "ĠCleave": 1030,
      "ĠBlister": 1031,
      "ĠSplice": 1032,
      "Ġmainbrace": 1033,
      "ĠBlisterin": 1034,
      "ĠSavvy": 1035,
      "ĠShiver": 1036,
      "Ġtimbers": 1037,
      "imey": 1038,
      "Ġhoist": 1039,
      "Ġbel": 1040,
      "Ġflounder": 1041,
      "izzen": 1042,
      "Ġmizzen": 1043,
      "ĠBlimey": 1044,
      "compoop": 1045,
      "Ġnincompoop": 1046,
      "Ġflounderin": 1047,
      "Ġlong": 1048,
      "Ġfr": 1049,
      "Ġonly": 1050,
      "ob": 1051,
      "Ġfin": 1052,
      "Ġdidn": 1053,
      "Th": 1054,
      "Ġreg": 1055,
      "Ġeff": 1056,
      "Ġpos": 1057,
      "ning": 1058,
      "ase": 1059,
      "Ġend": 1060,
      "Ġfam": 1061,
      "Ġsun": 1062,
      "Ġloc": 1063,
      "Ġey": 1064,
      "Ġfirst": 1065,
      "ĠMe": 1066,
      "Ġbeen": 1067,
      "Ġadd": 1068,
      "Ġchall": 1069,
      "ences": 1070,
      "Ġrealized": 1071,
      "Ġcontin": 1072,
      "ments": 1073,
      "Ġlife": 1074,
      "Ġ'": 1075,
      "ble": 1076,
      "Ġsim": 1077,
      "Ġpillage": 1078,
      "ween": 1079,
      "hip": 1080,
      "Ġbeaut": 1081,
      "Ġcle": 1082,
      "ugg": 1083,
      "atter": 1084,
      "Ġbetween": 1085,
      "aking": 1086,
      "Ġ1": 1087,
      "ĠMax": 1088,
      "Ġset": 1089,
      "ross": 1090,
      "Ġvalu": 1091,
      "Ġanother": 1092,
      "ount": 1093,
      "Ġhigh": 1094,
      "ular": 1095,
      "ower": 1096,
      "ey": 1097,
      "Ġput": 1098,
      "Ġran": 1099,
      "uck": 1100,
      "Ġothers": 1101,
      "ible": 1102,
      "til": 1103,
      "Ġworld": 1104,
      "ps": 1105,
      "Ġdet": 1106,
      "Ġtowards": 1107,
      "Ġnever": 1108,
      "Ġread": 1109,
      "Ġplaying": 1110,
      "Ġexcited": 1111,
      "Ġdifferent": 1112,
      "ember": 1113,
      "ĠAl": 1114,
      "Ġgot": 1115,
      "Ġser": 1116,
      "ear": 1117,
      "Ġcovered": 1118,
      "less": 1119,
      "Ġbegan": 1120,
      "anc": 1121,
      "ines": 1122,
      "Ġdel": 1123,
      "Ġwa": 1124,
      "pected": 1125,
      "âĤ": 1126,
      "ĠWhen": 1127,
      "Ġconf": 1128,
      "ool": 1129,
      "Ġwater": 1130,
      "âĤ¬": 1131,
      "augh": 1132,
      "Ġcre": 1133,
      "Ġbetter": 1134,
      "Ġconn": 1135,
      "ĠMom": 1136,
      "Ġmight": 1137,
      "ired": 1138,
      "Ġinterest": 1139,
      "Ġsol": 1140,
      "ink": 1141,
      "Ġsad": 1142,
      "its": 1143,
      "Ġpark": 1144,
      "ories": 1145,
      "ĠMr": 1146,
      "Ġbest": 1147,
      "Ġfol": 1148,
      "iting": 1149,
      "ĠJo": 1150,
      "Ġlet": 1151,
      "Ġtrans": 1152,
      "Ġwithout": 1153,
      "ics": 1154,
      "ouse": 1155,
      "Ġtry": 1156,
      "Ġsign": 1157,
      "Ġlist": 1158,
      "Ġob": 1159,
      "erm": 1160,
      "ene": 1161,
      "Ġbecause": 1162,
      "fully": 1163,
      "ize": 1164,
      "Ġlook": 1165,
      "##": 1166,
      "Ġph": 1167,
      "Ġgl": 1168,
      "Ġacc": 1169,
      "Ġpar": 1170,
      "Ġspecial": 1171,
      "ĠHer": 1172,
      "Ġnay": 1173,
      "Ġbeing": 1174,
      "Ġbarnacle": 1175,
      "Ġmet": 1176,
      "Ġresp": 1177,
      "Ġstill": 1178,
      "uss": 1179,
      "Ġsays": 1180,
      "be": 1181,
      "Ġart": 1182,
      "Ġwhich": 1183,
      "Ġlove": 1184,
      "Ġvar": 1185,
      "Ġche": 1186,
      "Ġladdy": 1187,
      "Ġgrow": 1188,
      "Ġvis": 1189,
      "Ã¢": 1190,
      "Ġappro": 1191,
      "na": 1192,
      "ty": 1193,
      "Ġalong": 1194,
      "Ġide": 1195,
      "air": 1196,
      "Ġcalled": 1197,
      "Ġtec": 1198,
      "Ġshared": 1199,
      "pite": 1200,
      "Ġsurpr": 1201,
      "ually": 1202,
      "Ġune": 1203,
      "Ġhas": 1204,
      "enc": 1205,
      "red": 1206,
      "Ġnow": 1207,
      "Ġuntil": 1208,
      "yst": 1209,
      "Ġoutside": 1210,
      "thing": 1211,
      "Ġsometimes": 1212,
      "ased": 1213,
      "denly": 1214,
      "ices": 1215,
      "Ġright": 1216,
      "ative": 1217,
      "oring": 1218,
      "ĠAlex": 1219,
      "Ġdon": 1220,
      "Ġjour": 1221,
      "Ġbeh": 1222,
      "read": 1223,
      "med": 1224,
      "Ġmus": 1225,
      "Ġlaugh": 1226,
      "Ġroom": 1227,
      "Ġfollow": 1228,
      "Ġconnect": 1229,
      "ject": 1230,
      "Ġlived": 1231,
      "az": 1232,
      "ique": 1233,
      "Ġvaluable": 1234,
      "Ġmaking": 1235,
      "ider": 1236,
      "ement": 1237,
      "ple": 1238,
      "Ġprom": 1239,
      "ately": 1240,
      "Ġdiscuss": 1241,
      "alth": 1242,
      "Ġpres": 1243,
      "Ġens": 1244,
      "Ġquest": 1245,
      "ts": 1246,
      "xpected": 1247,
      "Ġhappy": 1248,
      "ĠEm": 1249,
      "Ġpot": 1250,
      "iced": 1251,
      "Ġgen": 1252,
      "Ġdog": 1253,
      "Ġred": 1254,
      "Ġmem": 1255,
      "olog": 1256,
      "Ġlearning": 1257,
      "Ġwr": 1258,
      "ĠBy": 1259,
      "Ġunderstanding": 1260,
      "Wh": 1261,
      "ney": 1262,
      "Ġwatch": 1263,
      "ush": 1264,
      "Ġplan": 1265,
      "ĠHis": 1266,
      "ds": 1267,
      "Ġsaf": 1268,
      "ached": 1269,
      "Ġchalleng": 1270,
      "Ġprov": 1271,
      "ĠCh": 1272,
      "Ġhum": 1273,
      "Ġdiscovered": 1274,
      "Ġconc": 1275,
      "Ġpower": 1276,
      "Ġtechn": 1277,
      "Ġshare": 1278,
      "ll": 1279,
      "ient": 1280,
      "Ġrun": 1281,
      "line": 1282,
      "Ġopen": 1283,
      "Ġvarious": 1284,
      "Ġmay": 1285,
      "Ġhere": 1286,
      "iful": 1287,
      "Ġexperience": 1288,
      "Ġacross": 1289,
      "Ġcommunity": 1290,
      "Ġeyes": 1291,
      "te": 1292,
      "Ġadvent": 1293,
      "Ġhard": 1294,
      "aught": 1295,
      "Ġgre": 1296,
      "Ġbecame": 1297,
      "Ġ2": 1298,
      "Ġexperi": 1299,
      "ven": 1300,
      "Ġunexpected": 1301,
      "Ġkind": 1302,
      "Ġbeautiful": 1303,
      "Ġkeep": 1304,
      "ots": 1305,
      "Ġrepl": 1306,
      "ĠJack": 1307,
      "ĠMia": 1308,
      "ised": 1309,
      "Ġenc": 1310,
      "Ġco": 1311,
      "ident": 1312,
      "Ġamong": 1313,
      "Ġmost": 1314,
      "Ġinside": 1315,
      "Ġheard": 1316,
      "Ġgreat": 1317,
      "oth": 1318,
      "Ġdue": 1319,
      "ner": 1320,
      "Ġtree": 1321,
      "roud": 1322,
      "Ġusing": 1323,
      "ature": 1324,
      "ee": 1325,
      "Ġsl": 1326,
      "Ġsec": 1327,
      "Ġwasn": 1328,
      "Ġremember": 1329,
      "Ġfamily": 1330,
      "Ġanim": 1331,
      "ivid": 1332,
      "Ġstud": 1333,
      "izing": 1334,
      "ĠFrom": 1335,
      "Ġeng": 1336,
      "**": 1337,
      "Ġliked": 1338,
      "Ġsuc": 1339,
      "Ġimportant": 1340,
      "Ġprof": 1341,
      "Ġ**": 1342,
      "ional": 1343,
      "Ġcap": 1344,
      "Ġproud": 1345,
      "..": 1346,
      "Ġpract": 1347,
      "ined": 1348,
      "Ġunique": 1349,
      "Ġmon": 1350,
      "Ġball": 1351,
      "ished": 1352,
      "Ġfas": 1353,
      "ering": 1354,
      "Ġjourney": 1355,
      "Ġtown": 1356,
      "joy": 1357,
      "Ġbuild": 1358,
      "Ġcontinued": 1359,
      "ier": 1360,
      "Ġnoticed": 1361,
      "ues": 1362,
      "ication": 1363,
      "Ġcome": 1364,
      "Ġnod": 1365,
      "Ġconvers": 1366,
      "Ġland": 1367,
      "Ġhop": 1368,
      "ix": 1369,
      "ern": 1370,
      "Ġhead": 1371,
      "Ġheart": 1372,
      "ĠBe": 1373,
      "heart": 1374,
      "ched": 1375,
      "Ġbook": 1376,
      "come": 1377,
      "ull": 1378,
      "ian": 1379,
      "Ġscared": 1380,
      "idel": 1381,
      "umb": 1382,
      "Ġdad": 1383,
      "ĠAt": 1384,
      "Ġturned": 1385,
      "str": 1386,
      "erg": 1387,
      "ates": 1388,
      "ĠAnna": 1389,
      "ank": 1390,
      "ĠRe": 1391,
      "ially": 1392,
      "ĠKey": 1393,
      "Ġinstead": 1394,
      "Ġwo": 1395,
      "up": 1396,
      "ĠEvery": 1397,
      "Ġfac": 1398,
      "====": 1399,
      "ĠJohn": 1400,
      "Ġhealth": 1401,
      "Ġass": 1402,
      "ock": 1403,
      "Ġoffer": 1404,
      "by": 1405,
      "ĠThat": 1406,
      "Ġenjoy": 1407,
      "no": 1408,
      "Ġnext": 1409,
      "Ġappre": 1410,
      "Ġbro": 1411,
      "Ġfilled": 1412,
      "Ġrespons": 1413,
      "Ġadv": 1414,
      "ric": 1415,
      "Ġyears": 1416,
      "Ġwell": 1417,
      "Ġrequ": 1418,
      "ĠMar": 1419,
      "Ġmean": 1420,
      "Ġlocal": 1421,
      "ded": 1422,
      "aw": 1423,
      "Ġref": 1424,
      "Ġcor": 1425,
      "ives": 1426,
      "Ġenough": 1427,
      "Ġincl": 1428,
      "gr": 1429,
      "Ġis": 1430,
      "Ġfood": 1431,
      "Ġhouse": 1432,
      "Ġever": 1433,
      "Ġindivid": 1434,
      "Ġnear": 1435,
      "Ġhist": 1436,
      "Ġsoon": 1437,
      "Ġ3": 1438,
      "Ġpol": 1439,
      "Ġshould": 1440,
      "Ġinit": 1441,
      "Ġtoys": 1442,
      "ĠSud": 1443,
      "ĠThen": 1444,
      "Ġtold": 1445,
      "Ġmin": 1446,
      "Ġwarm": 1447,
      "kes": 1448,
      "app": 1449,
      "reed": 1450,
      "Ġsuccess": 1451,
      "ĠSuddenly": 1452,
      "ike": 1453,
      "ered": 1454,
      "Ġseemed": 1455,
      "aged": 1456,
      "Ġstay": 1457,
      "iec": 1458,
      "Ġtried": 1459,
      "fect": 1460,
      "Ġpotential": 1461,
      "Ġappreci": 1462,
      "ump": 1463,
      "ips": 1464,
      "Ġlessons": 1465,
      "Ġremind": 1466,
      "ledge": 1467,
      "fort": 1468,
      "ager": 1469,
      "oung": 1470,
      "Ġstep": 1471,
      "Ġfur": 1472,
      "ĠAm": 1473,
      "Ġpur": 1474,
      "day": 1475,
      "Ġrespect": 1476,
      "ours": 1477,
      "oud": 1478,
      "ĠGu": 1479,
      "Ġpartic": 1480,
      "Ġlight": 1481,
      "hearty": 1482,
      "Ġsmart": 1483,
      "ĠV": 1484,
      "Ġyet": 1485,
      "Ġel": 1486,
      "Ġchange": 1487,
      "Ġsharing": 1488,
      "iny": 1489,
      "rib": 1490,
      "Ġmed": 1491,
      "avor": 1492,
      "Ġsure": 1493,
      "ages": 1494,
      "ms": 1495,
      "Ġsit": 1496,
      "Ġbehind": 1497,
      "Ġleft": 1498,
      "ug": 1499,
      "Ġbelie": 1500,
      "Ġcult": 1501,
      "velop": 1502,
      "Ġav": 1503,
      "Ġteam": 1504,
      "ural": 1505,
      "Ġclos": 1506,
      "Ġmommy": 1507,
      "Ġimpro": 1508,
      "Ġnum": 1509,
      "Ġfeeling": 1510,
      "Ġret": 1511,
      "ocus": 1512,
      "to": 1513,
      "Ġdist": 1514,
      "ills": 1515,
      "Ġnight": 1516,
      "Ġmar": 1517,
      "Ġonline": 1518,
      "ley": 1519,
      "ĠMay": 1520,
      "selves": 1521,
      "Ġplayed": 1522,
      "pportun": 1523,
      "duct": 1524,
      "Ġyoung": 1525,
      "It": 1526,
      "Ġgave": 1527,
      "here": 1528,
      "ane": 1529,
      "abb": 1530,
      "Ġfew": 1531,
      "Ġopportun": 1532,
      "ĠThrough": 1533,
      "Ġneeded": 1534,
      "Ġknowledge": 1535,
      "Ġreplied": 1536,
      "Ġdr": 1537,
      "orts": 1538,
      "ants": 1539,
      "Ġuse": 1540,
      "Ġflow": 1541,
      "Ġcurious": 1542,
      "Ġsound": 1543,
      "Ġnodded": 1544,
      "Ġgrou": 1545,
      "Ġtre": 1546,
      "Ġwhy": 1547,
      "Ġwee": 1548,
      "Ġstories": 1549,
      "Ġcount": 1550,
      "Ġchang": 1551,
      "Ġsafe": 1552,
      "iew": 1553,
      "Ġbre": 1554,
      "Ġwind": 1555,
      "ĠEx": 1556,
      "Ġrest": 1557,
      "Ġcollect": 1558,
      "Ġclean": 1559,
      "abor": 1560,
      "ream": 1561,
      "ening": 1562,
      "iet": 1563,
      "Ġchild": 1564,
      "ĠJam": 1565,
      "ince": 1566,
      "ances": 1567,
      "Ġsignific": 1568,
      "ash": 1569,
      "Ġmusic": 1570,
      "Ġmag": 1571,
      "Ġchallenges": 1572,
      "Ġtoy": 1573,
      "ios": 1574,
      "Ġbox": 1575,
      "itive": 1576,
      "ingly": 1577,
      "Ġconsider": 1578,
      "Ġplace": 1579,
      "Ġmind": 1580,
      "Ġexplained": 1581,
      "Ġext": 1582,
      "Ġwonder": 1583,
      "ivity": 1584,
      "orry": 1585,
      "cept": 1586,
      "Ġsch": 1587,
      "Ġsupport": 1588,
      "In": 1589,
      "ĠWhile": 1590,
      "ention": 1591,
      "Ġsever": 1592,
      "Ġthree": 1593,
      "Ġprocess": 1594,
      "ried": 1595,
      "Ġmy": 1596,
      "ense": 1597,
      "ically": 1598,
      "Ġthough": 1599,
      "umbled": 1600,
      "Ġprot": 1601,
      "Ġface": 1602,
      "Ġpiec": 1603,
      "ows": 1604,
      "Ġbus": 1605,
      "Ġproble": 1606,
      "Ġcreate": 1607,
      "iness": 1608,
      "Ġpoin": 1609,
      "Ġidea": 1610,
      "Ġhappened": 1611,
      "Ġmod": 1612,
      "'m": 1613,
      "Ġagainst": 1614,
      "wor": 1615,
      "Ġsub": 1616,
      "Ġsat": 1617,
      "ĠSp": 1618,
      "Ġdeterm": 1619,
      "Ġposs": 1620,
      "Ġfocus": 1621,
      "Ġdem": 1622,
      "Ġanimals": 1623,
      "ination": 1624,
      "Ġcoll": 1625,
      "Ġpat": 1626,
      "ĠâĢľ": 1627,
      "Ġthere": 1628,
      "Ġequ": 1629,
      "Ġdoes": 1630,
      "ma": 1631,
      "Ġexploring": 1632,
      "Ġorgan": 1633,
      "You": 1634,
      "Ġexperiences": 1635,
      "ying": 1636,
      "Ġgard": 1637,
      "Ġcity": 1638,
      "Ġear": 1639,
      "Ġmaintain": 1640,
      "iel": 1641,
      "Ġvo": 1642,
      "Ġpassion": 1643,
      "Ġpain": 1644,
      "ĠNe": 1645,
      "Ġground": 1646,
      "Ġperfect": 1647,
      "right": 1648,
      "Ġmoment": 1649,
      "Ġperson": 1650,
      "Ġtop": 1651,
      "ystem": 1652,
      "âĢĿ": 1653,
      "Ġed": 1654,
      "Ġsomeone": 1655,
      "Ġgive": 1656,
      "Ġsky": 1657,
      "Ġrep": 1658,
      "ĠTheir": 1659,
      "oll": 1660,
      "Ġused": 1661,
      "ĠGuidel": 1662,
      "Ġoften": 1663,
      "Ġfavor": 1664,
      "Ġthroughout": 1665,
      "Ġsorry": 1666,
      "Ġinclud": 1667,
      "Ġinform": 1668,
      "Ġair": 1669,
      "Ġstumbled": 1670,
      "âĢĻ": 1671,
      "usi": 1672,
      "Ġste": 1673,
      "ertain": 1674,
      "iron": 1675,
      "aining": 1676,
      "Ġdesign": 1677,
      "Ġagreed": 1678,
      "Ġgoing": 1679,
      "Ġadventure": 1680,
      "Ġwhe": 1681,
      "Ġmatter": 1682,
      "Ġhur": 1683,
      "acing": 1684,
      "Ġmyself": 1685,
      "Ġenth": 1686,
      "rig": 1687,
      "Ġes": 1688,
      "Ġhaving": 1689,
      "ugged": 1690,
      "ength": 1691,
      "Ġform": 1692,
      "Ġenthusi": 1693,
      "Ġjoin": 1694,
      "Ġschool": 1695,
      "Ġleav": 1696,
      "Ġdays": 1697,
      "Ġpret": 1698,
      "Ġbal": 1699,
      "Ġsurprise": 1700,
      "elf": 1701,
      "wh": 1702,
      "press": 1703,
      "Ġcat": 1704,
      "ounter": 1705,
      "'re": 1706,
      "aging": 1707,
      "Ġdespite": 1708,
      "ilar": 1709,
      "ution": 1710,
      "----------------": 1711,
      "Ġsn": 1712,
      "Ġsugg": 1713,
      "Ġsuggest": 1714,
      "Ġeverything": 1715,
      "ights": 1716,
      "Ġonce": 1717,
      "Ġthink": 1718,
      "ute": 1719,
      "Ġiss": 1720,
      "âĢĶ": 1721,
      "Ġess": 1722,
      "Ġdevelop": 1723,
      "ĠLuc": 1724,
      "Ġworking": 1725,
      "ability": 1726,
      "Ġhours": 1727,
      "Ġexp": 1728,
      "Ġopt": 1729,
      "Ġtrad": 1730,
      "St": 1731,
      "Ġpo": 1732,
      "ists": 1733,
      "ĠDes": 1734,
      "Ġgame": 1735,
      "Ġfost": 1736,
      "Ġenv": 1737,
      "ins": 1738,
      "Yes": 1739,
      "ove": 1740,
      "icked": 1741,
      "rol": 1742,
      "Ġcreating": 1743,
      "rought": 1744,
      "Ġresear": 1745,
      "Ġwords": 1746,
      "Ġfact": 1747,
      "Ġsoft": 1748,
      "Ġinvol": 1749,
      "idst": 1750,
      "antly": 1751,
      "iding": 1752,
      "Ġwalked": 1753,
      "ored": 1754,
      "Ġcal": 1755,
      "iosity": 1756,
      "Ġinsp": 1757,
      "Ġstrugg": 1758,
      "Ġallow": 1759,
      "Ġgather": 1760,
      "Ġmor": 1761,
      "ets": 1762,
      "Ġexplore": 1763,
      "Ġbene": 1764,
      "Ġcareful": 1765,
      "Ġfar": 1766,
      "ality": 1767,
      "Ġseveral": 1768,
      "Ġsmartly": 1769,
      "ont": 1770,
      "row": 1771,
      "cc": 1772,
      "Ġobs": 1773,
      "Ġfasc": 1774,
      "Ġgener": 1775,
      "Ġarri": 1776,
      "ren": 1777,
      "Ġfavorite": 1778,
      "Ġbrought": 1779,
      "ret": 1780,
      "ĠJust": 1781,
      "Ġ4": 1782,
      "akes": 1783,
      "ources": 1784,
      "Ġlooking": 1785,
      "Ġgarden": 1786,
      "ony": 1787,
      "ism": 1788,
      "Ġmess": 1789,
      "Ġare": 1790,
      "Ġgrowth": 1791,
      "sw": 1792,
      "Ġresearch": 1793,
      "Ġfurther": 1794,
      "yond": 1795,
      "Ġbeyond": 1796,
      "Ġcaus": 1797,
      "aps": 1798,
      "Ġstart": 1799,
      "Ġcollabor": 1800,
      "uth": 1801,
      "iche": 1802,
      "Ġchar": 1803,
      "ively": 1804,
      "Ġclose": 1805,
      "Ġnice": 1806,
      "ising": 1807,
      "amp": 1808,
      "eed": 1809,
      "Ġproject": 1810,
      "Ġang": 1811,
      "Ġworked": 1812,
      "Ġeager": 1813,
      "Ġhimself": 1814,
      "Ġemp": 1815,
      "What": 1816,
      "ured": 1817,
      "Ġgroup": 1818,
      "ĠLucy": 1819,
      "Ġstand": 1820,
      "Ġnature": 1821,
      "Ġevent": 1822,
      "Ġhugged": 1823,
      "Ġ##": 1824,
      "ĠFin": 1825,
      "Ġeas": 1826,
      "Ġfull": 1827,
      "ĠEn": 1828,
      "els": 1829,
      "Ġthanked": 1830,
      "Ġeat": 1831,
      "ames": 1832,
      "ille": 1833,
      "ape": 1834,
      "Ġenviron": 1835,
      "ids": 1836,
      "Ġskills": 1837,
      "Ġimportance": 1838,
      "ĠFor": 1839,
      "ĠAd": 1840,
      "ology": 1841,
      "Ġharm": 1842,
      "Ġbear": 1843,
      "Ġhands": 1844,
      "zz": 1845,
      "Ġpost": 1846,
      "Ġeffect": 1847,
      "ĠDr": 1848,
      "That": 1849,
      "Ġsil": 1850,
      "for": 1851,
      "Ġpast": 1852,
      "edd": 1853,
      "Ġclim": 1854,
      "Ġnec": 1855,
      "ody": 1856,
      "Ġherself": 1857,
      "ustom": 1858,
      "por": 1859,
      "Ġtaking": 1860,
      "Ġquestion": 1861,
      "Ġniche": 1862,
      "ending": 1863,
      "Ġansw": 1864,
      "Ġhelped": 1865,
      "Ġclass": 1866,
      "ateg": 1867,
      "Ġincre": 1868,
      "pping": 1869,
      "Ġsing": 1870,
      "Ġinf": 1871,
      "ustling": 1872,
      "af": 1873,
      "ters": 1874,
      "Ġcuriosity": 1875,
      "Ġdra": 1876,
      "Ġvoice": 1877,
      "itions": 1878,
      "Ġtrue": 1879,
      "Ġrather": 1880,
      "Ġfinally": 1881,
      "Ġhold": 1882,
      "Ġpresent": 1883,
      "Ġbased": 1884,
      "Ġcomplex": 1885,
      "Ġjump": 1886,
      "Ġprep": 1887,
      "hips": 1888,
      "kn": 1889,
      "Ġadm": 1890,
      "Ġregard": 1891,
      "Ġloud": 1892,
      "Ġconversation": 1893,
      "Ġdep": 1894,
      "Ġaff": 1895,
      "ibility": 1896,
      "ision": 1897,
      "Ġtrying": 1898,
      "Ġbring": 1899,
      "ho": 1900,
      "Ġmove": 1901,
      "Ġded": 1902,
      "Ġfascin": 1903,
      "lic": 1904,
      "Ġcomple": 1905,
      "Ġhuman": 1906,
      "light": 1907,
      "Ġpri": 1908,
      "Ġproduct": 1909,
      "Ġbustling": 1910,
      "Ġtyp": 1911,
      "Ġtaught": 1912,
      "Ġgrand": 1913,
      "Ġself": 1914,
      "lying": 1915,
      "Ġlay": 1916,
      "Ġlaughed": 1917,
      "lew": 1918,
      "Ġ5": 1919,
      "Ġamidst": 1920,
      "Ġelse": 1921,
      "Ġcour": 1922,
      "Ġperform": 1923,
      "Ġsystem": 1924,
      "Ġamaz": 1925,
      "Ġdelic": 1926,
      "Ġisn": 1927,
      "Ġhistory": 1928,
      "Ġbad": 1929,
      "ĠDespite": 1930,
      "Ġconcern": 1931,
      "ym": 1932,
      "erv": 1933,
      "ĠJamie": 1934,
      "Ġslow": 1935,
      "Ġdri": 1936,
      "ract": 1937,
      "ety": 1938,
      "Ġaw": 1939,
      "aces": 1940,
      "Ġtransform": 1941,
      "Ġforward": 1942,
      "Ġsince": 1943,
      "Ġled": 1944,
      "Ġsunny": 1945,
      "ĠGr": 1946,
      "gress": 1947,
      "inary": 1948,
      "Ġfut": 1949,
      "Ġembr": 1950,
      "Ġcarefully": 1951,
      "Ġrelations": 1952,
      "ivers": 1953,
      "Ġfellow": 1954,
      "Ġthemselves": 1955,
      "Ġele": 1956,
      "Ġdoing": 1957,
      "Ġpict": 1958,
      "Ġopened": 1959,
      "Ġcond": 1960,
      "itle": 1961,
      "Ġleg": 1962,
      "ĠNow": 1963,
      "irect": 1964,
      "'ve": 1965,
      "Step": 1966,
      "orn": 1967,
      "Ġreached": 1968,
      "Ġemb": 1969,
      "itional": 1970,
      "Ġve": 1971,
      "Ġsimilar": 1972,
      "while": 1973,
      "We": 1974,
      "Ġwhether": 1975,
      "Ġreturn": 1976,
      "Ġstory": 1977,
      "Ġessential": 1978,
      "Ġknown": 1979,
      "irc": 1980,
      "),": 1981,
      "aling": 1982,
      "Ġenvironment": 1983,
      "Ġsmile": 1984,
      "Ġstrength": 1985,
      "Ġdoor": 1986,
      "omet": 1987,
      "Ġthin": 1988,
      ").": 1989,
      "though": 1990,
      "any": 1991,
      "ital": 1992,
      "aper": 1993,
      "tern": 1994,
      "Ġmust": 1995,
      "Ġcustom": 1996,
      "Ġshowed": 1997,
      "ency": 1998,
      "athy": 1999,
      "ĠTips": 2000,
      "Ġfuture": 2001,
      "Ġexpress": 2002,
      "ths": 2003,
      "Ġinformation": 2004,
      "Ġcloser": 2005,
      "ĠEmily": 2006,
      "ĠTogether": 2007,
      "uals": 2008,
      "aching": 2009,
      "Ġbecome": 2010,
      "Ġpop": 2011,
      "usion": 2012,
      "Ġlots": 2013,
      "angu": 2014,
      "iar": 2015,
      "Ġcolor": 2016,
      "ville": 2017,
      "ining": 2018,
      "Ġjoy": 2019,
      "Ġkept": 2020,
      "Ġsame": 2021,
      "Ġspent": 2022,
      "Ġ&": 2023,
      "Ġforest": 2024,
      "ced": 2025,
      "Ġheav": 2026,
      "ung": 2027,
      "ĠBenny": 2028,
      "Ġstrong": 2029,
      "Ġcontrib": 2030,
      "imed": 2031,
      "Ġlost": 2032,
      "Ġclear": 2033,
      "Ġrain": 2034,
      "Ġstore": 2035,
      "Ġmiss": 2036,
      "ĠOn": 2037,
      "ats": 2038,
      "Ġfast": 2039,
      "Ġenerg": 2040,
      "ighb": 2041,
      "Ġsoc": 2042,
      "Ġsqu": 2043,
      "ĠThese": 2044,
      "ĠMean": 2045,
      "Ġliving": 2046,
      "Ġtou": 2047,
      "Ġblue": 2048,
      "Ġpu": 2049,
      "ĠOur": 2050,
      "Ġrece": 2051,
      "Ġarrived": 2052,
      "Ġproblem": 2053,
      "Ġcomb": 2054,
      "ries": 2055,
      "eddit": 2056,
      "Ġz": 2057,
      "Ġtimes": 2058,
      "Åĵ": 2059,
      "Ġdeeper": 2060,
      "ĠMeanwhile": 2061,
      "uly": 2062,
      "Ġhid": 2063,
      "Ġmakes": 2064,
      "oss": 2065,
      "Ġprofess": 2066,
      "Ġtreat": 2067,
      "Ġbrave": 2068,
      "Ġlast": 2069,
      "arked": 2070,
      "Ġsteps": 2071,
      "ational": 2072,
      "Ġinvest": 2073,
      "Ġprotect": 2074,
      "Ġsud": 2075,
      "aced": 2076,
      "Let": 2077,
      "ĠThom": 2078,
      "ery": 2079,
      "Ġprin": 2080,
      "Ġneighb": 2081,
      "Ġapproached": 2082,
      "Ġonto": 2083,
      "fic": 2084,
      "Ġpath": 2085,
      "Ġways": 2086,
      "Ġtable": 2087,
      "Ġspecific": 2088,
      "Ġgiv": 2089,
      "Ġec": 2090,
      "Ġfo": 2091,
      "ĠYour": 2092,
      "Ġbreat": 2093,
      "Ġlesson": 2094,
      "ata": 2095,
      "ield": 2096,
      "Ġenergy": 2097,
      "ĠIf": 2098,
      "kay": 2099,
      "Ġhurt": 2100,
      "ĠInt": 2101,
      "Ġimprove": 2102,
      "Ġbright": 2103,
      "Ġgreen": 2104,
      "Ġdirect": 2105,
      "Ġtruly": 2106,
      "lecting": 2107,
      "nov": 2108,
      "Ġlangu": 2109,
      "Ġprogress": 2110,
      "Ġlater": 2111,
      "ming": 2112,
      "Ġreally": 2113,
      "work": 2114,
      "Ġtest": 2115,
      "itch": 2116,
      "Ġencounter": 2117,
      "Ġvi": 2118,
      "Ġmeet": 2119,
      "ization": 2120,
      "eet": 2121,
      "Ġdisapp": 2122,
      "Ġcompet": 2123,
      "ived": 2124,
      "pec": 2125,
      "Ġcomfort": 2126,
      "essary": 2127,
      "Ġcommunication": 2128,
      "Ġbit": 2129,
      "Ġyourself": 2130,
      "Ġwom": 2131,
      "Ġfarm": 2132,
      "Ġvisit": 2133,
      "ended": 2134,
      "Ġcirc": 2135,
      "enge": 2136,
      "iles": 2137,
      "ĠCom": 2138,
      "anced": 2139,
      "Ġproper": 2140,
      "aster": 2141,
      "ele": 2142,
      "Ġbusiness": 2143,
      "Ġresult": 2144,
      "ĠCon": 2145,
      "Ġheave": 2146,
      "Ġconnections": 2147,
      "Ġencour": 2148,
      "ogn": 2149,
      "Ġfollowing": 2150,
      "Ġtrust": 2151,
      "Ġ###": 2152,
      "Ġjob": 2153,
      "Ġcry": 2154,
      "ĠUn": 2155,
      "Ġunc": 2156,
      "Title": 2157,
      "Ġfell": 2158,
      "Ġtas": 2159,
      "But": 2160,
      "Ġside": 2161,
      "oke": 2162,
      "ĠFinally": 2163,
      "ously": 2164,
      "Ġemot": 2165,
      "itement": 2166,
      "Ġda": 2167,
      "ĠLe": 2168,
      "Ġdro": 2169,
      "la": 2170,
      "ilities": 2171,
      "Ġanything": 2172,
      "leep": 2173,
      "Ġbed": 2174,
      "Ġkids": 2175,
      "Ġdef": 2176,
      "io": 2177,
      "utions": 2178,
      "Ġmark": 2179,
      "Ġperspect": 2180,
      "Ġpicked": 2181,
      "'ll": 2182,
      "Ġensure": 2183,
      "Ġheld": 2184,
      "Ġefforts": 2185,
      "und": 2186,
      "ĠInst": 2187,
      "Ġembracing": 2188,
      "...": 2189,
      "Ġsuggested": 2190,
      "ĠGuidelines": 2191,
      "Ġhug": 2192,
      "Ġimpact": 2193,
      "Ġwatched": 2194,
      "ides": 2195,
      "Ġguide": 2196,
      "Ġexcitement": 2197,
      "Ġpositive": 2198,
      "Ġrabb": 2199,
      "Ġcruc": 2200,
      "ularly": 2201,
      "ĠBob": 2202,
      "Ġeye": 2203,
      "Ġindividuals": 2204,
      "Ġtool": 2205,
      "ises": 2206,
      "Ġlar": 2207,
      "acy": 2208,
      "ĠSally": 2209,
      "overy": 2210,
      "bs": 2211,
      "Ġbeauty": 2212,
      "Ġpersonal": 2213,
      "ging": 2214,
      "Ġcrucial": 2215,
      "Ġfish": 2216,
      "Ġready": 2217,
      "Ġname": 2218,
      "irl": 2219,
      "Ġdraw": 2220,
      "Ġstrateg": 2221,
      "arch": 2222,
      "Ġcommunities": 2223,
      "Ġdark": 2224,
      "Ġenthusiast": 2225,
      "Ġchallenge": 2226,
      "Ġwalking": 2227,
      "Ġhope": 2228,
      "pecially": 2229,
      "reen": 2230,
      "ale": 2231,
      "aph": 2232,
      "Ġextra": 2233,
      "Ġreve": 2234,
      "Ġeth": 2235,
      "Ġmembers": 2236,
      "Ġdream": 2237,
      "eling": 2238,
      "Ġinnov": 2239,
      "Ġscient": 2240,
      "Ġnoise": 2241,
      "Ġspread": 2242,
      "Ġbuilding": 2243,
      "Ġsto": 2244,
      "Ġones": 2245,
      "ason": 2246,
      "Ġespecially": 2247,
      "Ġra": 2248,
      "Ġquestions": 2249,
      "apt": 2250,
      "oid": 2251,
      "iring": 2252,
      "Ġinsights": 2253,
      "Ġlot": 2254,
      "Ġrev": 2255,
      "Ġflew": 2256,
      "No": 2257,
      "ĠWhat": 2258,
      "Ġangry": 2259,
      "unch": 2260,
      "========": 2261,
      "Ġissues": 2262,
      "avig": 2263,
      "Ġentire": 2264,
      "Ġforg": 2265,
      "Ġcertain": 2266,
      "Ġexam": 2267,
      "ĠOver": 2268,
      "Ġshiny": 2269,
      "Ġfair": 2270,
      "Ġwise": 2271,
      "where": 2272,
      "Ġresil": 2273,
      "Ġsimple": 2274,
      "ocks": 2275,
      "Ġlisten": 2276,
      "dom": 2277,
      "Ġbreak": 2278,
      "ustr": 2279,
      "duc": 2280,
      "Ġdou": 2281,
      "Ġappe": 2282,
      "Ġdiscussing": 2283,
      "Ġparley": 2284,
      "Ġlevel": 2285,
      "Ġwait": 2286,
      "Ġpretty": 2287,
      "Ġopportunities": 2288,
      "Ġtoday": 2289,
      "ote": 2290,
      "Ġident": 2291,
      "Ġbooks": 2292,
      "Ġcrit": 2293,
      "Ġfollowed": 2294,
      "lease": 2295,
      "chie": 2296,
      "oose": 2297,
      "coming": 2298,
      "Ġsocial": 2299,
      "Ġord": 2300,
      "Ġchildren": 2301,
      "rigued": 2302,
      "uce": 2303,
      "ems": 2304,
      "Ġbond": 2305,
      "more": 2306,
      "aterial": 2307,
      "Ġensuring": 2308,
      "Ġdoll": 2309,
      "Ġrabbit": 2310,
      "erc": 2311,
      "esh": 2312,
      "Ġempathy": 2313,
      "ger": 2314,
      "Ġlives": 2315,
      "icated": 2316,
      "ĠPro": 2317,
      "Ġfinding": 2318,
      "Ġactiv": 2319,
      "hel": 2320,
      "Ġant": 2321,
      "irt": 2322,
      "Ġresources": 2323,
      "Ġknowing": 2324,
      "Ġbalance": 2325,
      "Ġgetting": 2326,
      "lu": 2327,
      "Ġhidden": 2328,
      "esit": 2329,
      "ĠReddit": 2330,
      "Ġchec": 2331,
      "ĠRem": 2332,
      "hod": 2333,
      "ĠLet": 2334,
      "Ġthing": 2335,
      "Ġindividual": 2336,
      "asing": 2337,
      "eness": 2338,
      "Ġleaving": 2339,
      "Ġcut": 2340,
      "Ġcolors": 2341,
      "bo": 2342,
      "Ġflowers": 2343,
      "Ġhesit": 2344,
      "ases": 2345,
      "Ġaccess": 2346,
      "illy": 2347,
      "Ġcolle": 2348,
      "Ġapproach": 2349,
      "Ġsitu": 2350,
      "Ġfree": 2351,
      "Ġ6": 2352,
      "rel": 2353,
      "Ġdiscover": 2354,
      "Ġpress": 2355,
      "pos": 2356,
      "ify": 2357,
      "elebr": 2358,
      "ummy": 2359,
      "Ġclimb": 2360,
      "Ġscience": 2361,
      "Ġwhenever": 2362,
      "oes": 2363,
      "ĠDad": 2364,
      "Ġwalk": 2365,
      "ĠAr": 2366,
      "Ġparents": 2367,
      "ĠMaya": 2368,
      "ĠLittle": 2369,
      "Ġpaper": 2370,
      "Ġcho": 2371,
      "Ġdata": 2372,
      "ior": 2373,
      "uing": 2374,
      "Ġregarding": 2375,
      "ĠSome": 2376,
      "Ġcent": 2377,
      "Ġtwist": 2378,
      "Ġchanges": 2379,
      "acks": 2380,
      "Ġnat": 2381,
      "ails": 2382,
      "Ġsupp": 2383,
      "Ġmanaged": 2384,
      "ones": 2385,
      "Ġmult": 2386,
      "Ġhair": 2387,
      "Ġpassed": 2388,
      "Ġer": 2389,
      "onstr": 2390,
      "Ġflo": 2391,
      "Ġmyst": 2392,
      "lt": 2393,
      "Ġwis": 2394,
      "Ġseemingly": 2395,
      "Ġpossible": 2396,
      "Ġsou": 2397,
      "Ġcomes": 2398,
      "Ġsym": 2399,
      "Ġnavig": 2400,
      "ateful": 2401,
      "Ġattention": 2402,
      "ĠJane": 2403,
      "Ġtrav": 2404,
      "Ġnews": 2405,
      "Ġcoming": 2406,
      "Ġweeks": 2407,
      "Ġphys": 2408,
      "Ġaddress": 2409,
      "Ġmeaning": 2410,
      "Ġtem": 2411,
      "Ġpiece": 2412,
      "Ġdress": 2413,
      "Ġcharac": 2414,
      "Ġdig": 2415,
      "iques": 2416,
      "Ġspace": 2417,
      "Ġwin": 2418,
      "Ġleading": 2419,
      "Ġcelebr": 2420,
      "Ġstopped": 2421,
      "comm": 2422,
      "noon": 2423,
      "ains": 2424,
      "Ġprec": 2425,
      "ĠPl": 2426,
      "ĠÃ¢": 2427,
      "imately": 2428,
      "sc": 2429,
      "arr": 2430,
      "Ġadded": 2431,
      "Ġafternoon": 2432,
      "head": 2433,
      "Ġgames": 2434,
      "00": 2435,
      "agement": 2436,
      "ĠCl": 2437,
      "pson": 2438,
      "Ġeduc": 2439,
      "Ġbas": 2440,
      "ensive": 2441,
      "Ġdev": 2442,
      "Ġresilience": 2443,
      "ĠMommy": 2444,
      "Ġmis": 2445,
      "pres": 2446,
      "Ġhon": 2447,
      "Ġmaterial": 2448,
      "utes": 2449,
      "Ġevents": 2450,
      "medi": 2451,
      "Ġopportunity": 2452,
      "ech": 2453,
      "Ġinterests": 2454,
      "Ġlive": 2455,
      "Ġasking": 2456,
      "attern": 2457,
      "Ġlistened": 2458,
      "ĠThompson": 2459,
      "Ġspe": 2460,
      "inal": 2461,
      "Ġmeas": 2462,
      "Well": 2463,
      "gram": 2464,
      "oved": 2465,
      "Ġtechnology": 2466,
      "acher": 2467,
      "ĠZ": 2468,
      "Ġstrange": 2469,
      "ĠMaria": 2470,
      "Ġbirds": 2471,
      "Ġmethod": 2472,
      "Ġfig": 2473,
      "Ġreach": 2474,
      "Ġcausing": 2475,
      "Ġcam": 2476,
      "Ġanyone": 2477,
      "Ġwood": 2478,
      "Ġcapt": 2479,
      "olly": 2480,
      "Ġsurround": 2481,
      "Ġcollaboration": 2482,
      "Ġap": 2483,
      "ĠEven": 2484,
      "Ġyear": 2485,
      "ert": 2486,
      "Ġmonths": 2487,
      "Ġalone": 2488,
      "Ġspot": 2489,
      "cul": 2490,
      "Ġtouch": 2491,
      "Ġprogram": 2492,
      "lder": 2493,
      "Ġbroad": 2494,
      "play": 2495,
      "Ġview": 2496,
      "ĠJake": 2497,
      "Ġcook": 2498,
      "Ġprovide": 2499,
      "erving": 2500,
      "Ġaspect": 2501,
      "Ġdin": 2502,
      "Ġstood": 2503,
      "alls": 2504,
      "Ġseen": 2505,
      "iously": 2506,
      "iversity": 2507,
      "Ġcatch": 2508,
      "Ġinitially": 2509,
      "ode": 2510,
      "Ġquite": 2511,
      "Ġideas": 2512,
      "Ġtrees": 2513,
      "Ġfire": 2514,
      "Ġoffered": 2515,
      "Ġdemonstr": 2516,
      "Ġpattern": 2517,
      "Ġrunning": 2518,
      "rew": 2519,
      "Ġremained": 2520,
      "Ġlim": 2521,
      "Ġspir": 2522,
      "Ġgirl": 2523,
      "Ġincluding": 2524,
      "Ġsmo": 2525,
      "Ġbenef": 2526,
      "Ġorig": 2527,
      "Ġconnection": 2528,
      "Ġsand": 2529,
      "Ġcaught": 2530,
      "Ġtast": 2531,
      "Ġwrong": 2532,
      "Ġcost": 2533,
      "ĠInstead": 2534,
      "Ġanymore": 2535,
      "Ġfriendly": 2536,
      "Ġhot": 2537,
      "Ġcool": 2538,
      "ĠBr": 2539,
      "Ġquiet": 2540,
      "mer": 2541,
      "Ġimmedi": 2542,
      "Ġmist": 2543,
      "Ġstre": 2544,
      "Ġfostering": 2545,
      "ĠDuring": 2546,
      "Ġago": 2547,
      "Ġbreath": 2548,
      "Ġtow": 2549,
      "Ġgently": 2550,
      "ples": 2551,
      "Ġboy": 2552,
      "ishing": 2553,
      "âĦ": 2554,
      "âĦ¢": 2555,
      "outh": 2556,
      "Ġdelicious": 2557,
      "Ġsust": 2558,
      "sing": 2559,
      "Ġrecogn": 2560,
      "Ġinteract": 2561,
      "âĤ¬âĦ¢": 2562,
      "Ġdone": 2563,
      "Ġshap": 2564,
      "Ġunderstood": 2565,
      "Ġdeeply": 2566,
      "Ġabove": 2567,
      "Ġest": 2568,
      "Ġsleep": 2569,
      "Ġconversations": 2570,
      "ton": 2571,
      "Ġcontrol": 2572,
      "Ġbelieve": 2573,
      "ope": 2574,
      "Ġincred": 2575,
      "Ġsweet": 2576,
      "Ġlanguage": 2577,
      "Ġvalue": 2578,
      "Ġfaced": 2579,
      "Ġdeb": 2580,
      "used": 2581,
      "ude": 2582,
      "Ġnecessary": 2583,
      "Ġshout": 2584,
      "ands": 2585,
      "orpor": 2586,
      "Ġrespond": 2587,
      "ĠEveryone": 2588,
      "Ġsoci": 2589,
      "Ġbrother": 2590,
      "Ġrepres": 2591,
      "Ġbody": 2592,
      "abl": 2593,
      "Ġdecision": 2594,
      "Ġtechniques": 2595,
      "Ġwhole": 2596,
      "unny": 2597,
      "man": 2598,
      "bl": 2599,
      "ometimes": 2600,
      "Ġhit": 2601,
      "Ġintro": 2602,
      "Ġpub": 2603,
      "Ġcomplete": 2604,
      "Ġpieces": 2605,
      "ĠFr": 2606,
      "ĠSee": 2607,
      "ned": 2608,
      "Ġocc": 2609,
      "Ġcountless": 2610,
      "ĠHere": 2611,
      "Ġcoo": 2612,
      "Ġachie": 2613,
      "Ġdetermination": 2614,
      "ental": 2615,
      "ken": 2616,
      "ients": 2617,
      "Ġkey": 2618,
      "Ġmorning": 2619,
      "Ġnothing": 2620,
      "ards": 2621,
      "Thank": 2622,
      "Ġparticip": 2623,
      "idence": 2624,
      "ĠCan": 2625,
      "Ġmeant": 2626,
      "Ġreminded": 2627,
      "Ġcommit": 2628,
      "Ġimag": 2629,
      "int": 2630,
      "Ġrock": 2631,
      "Ġremembered": 2632,
      "Ġbar": 2633,
      "Ġokay": 2634,
      "Ġmut": 2635,
      "Ġneeds": 2636,
      "aries": 2637,
      "Ġmaintaining": 2638,
      "Ġfamil": 2639,
      "ged": 2640,
      "Ġfeat": 2641,
      "Ġexch": 2642,
      "Ġconcerns": 2643,
      "room": 2644,
      "Ġmere": 2645,
      "Look": 2646,
      "Ġsal": 2647,
      "Ġmoments": 2648,
      "ĠTr": 2649,
      "ither": 2650,
      "Ġphot": 2651,
      "ila": 2652,
      "Ġstri": 2653,
      "Ġreceived": 2654,
      "Ġslowly": 2655,
      "Ġris": 2656,
      "aled": 2657,
      "Ġfascinating": 2658,
      "ground": 2659,
      "gin": 2660,
      "Ġactivities": 2661,
      "the": 2662,
      "Ġask": 2663,
      "Ġamazing": 2664,
      "Ġseeking": 2665,
      "Ġwisdom": 2666,
      "Ġaction": 2667,
      "Ġworry": 2668,
      "ilt": 2669,
      "Ġlate": 2670,
      "Ġrole": 2671,
      "eep": 2672,
      "Ġfly": 2673,
      "Ġcloth": 2674,
      "haps": 2675,
      "Ġcreated": 2676,
      "ltimately": 2677,
      "son": 2678,
      "istic": 2679,
      "Ġsess": 2680,
      "Ġbutter": 2681,
      "Ġbag": 2682,
      "Ġcla": 2683,
      "Ġadvice": 2684,
      "ogr": 2685,
      "Ġmagical": 2686,
      "Ġneg": 2687,
      "Ġfix": 2688,
      "Ġworks": 2689,
      "ĠSpot": 2690,
      "Ġwoman": 2691,
      "Ġheavy": 2692,
      "Ġnumber": 2693,
      "Ġexperienc": 2694,
      "Ġwaiting": 2695,
      "Ġexciting": 2696,
      "Ġrelationships": 2697,
      "Ġsustain": 2698,
      "found": 2699,
      "isy": 2700,
      "Ġmix": 2701,
      "iverse": 2702,
      "Ġinitial": 2703,
      "Ġimm": 2704,
      "erous": 2705,
      "Ġcourse": 2706,
      "Ġauth": 2707,
      "Ġstronger": 2708,
      "hood": 2709,
      "Ġoverall": 2710,
      "Ġvibr": 2711,
      "uine": 2712,
      "Ġpeace": 2713,
      "Ġprefer": 2714,
      "Ġdedicated": 2715,
      "Ġhole": 2716,
      "Ġfresh": 2717,
      "Ġdiscovery": 2718,
      "ĠMrs": 2719,
      "Ġnatural": 2720,
      "ĠCur": 2721,
      "ancing": 2722,
      "Ġsense": 2723,
      "Ġrol": 2724,
      "ef": 2725,
      "ron": 2726,
      "Ġfil": 2727,
      "Ġaud": 2728,
      "Ġintern": 2729,
      "Ġhelping": 2730,
      "Ġpatience": 2731,
      "atic": 2732,
      "Ġanal": 2733,
      "Ġable": 2734,
      "Ġdisappoin": 2735,
      "Ġpul": 2736,
      "Why": 2737,
      "Ġtight": 2738,
      "uit": 2739,
      "Ġsuddenly": 2740,
      "Ġethical": 2741,
      "Ġthr": 2742,
      "Ġincorpor": 2743,
      "Ġtail": 2744,
      "Ġteacher": 2745,
      "Ġstudents": 2746,
      "Ġnewfound": 2747,
      "Ġeventually": 2748,
      "Ġcommon": 2749,
      "Ġhistor": 2750,
      "Ġpractices": 2751,
      "ficult": 2752,
      "Ġgenuine": 2753,
      "Ġsty": 2754,
      ":**": 2755,
      "Ġgrew": 2756,
      "oon": 2757,
      "ĠApp": 2758,
      "ĠSometimes": 2759,
      "ĠRemember": 2760,
      "Ġplants": 2761,
      "Ġinteresting": 2762,
      "Ġslide": 2763,
      "lusion": 2764,
      "Ġmach": 2765,
      "isc": 2766,
      "Ġnumbers": 2767,
      "Ġexact": 2768,
      "Ġsignificant": 2769,
      "Ġeasy": 2770,
      "Ġsearch": 2771,
      "Ġserv": 2772,
      "Ġtools": 2773,
      "ĠExc": 2774,
      "osp": 2775,
      "ze": 2776,
      "arl": 2777,
      "ĠSue": 2778,
      "Ġdifficult": 2779,
      "Ġrepresent": 2780,
      "Ġcompany": 2781,
      "ĠCons": 2782,
      "Ġadapt": 2783,
      "Ġmot": 2784,
      "Wow": 2785,
      "Ġbound": 2786,
      "Ġuser": 2787,
      "Ġweek": 2788,
      "Ġconsist": 2789,
      "Ġwon": 2790,
      "Ġinvolved": 2791,
      "Ġshop": 2792,
      "Ġdi": 2793,
      "Ġpowerful": 2794,
      "ruct": 2795,
      "lement": 2796,
      "Ġann": 2797,
      "Ġgathered": 2798,
      "Ġpush": 2799,
      "Ġtiny": 2800,
      "res": 2801,
      "Ġenh": 2802,
      "bye": 2803,
      "Ġpay": 2804,
      "Ġcold": 2805,
      "ĠAlthough": 2806,
      "Ġtraditional": 2807,
      "Ġstick": 2808,
      "time": 2809,
      "Ġpromot": 2810,
      "Ġquick": 2811,
      "Ġexpect": 2812,
      "Ġdiv": 2813,
      "ĠFe": 2814,
      "Ġwel": 2815,
      "ploy": 2816,
      "aby": 2817,
      "Ġ7": 2818,
      "ables": 2819,
      "The": 2820,
      "ules": 2821,
      "icing": 2822,
      "Ġtruck": 2823,
      "ĠJoe": 2824,
      "Ġemerg": 2825,
      "Ġline": 2826,
      "ĠNew": 2827,
      "Ġcand": 2828,
      "Ġreading": 2829,
      "Ġtall": 2830,
      "Ġrecord": 2831,
      "Ġarg": 2832,
      "Ġdam": 2833,
      "ners": 2834,
      "ĠSammy": 2835,
      "Ġfall": 2836,
      "ĠBefore": 2837,
      "Ġunus": 2838,
      "yc": 2839,
      "ument": 2840,
      "aff": 2841,
      "ĠTommy": 2842,
      "Ġcars": 2843,
      "just": 2844,
      "Ġappreciation": 2845,
      "Ġrout": 2846,
      "Lily": 2847,
      "Ġstruck": 2848,
      "Ġthinking": 2849,
      "Ġinte": 2850,
      "Ġprevent": 2851,
      "ply": 2852,
      "asm": 2853,
      "Ġfight": 2854,
      "Ġconstr": 2855,
      "isted": 2856,
      "ĠMaybe": 2857,
      "port": 2858,
      "onom": 2859,
      "Ġpuzz": 2860,
      "Ġculture": 2861,
      "ĠSe": 2862,
      "Ġice": 2863,
      "Ġsurf": 2864,
      "Ġspark": 2865,
      "Ġmarket": 2866,
      "Ġpractice": 2867,
      "Ġsmooth": 2868,
      "Ġsolutions": 2869,
      "ires": 2870,
      "Ġfit": 2871,
      "Ġmyster": 2872,
      "Ġpopular": 2873,
      "Ġwhis": 2874,
      "Ġgrabb": 2875,
      "Ġwatching": 2876,
      "dle": 2877,
      "Ġlit": 2878,
      "Ġgent": 2879,
      "enew": 2880,
      "Ġobject": 2881,
      "Ġgrass": 2882,
      "lessly": 2883,
      "Ġenjoyed": 2884,
      "atives": 2885,
      "Ġwhite": 2886,
      "Can": 2887,
      "ĠAll": 2888,
      "Ġcake": 2889,
      "aken": 2890,
      "Ġfoot": 2891,
      "Ġbehav": 2892,
      "Ġgained": 2893,
      "Ġmother": 2894,
      "Ġhowever": 2895,
      "ipp": 2896,
      "ubber": 2897,
      "Ġsafety": 2898,
      "Ġwindow": 2899,
      "Ġlooks": 2900,
      "uff": 2901,
      "Ġwouldn": 2902,
      "Ġsuccessful": 2903,
      "Ġevening": 2904,
      "Ġoptions": 2905,
      "irm": 2906,
      "Ġlarge": 2907,
      "Ġsent": 2908,
      "itten": 2909,
      "ĠJen": 2910,
      "ĠDa": 2911,
      "Ġbeloved": 2912,
      "yn": 2913,
      "Ġgoodbye": 2914,
      "atform": 2915,
      "oom": 2916,
      "Ġlonger": 2917,
      "Ġlif": 2918,
      "Ġreturned": 2919,
      "Ġimpress": 2920,
      "Ġsounds": 2921,
      "icks": 2922,
      "Ġdaily": 2923,
      "Ġmutual": 2924,
      "ĠDo": 2925,
      "Ġinflu": 2926,
      "Ġsigh": 2927,
      "Ġdish": 2928,
      "Ġsimply": 2929,
      "Ġfeed": 2930,
      "Ġunusual": 2931,
      "One": 2932,
      "Ġexerc": 2933,
      "ky": 2934,
      "assion": 2935,
      "Ġserved": 2936,
      "Ġpatterns": 2937,
      "Ġhear": 2938,
      "Ġpurs": 2939,
      "Ġdear": 2940,
      "Ġword": 2941,
      "Ġearly": 2942,
      "Ġrenew": 2943,
      "Ġfour": 2944,
      "Ġindeed": 2945,
      "ums": 2946,
      "know": 2947,
      "Ġresults": 2948,
      "Ġavail": 2949,
      "ĠSoon": 2950,
      "Ġsignificantly": 2951,
      "Ġvibrant": 2952,
      "Ġbuy": 2953,
      "aming": 2954,
      "Ġboat": 2955,
      "Ġjumped": 2956,
      "Ġgentle": 2957,
      "Ġvalues": 2958,
      "Ġcultural": 2959,
      "Ġconcept": 2960,
      "Ġaccord": 2961,
      "let": 2962,
      "Ġcontinue": 2963,
      "Ġprovided": 2964,
      "Ġdetermined": 2965,
      "Ġgrabbed": 2966,
      "Ġshort": 2967,
      "Ġforgot": 2968,
      "Ġelect": 2969,
      "ffee": 2970,
      "Ġcalcul": 2971,
      "ĠAdd": 2972,
      "Ġhealthy": 2973,
      ".âĢĿ": 2974,
      "Ġdang": 2975,
      "Ġdinner": 2976,
      "Ġmultip": 2977,
      "Ġcreativity": 2978,
      "Ġaccount": 2979,
      "Ġwild": 2980,
      "iling": 2981,
      "Ġneighbor": 2982,
      "Ġcover": 2983,
      "Ġexplor": 2984,
      "ĠExcited": 2985,
      "Ġintegr": 2986,
      "Ġindust": 2987,
      "Ġreduc": 2988,
      "Ġhor": 2989,
      "Ġthri": 2990,
      "Ġfloor": 2991,
      "Ġmention": 2992,
      "Ġperspectives": 2993,
      "whel": 2994,
      "ption": 2995,
      "ival": 2996,
      "Ġallowed": 2997,
      "Ġmaybe": 2998,
      "Ġcontent": 2999,
      "Ã©": 3000,
      "Ġbow": 3001,
      "'d": 3002,
      "ĠRef": 3003,
      "Ġstruct": 3004,
      "Ġsurprised": 3005,
      "Ġplatform": 3006,
      "Ġwondered": 3007,
      "Ġswim": 3008,
      "Ġlady": 3009,
      "Ġing": 3010,
      "ina": 3011,
      "like": 3012,
      "cient": 3013,
      "Ġteach": 3014,
      "Ġpick": 3015,
      "Ġseason": 3016,
      "Ġsparked": 3017,
      "ĠEach": 3018,
      "ipped": 3019,
      "elling": 3020,
      "Ġpropos": 3021,
      "Ġleave": 3022,
      "Ġcher": 3023,
      "Ġcarry": 3024,
      "ograph": 3025,
      "Ġpictures": 3026,
      "ray": 3027,
      "Ġleaves": 3028,
      "Ġrich": 3029,
      "cted": 3030,
      "sp": 3031,
      "Ġitems": 3032,
      "Ġyes": 3033,
      "ĠBilly": 3034,
      "Ġvol": 3035,
      "ello": 3036,
      "Ġitself": 3037,
      "Ġthoughts": 3038,
      "Ġourselves": 3039,
      "Ġpublic": 3040,
      "Ġquality": 3041,
      "Ġimplement": 3042,
      "Ġdiscussion": 3043,
      "Ġcoffee": 3044,
      "ĠNot": 3045,
      "Ġspirit": 3046,
      "Ġexactly": 3047,
      "Ġincredible": 3048,
      "Ġprev": 3049,
      "Ġmedia": 3050,
      "Ġaspects": 3051,
      "Ġmeans": 3052,
      "Ġcorner": 3053,
      "Ġthread": 3054,
      "ĠEng": 3055,
      "ellow": 3056,
      "Ġeagerly": 3057,
      "Ġregular": 3058,
      "Ġforget": 3059,
      "rect": 3060,
      "Ġimmediately": 3061,
      "Ġahead": 3062,
      "Ġunity": 3063,
      "Ġvide": 3064,
      "Ġsetting": 3065,
      "Ġcolorful": 3066,
      "Ġdelight": 3067,
      "Ġminutes": 3068,
      "land": 3069,
      "Ġmethods": 3070,
      "ĠQ": 3071,
      "Ġrequired": 3072,
      "Ġtakes": 3073,
      "miss": 3074,
      "Ġpicture": 3075,
      "iment": 3076,
      "Ġmoved": 3077,
      "ah": 3078,
      "Ġappreciate": 3079,
      "Ġwonderful": 3080,
      "Ġfield": 3081,
      "Ġareas": 3082,
      "iant": 3083,
      "Ġtrip": 3084,
      "ection": 3085,
      "Ġsecond": 3086,
      "Ġavast": 3087,
      "Ġfear": 3088,
      "Ġturns": 3089,
      "Ġcou": 3090,
      "uel": 3091,
      "Ġultimately": 3092,
      "Ġgrowing": 3093,
      "Ġbelong": 3094,
      "set": 3095,
      "reh": 3096,
      "ĠTip": 3097,
      "Ġsecret": 3098,
      "athe": 3099,
      "Ġprofound": 3100,
      "Ġabs": 3101,
      "Ġill": 3102,
      "Ġchallenging": 3103,
      "Ġnet": 3104,
      "aid": 3105,
      "Ġappear": 3106,
      "Ġhigher": 3107,
      "istance": 3108,
      "Ġfinished": 3109,
      "Ġtravel": 3110,
      "Ġpassionate": 3111,
      "olving": 3112,
      "Ġrele": 3113,
      "Ġsens": 3114,
      "Ġglad": 3115,
      "Mom": 3116,
      "sh": 3117,
      "Ġnut": 3118,
      "Ġspoke": 3119,
      "Ġprior": 3120,
      "icip": 3121,
      "Ġcas": 3122,
      "par": 3123,
      "Ġfunct": 3124,
      "Ġfa": 3125,
      "Ġpolit": 3126,
      "Ġdoc": 3127,
      "Ġsum": 3128,
      "Ġtour": 3129,
      "bb": 3130,
      "ator": 3131,
      "anding": 3132,
      "Ġbutterf": 3133,
      "Ġeffort": 3134,
      "Ġrecomm": 3135,
      "Ġsaying": 3136,
      ".'": 3137,
      "Ġgrateful": 3138,
      "Ġdest": 3139,
      "Ġoriginal": 3140,
      "Ġmaterials": 3141,
      "ĠSeeing": 3142,
      "Ġmov": 3143,
      "Ġintroduc": 3144,
      "Ġarea": 3145,
      "ĠDaisy": 3146,
      "Ġdry": 3147,
      "Ġ=": 3148,
      "Ġresponsibility": 3149,
      "Ġpet": 3150,
      "Ġworried": 3151,
      "Ġaccur": 3152,
      "eter": 3153,
      "Ġexist": 3154,
      "Ġsett": 3155,
      "Ġscientific": 3156,
      "Ġplot": 3157,
      "Ġprofessional": 3158,
      "Ġplaces": 3159,
      "Ġinspired": 3160,
      "ians": 3161,
      "Ġriver": 3162,
      "Ġpromised": 3163,
      "ĠLila": 3164,
      "ĠGuideline": 3165,
      "Ġshouted": 3166,
      "back": 3167,
      "Ġmeaningful": 3168,
      "Ġcross": 3169,
      "Ġbroadside": 3170,
      "Ġappeared": 3171,
      "ball": 3172,
      "ĠMore": 3173,
      "Ġgrad": 3174,
      "ocked": 3175,
      "Ġtens": 3176,
      "lier": 3177,
      "Ġfunny": 3178,
      "Ġyummy": 3179,
      "Ġforever": 3180,
      "Ġthanks": 3181,
      "Ġmultiple": 3182,
      "ik": 3183,
      "Ġwide": 3184,
      "Ġfocusing": 3185,
      "ĠDe": 3186,
      "Ġproblems": 3187,
      "erve": 3188,
      "Ġtext": 3189,
      "Ġconsum": 3190,
      "Ġsong": 3191,
      "Ġlaughter": 3192,
      "Ġpoint": 3193,
      "Ġhom": 3194,
      "Ġcompassion": 3195,
      "Ġavailable": 3196,
      "ĠEmma": 3197,
      "Ġacknow": 3198,
      "ĠIntrigued": 3199,
      "illing": 3200,
      "ĠPe": 3201,
      "Ġeffic": 3202,
      "Ġlean": 3203,
      "Ġcreatures": 3204,
      "Ġlandl": 3205,
      "Ġbur": 3206,
      "Ġdiverse": 3207,
      "Ġphysical": 3208,
      "Ġhab": 3209,
      "oney": 3210,
      "Ġoper": 3211,
      "Ġintric": 3212,
      "Ġful": 3213,
      "Ġgenerations": 3214,
      "Ġtired": 3215,
      "\".": 3216,
      "val": 3217,
      "Ġskin": 3218,
      "Ġbi": 3219,
      "Ġgiven": 3220,
      "Ġsingle": 3221,
      "Ġbegin": 3222,
      "irrel": 3223,
      "ĠIm": 3224,
      "Ġfinanc": 3225,
      "ĠFeeling": 3226,
      "Ġstepped": 3227,
      "Ġsees": 3228,
      "use": 3229,
      "Ġpan": 3230,
      "Ġyellow": 3231,
      "Ġbuilt": 3232,
      "Ġske": 3233,
      "Ġet": 3234,
      "Ġemploy": 3235,
      "Ġtalking": 3236,
      "Ġreflect": 3237,
      "Ġge": 3238,
      "Ġhonest": 3239,
      "ama": 3240,
      "elled": 3241,
      "Ġhung": 3242,
      "aves": 3243,
      "idance": 3244,
      "Ġproviding": 3245,
      "mat": 3246,
      "ĠOr": 3247,
      "icy": 3248,
      "Ġstate": 3249,
      "acked": 3250,
      "Ġexperienced": 3251,
      "Ġcharacter": 3252,
      "Ġbroke": 3253,
      "Ġter": 3254,
      "not": 3255,
      "lo": 3256,
      "Ġmaster": 3257,
      "Ġguidance": 3258,
      "Ġblocks": 3259,
      "Ġanx": 3260,
      "Ġappl": 3261,
      "Ġbunny": 3262,
      "ru": 3263,
      "Ġnest": 3264,
      "Ġdisplay": 3265,
      "hand": 3266,
      "Ġhelps": 3267,
      "ified": 3268,
      "Ġcomput": 3269,
      "Ġusers": 3270,
      "Ġavoid": 3271,
      "Ġestabl": 3272,
      "Ġenthusiasm": 3273,
      "Ġate": 3274,
      "Ġlandlubber": 3275,
      "This": 3276,
      "Ġflower": 3277,
      "Ġoffering": 3278,
      "Ġexcitedly": 3279,
      "erie": 3280,
      "Ġowner": 3281,
      "Ġphone": 3282,
      "Ġur": 3283,
      "Ġactually": 3284,
      "Ġchoices": 3285,
      "Ġsnow": 3286,
      "ĠOl": 3287,
      "ĠNext": 3288,
      "ĠOnce": 3289,
      "Ġplant": 3290,
      "Ġfriendship": 3291,
      "Ġmodern": 3292,
      "pri": 3293,
      "Ġlistening": 3294,
      "Ġengine": 3295,
      "ups": 3296,
      "Ġimportantly": 3297,
      "eric": 3298,
      "Ġbelieved": 3299,
      "Ġpond": 3300,
      "Ġgiving": 3301,
      "Ġextraord": 3302,
      "aur": 3303,
      "osing": 3304,
      "Ġmarvel": 3305,
      "Ġperformance": 3306,
      "Ġsighed": 3307,
      "alf": 3308,
      "Ġwished": 3309,
      "Ġblack": 3310,
      "agon": 3311,
      "hy": 3312,
      "Ġlevels": 3313,
      "Ġsituation": 3314,
      "zy": 3315,
      "wl": 3316,
      "Ġdifference": 3317,
      "anging": 3318,
      "ches": 3319,
      "Ġamb": 3320,
      "Ġmid": 3321,
      "Ġvers": 3322,
      "Ġdirectly": 3323,
      "ĠTw": 3324,
      "Ġextraordinary": 3325,
      "Ġ8": 3326,
      "Ġperhaps": 3327,
      "ops": 3328,
      "ule": 3329,
      "ays": 3330,
      "Ġattem": 3331,
      "Ġgone": 3332,
      "Ġteaching": 3333,
      "ountain": 3334,
      "Ġsole": 3335,
      "ĠGrand": 3336,
      "Ġearlier": 3337,
      "ĠThroughout": 3338,
      "Ġparty": 3339,
      "Ġcha": 3340,
      "Ġstrategies": 3341,
      "Ġcurr": 3342,
      "mon": 3343,
      "Ġsour": 3344,
      "essed": 3345,
      "Ġparticular": 3346,
      "most": 3347,
      "Ġrequire": 3348,
      "Ġ----------------": 3349,
      "Ġcamp": 3350,
      "ushing": 3351,
      "Ġdance": 3352,
      "Ġcheck": 3353,
      "ppy": 3354,
      "Ġprepared": 3355,
      "Ġstanding": 3356,
      "Ġwit": 3357,
      "Don": 3358,
      "Ġconst": 3359,
      "Ġadventures": 3360,
      "Ġbenefits": 3361,
      "Ġhappily": 3362,
      "itude": 3363,
      "Ġbroken": 3364,
      "ĠUp": 3365,
      "isf": 3366,
      "Ġmemories": 3367,
      "Ġcollective": 3368,
      "olution": 3369,
      "Ġbaby": 3370,
      "Ġvillage": 3371,
      "ĠJohnson": 3372,
      "ware": 3373,
      "Ġfrustr": 3374,
      "ork": 3375,
      "Ġthreat": 3376,
      "Ġminim": 3377,
      "Ġlunch": 3378,
      "ĠSm": 3379,
      "Ġroad": 3380,
      "Ġmil": 3381,
      "Ġartic": 3382,
      "Ġsho": 3383,
      "itation": 3384,
      "Ġtrou": 3385,
      "Ġunf": 3386,
      "Ġsister": 3387,
      "laimed": 3388,
      "ibly": 3389,
      "Ġfascinated": 3390,
      "Ġcream": 3391,
      "Ġmum": 3392,
      "uits": 3393,
      "ready": 3394,
      "key": 3395,
      "Ġshad": 3396,
      "Ġhoping": 3397,
      "Ġwarmly": 3398,
      "Ġmouse": 3399,
      "Ġelements": 3400,
      "go": 3401,
      "Ġglob": 3402,
      "sequ": 3403,
      "Ġpour": 3404,
      "Ġrecently": 3405,
      "Ġresponsible": 3406,
      "Ġesc": 3407,
      "Ġtaken": 3408,
      "ĠSc": 3409,
      "Ġfing": 3410,
      "bloons": 3411,
      "Ġadding": 3412,
      "rehensive": 3413,
      "Ġfaster": 3414,
      "Ġbud": 3415,
      "Ġtruth": 3416,
      "Ġissue": 3417,
      "Ġbeneath": 3418,
      "eren": 3419,
      "Ġalready": 3420,
      "Ġengaging": 3421,
      "Ġpulled": 3422,
      "Ġdial": 3423,
      "Ġwaved": 3424,
      "Ġancient": 3425,
      "known": 3426,
      "Ġchance": 3427,
      "Ġdoubloons": 3428,
      "Ġhistorical": 3429,
      "Oh": 3430,
      "ges": 3431,
      "Ġfeelings": 3432,
      "ĠMon": 3433,
      "Ġrevealed": 3434,
      "Ġrelie": 3435,
      "Ġcompl": 3436,
      "iration": 3437,
      "Ġgoals": 3438,
      "Ġdoct": 3439,
      "Ġmentioned": 3440,
      "arad": 3441,
      "Ġacknowled": 3442,
      "Ġrare": 3443,
      "Ġplanning": 3444,
      "Ġign": 3445,
      "Ġaltern": 3446,
      "'.": 3447,
      "Ġtransformed": 3448,
      "ĠJim": 3449,
      "Ġsuit": 3450,
      "ĠKeep": 3451,
      "Ġcried": 3452,
      "irr": 3453,
      "Ġthank": 3454,
      "Ġstorm": 3455,
      "urity": 3456,
      "ĠUse": 3457,
      "Ġclothes": 3458,
      "Ġanimal": 3459,
      "Ġholding": 3460,
      "Ġlaw": 3461,
      "ĠFirst": 3462,
      "ĠInd": 3463,
      "Ġnon": 3464,
      "Ġpec": 3465,
      "Ġscr": 3466,
      "Ġreminder": 3467,
      "ĠAmeric": 3468,
      "Ġjoined": 3469,
      "Ġalongside": 3470,
      "owd": 3471,
      "ĠYet": 3472,
      "care": 3473,
      "Ġweight": 3474,
      "Ġvict": 3475,
      "astic": 3476,
      "Ġmagic": 3477,
      "ament": 3478,
      "Ġhopped": 3479,
      "Ġpaint": 3480,
      "Ġbug": 3481,
      "Ġworth": 3482,
      "Ġcoun": 3483,
      "Ġfinancial": 3484,
      "Ġdevelopment": 3485,
      "Ġalthough": 3486,
      "Ġoptim": 3487,
      "action": 3488,
      "ests": 3489,
      "Ġexploration": 3490,
      "Ġbeach": 3491,
      "Ġsuper": 3492,
      "Ġrules": 3493,
      "Ġble": 3494,
      "Ġoverwhel": 3495,
      "Ġcalm": 3496,
      "idge": 3497,
      "Ġreview": 3498,
      "Ġseeing": 3499,
      "Ġaccident": 3500,
      "cho": 3501,
      "Ġbackground": 3502,
      "Ġcorrect": 3503,
      "Ġmysterious": 3504,
      "Ġtrain": 3505,
      "Ġingred": 3506,
      "Ġpreserving": 3507,
      "Ġfund": 3508,
      "Ġconstruct": 3509,
      "Ġpriv": 3510,
      "Ġadjust": 3511,
      "Ġlab": 3512,
      "isions": 3513,
      "Ġparticularly": 3514,
      "Ġdifferences": 3515,
      "Ġapart": 3516,
      "roduct": 3517,
      "ocket": 3518,
      "uments": 3519,
      "Ġenvironmental": 3520,
      "Ġshar": 3521,
      "Ġboundaries": 3522,
      "Ġinclude": 3523,
      "Ġbehavior": 3524,
      "Ġmoving": 3525,
      "ceed": 3526,
      "Ġsolution": 3527,
      "Ġscreen": 3528,
      "Hello": 3529,
      "Ġskept": 3530,
      "Ġanswer": 3531,
      "ĠDet": 3532,
      "Ġchanged": 3533,
      "Ġpred": 3534,
      "Tom": 3535,
      "Ġkindness": 3536,
      "Ġparts": 3537,
      "board": 3538,
      "araderie": 3539,
      "Ġconditions": 3540,
      "Ġraised": 3541,
      "oci": 3542,
      "Ġsave": 3543,
      "Ġenthusiasts": 3544,
      "bol": 3545,
      "Ġmessage": 3546,
      "eddy": 3547,
      "ought": 3548,
      "Ġpersever": 3549,
      "Ġsatisf": 3550,
      "Ġthoughtfully": 3551,
      "Ġswing": 3552,
      "Ġcamaraderie": 3553,
      "Ġaffect": 3554,
      "icking": 3555,
      "Ġaut": 3556,
      "Ġattempt": 3557,
      "idents": 3558,
      "Ġstars": 3559,
      "Ġhat": 3560,
      "Ġallowing": 3561,
      "Ġstruggled": 3562,
      "inc": 3563,
      "uliar": 3564,
      "Ġbutterfly": 3565,
      "Ġgreater": 3566,
      "ha": 3567,
      "Ġprojects": 3568,
      "Ġlandsc": 3569,
      "Ġinvestig": 3570,
      "pose": 3571,
      "Ġnur": 3572,
      "Ġpeculiar": 3573,
      "areness": 3574,
      "Ġlikes": 3575,
      "',": 3576,
      "Ġweather": 3577,
      "Ġdedication": 3578,
      "Ġpointed": 3579,
      "Ġthoughtful": 3580,
      "rast": 3581,
      "Ġlines": 3582,
      "Ġmel": 3583,
      "Ġfacing": 3584,
      "ervation": 3585,
      "Ġfeels": 3586,
      "Ġplease": 3587,
      "Ġstarting": 3588,
      "Ġfive": 3589,
      "Ġemotions": 3590,
      "arth": 3591,
      "Ġ`": 3592,
      "ably": 3593,
      "Ġhy": 3594,
      "Ġpassions": 3595,
      "Ġeating": 3596,
      "Ġeither": 3597,
      "Ġcompan": 3598,
      "Ġbecoming": 3599,
      "Ġglass": 3600,
      "Ġspl": 3601,
      "Ġrob": 3602,
      "ĠMark": 3603,
      "Ġactions": 3604,
      "Ġintricate": 3605,
      "ffer": 3606,
      "Ġfre": 3607,
      "Ġmouth": 3608,
      "ium": 3609,
      "iod": 3610,
      "Ġalmost": 3611,
      "Ġpromoting": 3612,
      "Ġdoesn": 3613,
      "Ġmatters": 3614,
      "Ġwear": 3615,
      "Ġrenewed": 3616,
      "Ġboard": 3617,
      "Ġinnovation": 3618,
      "Ġresponse": 3619,
      "Ġtale": 3620,
      "Ġshowc": 3621,
      "Ġfinal": 3622,
      "asp": 3623,
      "Ġnotice": 3624,
      "ores": 3625,
      "Ġlibr": 3626,
      "Ġchoose": 3627,
      "Ġchose": 3628,
      "Ġtip": 3629,
      "Ġthus": 3630,
      ".,": 3631,
      "Ġband": 3632,
      "Ġwhisper": 3633,
      "Ġdetails": 3634,
      "Ġfrog": 3635,
      "Ġshel": 3636,
      "lict": 3637,
      "Ġmatch": 3638,
      "ĠAv": 3639,
      "Ġwet": 3640,
      "Ġcontribute": 3641,
      "nding": 3642,
      "Ġhadn": 3643,
      "Ġjud": 3644,
      "Ġwash": 3645,
      "Ġaccept": 3646,
      "stances": 3647,
      "arted": 3648,
      "roc": 3649,
      "Ġiniti": 3650,
      "ites": 3651,
      "ĠReg": 3652,
      "ifying": 3653,
      "ĠAmy": 3654,
      "anged": 3655,
      "Ġsessions": 3656,
      "Ġexclaimed": 3657,
      "Ġcountry": 3658,
      "Ġeconom": 3659,
      "att": 3660,
      "Ġslight": 3661,
      "Ġtur": 3662,
      "Ġtips": 3663,
      "Ġwitness": 3664,
      "Ġcustomers": 3665,
      "Ġhalf": 3666,
      "ĠCurious": 3667,
      "Ġfocused": 3668,
      "Ġride": 3669,
      "ĠWhy": 3670,
      "Ġsurface": 3671,
      "Ġnote": 3672,
      "Ġrad": 3673,
      "Ġdisappointed": 3674,
      "Ġexpert": 3675,
      "Ġincorporating": 3676,
      "Ġstress": 3677,
      "Ġstayed": 3678,
      "Ġbran": 3679,
      "ĠUnder": 3680,
      "Ġcookies": 3681,
      "Ġwish": 3682,
      "ĠReflecting": 3683,
      "Ġwaited": 3684,
      "Ġsymbol": 3685,
      "Hey": 3686,
      "Ġkeeping": 3687,
      "ster": 3688,
      "Ġtrack": 3689,
      "Ġbrows": 3690,
      "Ġstra": 3691,
      "ubb": 3692,
      "ĠPr": 3693,
      "Ġincreased": 3694,
      "Ġdiversity": 3695,
      "hec": 3696,
      "Ġelder": 3697,
      "iety": 3698,
      "Ġintroduced": 3699,
      "of": 3700,
      "Ġanaly": 3701,
      "Ġallows": 3702,
      "Ġenjoying": 3703,
      "Ġcoin": 3704,
      "ex": 3705,
      "How": 3706,
      "May": 3707,
      "Ġrace": 3708,
      "Ġanticip": 3709,
      "Ġcreative": 3710,
      "Ġsquirrel": 3711,
      "Ġsources": 3712,
      "Ġeffectively": 3713,
      "Ġveget": 3714,
      "Ġcomprom": 3715,
      "Ġsitting": 3716,
      "roduction": 3717,
      "Ġsystems": 3718,
      "Ġindustry": 3719,
      "ulations": 3720,
      "orough": 3721,
      "ĠPer": 3722,
      "Ġund": 3723,
      "Ġchaos": 3724,
      "Ġdigital": 3725,
      "Ġarch": 3726,
      "eth": 3727,
      "co": 3728,
      "Ġencountered": 3729,
      "Ġmental": 3730,
      "Ġrevel": 3731,
      "Ġmoral": 3732,
      "Ġtraining": 3733,
      "comes": 3734,
      "Ġshook": 3735,
      "Ġsolely": 3736,
      "ript": 3737,
      "comfort": 3738,
      "owned": 3739,
      "Ġold": 3740,
      "Ġver": 3741,
      "Ġecho": 3742,
      "Ġling": 3743,
      "Ġeducation": 3744,
      "owed": 3745,
      "Ġconsequ": 3746,
      "Ġwants": 3747,
      "Ġcaut": 3748,
      "aving": 3749,
      "Ġlow": 3750,
      "Ġpurch": 3751,
      "Ġstreet": 3752,
      "Ġju": 3753,
      "ĠHarm": 3754,
      "usive": 3755,
      "ĠPeople": 3756,
      "Ġopp": 3757,
      "aks": 3758,
      "Ġstraight": 3759,
      "Ġadvers": 3760,
      "icul": 3761,
      "Ġconnected": 3762,
      "Ġtasks": 3763,
      "ĠDon": 3764,
      "Ġpink": 3765,
      "Ġoffic": 3766,
      "Ġmerely": 3767,
      "Ġple": 3768,
      "Ġfactors": 3769,
      "Ġpack": 3770,
      "Ġdreams": 3771,
      "Ġgal": 3772,
      "aughter": 3773,
      "aint": 3774,
      "Ġchair": 3775,
      "Ġhappen": 3776,
      "Ġtypes": 3777,
      "Ġrelationship": 3778,
      "ĠMolly": 3779,
      "icate": 3780,
      "uge": 3781,
      "Ġweren": 3782,
      "Ġcup": 3783,
      "Ġfigure": 3784,
      "Ġdesc": 3785,
      "Ġhighlight": 3786,
      "ĠEl": 3787,
      "Ġcircum": 3788,
      "orrow": 3789,
      "osed": 3790,
      "Ġdetail": 3791,
      "Ġbigger": 3792,
      "Ġassoci": 3793,
      "Ġwebs": 3794,
      "Ġsustainable": 3795,
      "pted": 3796,
      "Ġnone": 3797,
      "Ġcollection": 3798,
      "Ġmachine": 3799,
      "Ġpracticing": 3800,
      "Ġappreciated": 3801,
      "Ġshape": 3802,
      "put": 3803,
      "ees": 3804,
      "Ġorganized": 3805,
      "?âĢĿ": 3806,
      "Ġlat": 3807,
      "Ġflying": 3808,
      "Ġtreas": 3809,
      "stac": 3810,
      "Ġdialog": 3811,
      "ological": 3812,
      "Ġeverywhere": 3813,
      "Ġformed": 3814,
      "Ġfront": 3815,
      "Ġgift": 3816,
      "rit": 3817,
      "Ġcolleag": 3818,
      "Ġconflict": 3819,
      "ĠThough": 3820,
      "Ġturning": 3821,
      "Ġrealize": 3822,
      "ĠExpl": 3823,
      "bre": 3824,
      "ĠGe": 3825,
      "Ġmine": 3826,
      "Ġdamage": 3827,
      "Ġcompared": 3828,
      "Ġwall": 3829,
      "Ġsilence": 3830,
      "Ġstat": 3831,
      "Ġsurrounding": 3832,
      "Ġcause": 3833,
      "ĠBoth": 3834,
      "================": 3835,
      "ĠAmong": 3836,
      "Ġobstac": 3837,
      "Ġcaused": 3838,
      "anation": 3839,
      "irth": 3840,
      "gar": 3841,
      "Ġtaste": 3842,
      "Ġfamous": 3843,
      "Ġperspective": 3844,
      "overn": 3845,
      "ĠÃ": 3846,
      "rolling": 3847,
      "Ġgroups": 3848,
      "Ġexample": 3849,
      "Ġtut": 3850,
      "Ġje": 3851,
      "Ġachieve": 3852,
      "Ġcozy": 3853,
      "ipe": 3854,
      "Ġfaces": 3855,
      "odies": 3856,
      "Ġseek": 3857,
      "Ġpresented": 3858,
      "fortun": 3859,
      "Ġperseverance": 3860,
      "dd": 3861,
      "Ġhill": 3862,
      "ann": 3863,
      "Ġage": 3864,
      "Ġmanage": 3865,
      "Ġgoal": 3866,
      "Ġwhose": 3867,
      "epar": 3868,
      "Ġproposed": 3869,
      "Ġadvoc": 3870,
      "Ġcop": 3871,
      "Ġsociety": 3872,
      "orial": 3873,
      "ĠMake": 3874,
      "Ġtype": 3875,
      "Ġinnovative": 3876,
      "duce": 3877,
      "Ġprecious": 3878,
      "Ġvast": 3879,
      "view": 3880,
      "Ġhoped": 3881,
      "Ġsignificance": 3882,
      "Ġdemonstrated": 3883,
      "Ġpressure": 3884,
      "Ġseed": 3885,
      "Ġunfor": 3886,
      "Ġingredients": 3887,
      "Ġdesigned": 3888,
      "Ġperiod": 3889,
      "Ġsolid": 3890,
      "Ġauthent": 3891,
      "ibilities": 3892,
      "ana": 3893,
      "phas": 3894,
      "Ġluck": 3895,
      "Ġintently": 3896,
      "Ġsmiles": 3897,
      "Ġmaj": 3898,
      "Ġhide": 3899,
      "Ġkitch": 3900,
      "Ġcard": 3901,
      "Ġnorm": 3902,
      "Ġproducts": 3903,
      "Ġban": 3904,
      "Ġremain": 3905,
      "ications": 3906,
      "Ġcode": 3907,
      "Maybe": 3908,
      "cing": 3909,
      "Ġclou": 3910,
      "Ġguidel": 3911,
      "Ġaren": 3912,
      "ipping": 3913,
      "acking": 3914,
      "Ġfirm": 3915,
      "imate": 3916,
      "Ġoce": 3917,
      "ĠHarmony": 3918,
      "Ġpiqu": 3919,
      "Ġtemper": 3920,
      "Ġwoods": 3921,
      "Ġplayers": 3922,
      "Ġamazed": 3923,
      "Ġstruggling": 3924,
      "ators": 3925,
      "adem": 3926,
      "ulation": 3927,
      "Ġintrigued": 3928,
      "Ġcompetition": 3929,
      "Ġterm": 3930,
      "inct": 3931,
      "Ġcurrent": 3932,
      "Ġvideo": 3933,
      "Ġreality": 3934,
      "Ġemerged": 3935,
      "Ġbri": 3936,
      "Ġupd": 3937,
      "Ġaccording": 3938,
      "Ġdelicate": 3939,
      "Ġpiqued": 3940,
      "Ġwaves": 3941,
      "Ġfrequ": 3942,
      "Ġclosed": 3943,
      "Ġleaned": 3944,
      "Ġearn": 3945,
      "ciples": 3946,
      "Ġscen": 3947,
      "Ġkitchen": 3948,
      "Ġeffective": 3949,
      "Ġappropri": 3950,
      "ĠIntroduction": 3951,
      "Ġla": 3952,
      "eless": 3953,
      "ĠIs": 3954,
      "Ġfeet": 3955,
      "Ġcommitment": 3956,
      "Ġpoints": 3957,
      "Ġawareness": 3958,
      "me": 3959,
      "Ġoffice": 3960,
      "Ġstage": 3961,
      "Ġcontribut": 3962,
      "Ġprinciples": 3963,
      "Ġanswers": 3964,
      "Ġpen": 3965,
      "Ġvent": 3966,
      "Ġrein": 3967,
      "book": 3968,
      "Ġbite": 3969,
      "Ġbowl": 3970,
      "Ġhost": 3971,
      "Ġshapes": 3972,
      "Ġrequires": 3973,
      "Ġfather": 3974,
      "ĠDeterm": 3975,
      "Ġport": 3976,
      "ĠPre": 3977,
      "Ġdoctor": 3978,
      "Ġclosely": 3979,
      "Ġbott": 3980,
      "Ġadditional": 3981,
      "Ġbasket": 3982,
      "Ġhappening": 3983,
      "Ġround": 3984,
      "iable": 3985,
      "Ġspecifically": 3986,
      "Ġcomprehensive": 3987,
      "Ġhelpful": 3988,
      "Ġlog": 3989,
      "Ġcritical": 3990,
      "Ġdiscussions": 3991,
      "Ġpersist": 3992,
      "Ġdecisions": 3993,
      "ring": 3994,
      "Ġoil": 3995,
      "Ġconclusion": 3996,
      "Ġmass": 3997,
      "Ġtun": 3998,
      "Ġmission": 3999,
      "ĠBu": 4000,
      "ury": 4001,
      "iction": 4002,
      "ĠEvent": 4003,
      "Ġmanagement": 4004,
      "Ġsunlight": 4005,
      "Ġadmit": 4006,
      "Ġscary": 4007,
      "Ġeffici": 4008,
      "Ġsudden": 4009,
      "oph": 4010,
      "Ġten": 4011,
      "itor": 4012,
      "Ġstudy": 4013,
      "Ġspeed": 4014,
      "Ġmindful": 4015,
      "Ġexpectations": 4016,
      "Ġcra": 4017,
      "And": 4018,
      "eat": 4019,
      "Ġfeatures": 4020,
      "Ġinstruct": 4021,
      "Ġunlike": 4022,
      "Ġclimbed": 4023,
      "Ġtar": 4024,
      "Ġmath": 4025,
      "Ġsmaller": 4026,
      "Ġmember": 4027,
      "Ġemphas": 4028,
      "Ġtra": 4029,
      "Ġstudent": 4030,
      "Ġslightly": 4031,
      "Ġchanging": 4032,
      "Ġalike": 4033,
      "Ġsched": 4034,
      "eted": 4035,
      "Ġclub": 4036,
      "Ġstuck": 4037,
      "Ġcontact": 4038,
      "Ġcomfortable": 4039,
      "Ġattend": 4040,
      "Ġcase": 4041,
      "ades": 4042,
      "Ġshowing": 4043,
      "Ġcannot": 4044,
      "Ġability": 4045,
      "Ġelderly": 4046,
      "Ġleaders": 4047,
      "ĠPat": 4048,
      "Ġresearching": 4049,
      "Ġconsequences": 4050,
      "Ġbelief": 4051,
      "Ġhungry": 4052,
      "ĠUsing": 4053,
      "orge": 4054,
      "Ġthorough": 4055,
      "Ġegg": 4056,
      "Ġmeticul": 4057,
      "Ġlatest": 4058,
      "Ġsepar": 4059,
      "Ġdrawing": 4060,
      "Ġimproved": 4061,
      "Ġoccur": 4062,
      "Ġmovie": 4063,
      "Ġgrandma": 4064,
      "ĠChoose": 4065,
      "Ġfindings": 4066,
      "Ġforth": 4067,
      "friend": 4068,
      "Ġserve": 4069,
      "lected": 4070,
      "Ġcastle": 4071,
      "Ġdangerous": 4072,
      "Ġcircumstances": 4073,
      "Ġscatter": 4074,
      "Ġarm": 4075,
      "Ġlion": 4076,
      "ĠMary": 4077,
      "ĠInsp": 4078,
      "ĠAc": 4079,
      ",'": 4080,
      "Ġvirt": 4081,
      "Ġreminding": 4082,
      "Ġolder": 4083,
      "Ġasks": 4084,
      "Ġcast": 4085,
      "Ġtalent": 4086,
      "ĠRec": 4087,
      "Ġplanned": 4088,
      "Ġplans": 4089,
      "bled": 4090,
      "Ġvia": 4091,
      "Ġ$": 4092,
      "Ġbusy": 4093,
      "Ġcaptiv": 4094,
      "Ġengage": 4095,
      "Ġbrush": 4096,
      "elia": 4097,
      "Ġroutine": 4098,
      "Ġproved": 4099,
      "Ġproudly": 4100,
      "Ġrealizing": 4101,
      "Ġfamiliar": 4102,
      "ume": 4103,
      "ĠConsider": 4104,
      "Ġnerv": 4105,
      "ĠEventually": 4106,
      "ĠSet": 4107,
      "being": 4108,
      "Ġconsidering": 4109,
      "Ġdaughter": 4110,
      "ocol": 4111,
      "Ġattract": 4112,
      "nds": 4113,
      "Ġclouds": 4114,
      "rop": 4115,
      "pper": 4116,
      "Ġnavigate": 4117,
      "Ġsolving": 4118,
      "Ġsurv": 4119,
      "Ġalign": 4120,
      "tens": 4121,
      "oty": 4122,
      "Ġpros": 4123,
      "Ġcomputer": 4124,
      "orted": 4125,
      "Ġloss": 4126,
      "Ġended": 4127,
      "Ġtea": 4128,
      "Ġmountain": 4129,
      "Ġtension": 4130,
      "Ġspeak": 4131,
      "Ġtire": 4132,
      "Ġexperiment": 4133,
      "Ġcontain": 4134,
      "Ġembrace": 4135,
      "Ġcraf": 4136,
      "atively": 4137,
      "Ġwalls": 4138,
      "Ġbirth": 4139,
      "Ġsituations": 4140,
      "Ġsoftly": 4141,
      "Ġvisited": 4142,
      "Ġgovern": 4143,
      "Ġvisiting": 4144,
      "Ġaccidentally": 4145,
      "Ġbusinesses": 4146,
      "erved": 4147,
      "ĠProf": 4148,
      "Ġresponded": 4149,
      "Ġannoun": 4150,
      "ĠInspired": 4151,
      "Ġamount": 4152,
      "ields": 4153,
      "Ġtech": 4154,
      "Ġmistakes": 4155,
      "Ġcounter": 4156,
      "Ġerr": 4157,
      "Ġorder": 4158,
      "Ġsight": 4159,
      "Ġcustomer": 4160,
      "arsh": 4161,
      "Ġexpected": 4162,
      "Ġ9": 4163,
      "ipment": 4164,
      "arily": 4165,
      "Ġshoes": 4166,
      "pers": 4167,
      "lowing": 4168,
      "Ġ10": 4169,
      "mosp": 4170,
      "Ġfamilies": 4171,
      "Ġmagn": 4172,
      "Ġruns": 4173,
      "Ġpra": 4174,
      "ĠGreen": 4175,
      "Ġsports": 4176,
      "Ġstudying": 4177,
      "ext": 4178,
      "con": 4179,
      "Ġplatforms": 4180,
      "olved": 4181,
      "Ġharmony": 4182,
      "Ġscrolling": 4183,
      "uous": 4184,
      "Ġwriting": 4185,
      "Ġarms": 4186,
      "Ġreflecting": 4187,
      "onents": 4188,
      "ĠYou": 4189,
      "igg": 4190,
      "ĠConc": 4191,
      "Ġhesitated": 4192,
      "Ġatmosp": 4193,
      "irty": 4194,
      "Ġobsc": 4195,
      "Ġblan": 4196,
      "ĠHar": 4197,
      "mit": 4198,
      "Ġsongs": 4199,
      "Ġfan": 4200,
      "Ġtask": 4201,
      "Ġgoes": 4202,
      "Ġuns": 4203,
      "Ġdocument": 4204,
      "Ġreinfor": 4205,
      "solving": 4206,
      "Ġopin": 4207,
      "Ġnewly": 4208,
      "yle": 4209,
      "we": 4210,
      "Ġprofession": 4211,
      "ĠAmelia": 4212,
      "Ġstream": 4213,
      "Ġpatient": 4214,
      "Ġbrown": 4215,
      "Ġpull": 4216,
      "Ġtopics": 4217,
      "icism": 4218,
      "Ġpaths": 4219,
      "Ġknows": 4220,
      "epend": 4221,
      "iney": 4222,
      "lor": 4223,
      "Ġsize": 4224,
      "Ġinvited": 4225,
      "Ġbike": 4226,
      "Ġrisks": 4227,
      "Ġdropped": 4228,
      "Ġweak": 4229,
      "Ġpurpose": 4230,
      "Ġcred": 4231,
      "Ġartist": 4232,
      "Ġgaz": 4233,
      "Ġbath": 4234,
      "Ġfirsthand": 4235,
      "Ġrelax": 4236,
      "Ġfully": 4237,
      "Ġblanket": 4238,
      "Ġintrig": 4239,
      "Ġspecies": 4240,
      "Ġpoor": 4241,
      "Ġtarget": 4242,
      "rupt": 4243,
      "Ġcraft": 4244,
      "Ġgar": 4245,
      "Ġexercise": 4246,
      "Ġpuppy": 4247,
      "Ġshows": 4248,
      "Ġcollege": 4249,
      "Ġpriorit": 4250,
      "ĠEarth": 4251,
      "ĠUpon": 4252,
      "ching": 4253,
      "Ġnumerous": 4254,
      "Ġlower": 4255,
      "ella": 4256,
      "izations": 4257,
      "Ġapplic": 4258,
      "ĠJill": 4259,
      "Ġmic": 4260,
      "Ġfarmer": 4261,
      "ailed": 4262,
      "Ġgrace": 4263,
      "Ġgathering": 4264,
      "Ġfox": 4265,
      "Ġfoster": 4266,
      "Ġsilly": 4267,
      "Ġliter": 4268,
      "Ġcooking": 4269,
      "vant": 4270,
      "het": 4271,
      "orable": 4272,
      "Ġinstall": 4273,
      "ration": 4274,
      "do": 4275,
      "itionally": 4276,
      "Ġlake": 4277,
      "Ġsubject": 4278,
      "life": 4279,
      "ĠSu": 4280,
      "Ġwarn": 4281,
      "Ġduck": 4282,
      "Ġadversity": 4283,
      "Ġsac": 4284,
      "Ġtransl": 4285,
      "Ġenhance": 4286,
      "Ġocean": 4287,
      "Ġglobal": 4288,
      "Ġcourage": 4289,
      "ocking": 4290,
      "Ġassociated": 4291,
      "Ġregularly": 4292,
      "Ġleads": 4293,
      "Ġpushing": 4294,
      "Ġrevelation": 4295,
      "Ġsharp": 4296,
      "Ġreput": 4297,
      "ancy": 4298,
      "Ġlights": 4299,
      "ĠSec": 4300,
      "ĠAvoid": 4301,
      "Ġbase": 4302,
      "pro": 4303,
      "ellig": 4304,
      "Ġarr": 4305,
      "hearted": 4306,
      "Ġexcess": 4307,
      "Ġartists": 4308,
      "Ġsoftware": 4309,
      "Ġaloud": 4310,
      "Ġrelated": 4311,
      "Ġgalley": 4312,
      "Ġmathe": 4313,
      "Ġstret": 4314,
      "Ġsigns": 4315,
      "Ġoccas": 4316,
      "Ġnearby": 4317,
      "Ġtap": 4318,
      "Ġobstacles": 4319,
      "Ġunw": 4320,
      "Ġheat": 4321,
      "Ġmeals": 4322,
      "Ġsolve": 4323,
      "Ġbrain": 4324,
      "ĠAlways": 4325,
      "ĠMoreover": 4326,
      "Ġrush": 4327,
      "oosing": 4328,
      "Ġcharacters": 4329,
      "Ġdaddy": 4330,
      "Ġacknowledging": 4331,
      "Ġactive": 4332,
      "Ġentered": 4333,
      "Ġcit": 4334,
      "othing": 4335,
      "Ġacadem": 4336,
      "Ġhuge": 4337,
      "lies": 4338,
      "Ġsearching": 4339,
      "Ġwaste": 4340,
      "Ġ+": 4341,
      "Ġservices": 4342,
      "Ġposition": 4343,
      "Key": 4344,
      "Ġsold": 4345,
      "Ġinvolving": 4346,
      "Ġawa": 4347,
      "Ġstruggles": 4348,
      "Ġstun": 4349,
      "Ġemotional": 4350,
      "Ġentirely": 4351,
      "Ġstaying": 4352,
      "itage": 4353,
      "Ġsuccessfully": 4354,
      "Ġheated": 4355,
      "Ġpride": 4356,
      "Ġfruits": 4357,
      "Ġcenter": 4358,
      "Ġcompletely": 4359,
      "Ġburn": 4360,
      "Ġmissing": 4361,
      "Ġregardless": 4362,
      "Ġjourn": 4363,
      "Ġauthentic": 4364,
      "Ġatmosphere": 4365,
      "Ġcultures": 4366,
      "Ġwond": 4367,
      "Ġstyle": 4368,
      "ells": 4369,
      "ĠExcitedly": 4370,
      "Ġneighborhood": 4371,
      "Ġcouple": 4372,
      "ĠCol": 4373,
      "Ġfeedback": 4374,
      "Ġthick": 4375,
      "Ġconv": 4376,
      "Ġguidelines": 4377,
      "Ġadop": 4378,
      "Ġfruit": 4379,
      "Ġnavigating": 4380,
      "ĠQu": 4381,
      "Ġaudience": 4382,
      "Ġinspiring": 4383,
      "ai": 4384,
      "Ġrecommend": 4385,
      "Ġabilities": 4386,
      "Ġhearts": 4387,
      "Ġflex": 4388,
      "Ġcod": 4389,
      "Ġgrat": 4390,
      "Ġcrowd": 4391,
      "lish": 4392,
      "Ġobscure": 4393,
      "ĠMan": 4394,
      "Ġlosing": 4395,
      "Ġbutton": 4396,
      "Ġcreation": 4397,
      "Ġamongst": 4398,
      "ndered": 4399,
      "ĠProfess": 4400,
      "Ġordinary": 4401,
      "ĠCarl": 4402,
      "Ġmeal": 4403,
      "yard": 4404,
      "Ġreson": 4405,
      "ĠMs": 4406,
      "Ġsecure": 4407,
      "Ġperfectly": 4408,
      "Ġpushed": 4409,
      "Ġcareer": 4410,
      "Ġcharm": 4411,
      "Ġmistake": 4412,
      "Ġconnecting": 4413,
      "avors": 4414,
      "Ġdil": 4415,
      "ev": 4416,
      "icon": 4417,
      "Ġrecent": 4418,
      "Ġfuel": 4419,
      "ucks": 4420,
      "Ġservice": 4421,
      "Ġsuffer": 4422,
      "Ġmeasure": 4423,
      "unting": 4424,
      "tha": 4425,
      "Ġthrew": 4426,
      "Ġstead": 4427,
      "ral": 4428,
      "Ġdishes": 4429,
      "Ġletter": 4430,
      "Ġfacts": 4431,
      "Ġsummer": 4432,
      "airs": 4433,
      "Ġinn": 4434,
      "Ġsoil": 4435,
      "Ġarmed": 4436,
      "Ġacqu": 4437,
      "Ġwomen": 4438,
      "Ġtradition": 4439,
      "Ġsociet": 4440,
      "ĠBack": 4441,
      "Ġthrow": 4442,
      "Ġaf": 4443,
      "Ġincrease": 4444,
      "Ġdust": 4445,
      "Ġexplaining": 4446,
      "Ġflour": 4447,
      "Ġconfidence": 4448,
      "Ġowl": 4449,
      "Ġleast": 4450,
      "Ġmusc": 4451,
      "udd": 4452,
      "bby": 4453,
      "ements": 4454,
      "ĠThank": 4455,
      "Ġsurprising": 4456,
      "rets": 4457,
      "Ġbonds": 4458,
      "Ġcleaning": 4459,
      "Ġreduce": 4460,
      "Ġconfid": 4461,
      "Ġexpressed": 4462,
      "Ġaddressing": 4463,
      "ĠCo": 4464,
      "Ġbriney": 4465,
      "Ġminds": 4466,
      "amil": 4467,
      "Ġhol": 4468,
      "Ġlibrary": 4469,
      "Ġassistance": 4470,
      "Ġscre": 4471,
      "oms": 4472,
      "Ġsinging": 4473,
      "ĠChr": 4474,
      "hyth": 4475,
      "Ġembarked": 4476,
      "Ġtutorial": 4477,
      "Ġclimate": 4478,
      "ĠId": 4479,
      "stand": 4480,
      "ĠComp": 4481,
      "iving": 4482,
      "Ġfilm": 4483,
      "Ġeasier": 4484,
      "Ġconsidered": 4485,
      "Ġther": 4486,
      "Ġwrite": 4487,
      "ĠInside": 4488,
      "Ġpaid": 4489,
      "Ġteddy": 4490,
      "Ġcontem": 4491,
      "Ġpeaceful": 4492,
      "ĠHarmonyville": 4493,
      "Ġstreets": 4494,
      "ooking": 4495,
      "Ġtoward": 4496,
      "reate": 4497,
      "Ġfighting": 4498,
      "Ġquir": 4499,
      "ĠMartha": 4500,
      "Ġheritage": 4501,
      "Ġdelved": 4502,
      "Ġfest": 4503,
      "Ġpocket": 4504,
      "Ġ20": 4505,
      "Ġequipment": 4506,
      "Ġrocks": 4507,
      "Ġwonders": 4508,
      "iveness": 4509,
      "ĠYork": 4510,
      "echan": 4511,
      "Ġnarr": 4512,
      "Ġcreature": 4513,
      "Ġpretend": 4514,
      "Ġactivity": 4515,
      "Ġencouraged": 4516,
      "Ġseasoned": 4517,
      "ĠAdditionally": 4518,
      "heck": 4519,
      "Ġmanaging": 4520,
      "ĠWho": 4521,
      "ĠAI": 4522,
      "water": 4523,
      "Ġwar": 4524,
      "pe": 4525,
      "Ġrevealing": 4526,
      "Ġreaching": 4527,
      "Ġdistance": 4528,
      "Ġneck": 4529,
      "Ġresist": 4530,
      "Ġworksh": 4531,
      "osen": 4532,
      "ĠAcc": 4533,
      "Ġprompt": 4534,
      "Ġdiscussed": 4535,
      "Ġpositively": 4536,
      "Ġafford": 4537,
      "Ġcarrying": 4538,
      "fortunately": 4539,
      "arrass": 4540,
      "Ġlarger": 4541,
      "Ġconsistent": 4542,
      "Ġmeasures": 4543,
      "Ġstructure": 4544,
      "Ġreducing": 4545,
      "Ġempt": 4546,
      "load": 4547,
      "Ġwearing": 4548,
      "era": 4549,
      "Ġtransport": 4550,
      "Ġrisk": 4551,
      "Ġclaim": 4552,
      "Ġcolleagues": 4553,
      "**:": 4554,
      "Ġking": 4555,
      "Ġfrag": 4556,
      "ĠSim": 4557,
      "Ġsolace": 4558,
      "unt": 4559,
      "Ġupset": 4560,
      "Sure": 4561,
      "ĠLeo": 4562,
      "Ġselect": 4563,
      "An": 4564,
      "Ġsoul": 4565,
      "ification": 4566,
      "Ġmedical": 4567,
      "Ġforum": 4568,
      "ĠGeorge": 4569,
      "Ġnotes": 4570,
      "Ġlocation": 4571,
      "Ġgratitude": 4572,
      "Ġchem": 4573,
      "Ġtears": 4574,
      "Ġtrouble": 4575,
      "Ġdrove": 4576,
      "Ġcandy": 4577,
      "Ġexh": 4578,
      "Ġuncertain": 4579,
      "ĠPract": 4580,
      "ĠGrandma": 4581,
      "Ġsecurity": 4582,
      "ench": 4583,
      "acted": 4584,
      "ĠÃĤ": 4585,
      "Ġbreaking": 4586,
      "Ġbread": 4587,
      "Ġmarveled": 4588,
      "compl": 4589,
      "Ġep": 4590,
      "ĠFol": 4591,
      "Ġharsh": 4592,
      "hold": 4593,
      "unte": 4594,
      "Ġpolic": 4595,
      "ĠMain": 4596,
      "Ġmirr": 4597,
      "Ġdoors": 4598,
      "Ġroll": 4599,
      "Ġlack": 4600,
      "Ġ--------------------------------": 4601,
      "ĠRes": 4602,
      "Ġhumans": 4603,
      "Ġpaus": 4604,
      "Ġbrill": 4605,
      "Ġstrang": 4606,
      "Ġresul": 4607,
      "Ġintellig": 4608,
      "Ġattending": 4609,
      "Ġinj": 4610,
      "icket": 4611,
      "Ġscene": 4612,
      "ĠCont": 4613,
      "Ġbackyard": 4614,
      "Ġfail": 4615,
      "Ġsession": 4616,
      "Okay": 4617,
      "Ġcitiz": 4618,
      "Ġson": 4619,
      "Ġincident": 4620,
      "Ġmodel": 4621,
      "Ġlively": 4622,
      "Ġchosen": 4623,
      "Ġtough": 4624,
      "Ġwelcome": 4625,
      "Ġdrive": 4626,
      "Ġbush": 4627,
      "Ġ19": 4628,
      "Ġarticle": 4629,
      "Ġment": 4630,
      "Ġvisual": 4631,
      "Ġfold": 4632,
      "Of": 4633,
      "Ġneighbors": 4634,
      "Ġapple": 4635,
      "Ġbrowsing": 4636,
      "ĠConclusion": 4637,
      "Ġpainting": 4638,
      "Ġhosp": 4639,
      "apes": 4640,
      "Ġseems": 4641,
      "itect": 4642,
      "Ġeasily": 4643,
      "Ġren": 4644,
      "Ġhabits": 4645,
      "Ġpreferences": 4646,
      "Ġconduct": 4647,
      "Ġwings": 4648,
      "Ġpal": 4649,
      "night": 4650,
      "Ġavid": 4651,
      "Ġmathemat": 4652,
      "Ġinteraction": 4653,
      "ĠOliver": 4654,
      "yal": 4655,
      "Ġsix": 4656,
      "Ġfine": 4657,
      "Ġmotiv": 4658,
      "Ġimplementing": 4659,
      "Ġfans": 4660,
      "Ġspaces": 4661,
      "ye": 4662,
      "ĠDis": 4663,
      "Ġdragon": 4664,
      "Ġcosts": 4665,
      "Ġindepend": 4666,
      "ĠPh": 4667,
      "Ġproving": 4668,
      "Ġmessages": 4669,
      "Ġevidence": 4670,
      "Ġsick": 4671,
      "Ġkiss": 4672,
      "Ġinvent": 4673,
      "Ġexplored": 4674,
      "elly": 4675,
      "Ġlaughing": 4676,
      "Ġgreeted": 4677,
      "Ġdecor": 4678,
      "Ġrecognized": 4679,
      "Ġcarr": 4680,
      "unk": 4681,
      "ĠTV": 4682,
      "Ġtower": 4683,
      "iff": 4684,
      "Ġreact": 4685,
      "Ġvital": 4686,
      "Ġrequest": 4687,
      "Ġinstr": 4688,
      "Ġdeliver": 4689,
      "Ġrolled": 4690,
      "Ġadventur": 4691,
      "Hi": 4692,
      "ference": 4693,
      "Ġconfident": 4694,
      "Ġdebate": 4695,
      "Ġimproving": 4696,
      "Ġswimming": 4697,
      "ycle": 4698,
      "umph": 4699,
      "Ġviol": 4700,
      "comed": 4701,
      "pa": 4702,
      "Ġloyal": 4703,
      "Ġcarried": 4704,
      "Ġrelig": 4705,
      "Ġspin": 4706,
      "Ġhearing": 4707,
      "Ġthinks": 4708,
      "Ġusual": 4709,
      "Ġvirtual": 4710,
      "Ġcutting": 4711,
      "mar": 4712,
      "ĠDaddy": 4713,
      "Ġclever": 4714,
      "Ġshift": 4715,
      "Ġforce": 4716,
      "Ġeffects": 4717,
      "Ġsus": 4718,
      "Ġproduc": 4719,
      "Ġmissed": 4720,
      "ĠWas": 4721,
      "Ġforces": 4722,
      "Ġdirty": 4723,
      "Ġpoll": 4724,
      "Ġaccompl": 4725,
      "ĠClara": 4726,
      "Ġbudget": 4727,
      "Ġextens": 4728,
      "Ġdiscovering": 4729,
      "Ġshr": 4730,
      "Ġinformed": 4731,
      "Ġqual": 4732,
      "Ġimmers": 4733,
      "Ġchat": 4734,
      "Ġspend": 4735,
      "Ġtraditions": 4736,
      "Ġdemand": 4737,
      "Ġdiet": 4738,
      "Ġapplying": 4739,
      "ĠCity": 4740,
      "Ġforums": 4741,
      "Ġlose": 4742,
      "hic": 4743,
      "Ġalternative": 4744,
      "Ġedge": 4745,
      "Ġquickly": 4746,
      "Ġwelcomed": 4747,
      "Ġlimit": 4748,
      "Ġwrote": 4749,
      "Ġidentity": 4750,
      "Ġspending": 4751,
      "Ġemail": 4752,
      "Ġempty": 4753,
      "Ġshake": 4754,
      "wise": 4755,
      "Ġapples": 4756,
      "Ġappropriate": 4757,
      "Ġmiddle": 4758,
      "Ġcheered": 4759,
      "urs": 4760,
      "Ġvegetables": 4761,
      "Ġadmired": 4762,
      "Ġorange": 4763,
      "Ġinstance": 4764,
      "Ġtax": 4765,
      "Ġconcepts": 4766,
      "Ġbuzz": 4767,
      "Ġdisag": 4768,
      "Ġmechan": 4769,
      "Ġfinish": 4770,
      "Ġlanguages": 4771,
      "Ġcontrast": 4772,
      "Ġtouched": 4773,
      "reement": 4774,
      "year": 4775,
      "making": 4776,
      "Ġsecrets": 4777,
      "Ġmonster": 4778,
      "Ġproduction": 4779,
      "Ġarchitect": 4780,
      "enty": 4781,
      "Ġfab": 4782,
      "Ġsmoothly": 4783,
      "Ġessence": 4784,
      "Ġgaming": 4785,
      "Ġnestled": 4786,
      "ĠEur": 4787,
      "ĠX": 4788,
      "Ġwhispered": 4789,
      "Ġdiscoveries": 4790,
      "Ġpotentially": 4791,
      "isa": 4792,
      "Ġnose": 4793,
      "ĠLater": 4794,
      "Ġsupporting": 4795,
      "tal": 4796,
      "friendly": 4797,
      "ĠRo": 4798,
      "Ġtack": 4799,
      "ĠMama": 4800,
      "Ġbridge": 4801,
      "oday": 4802,
      "bon": 4803,
      "Ġcheese": 4804,
      "Ġfriendships": 4805,
      "Ġlies": 4806,
      "Ġhous": 4807,
      "Ġtriumph": 4808,
      "ek": 4809,
      "Ġdealing": 4810,
      "Ġtreats": 4811,
      "Ġtailored": 4812,
      "Ġgives": 4813,
      "Ġbrings": 4814,
      "ĠThere": 4815,
      "Ġrestaur": 4816,
      "Ġrhyth": 4817,
      "Ġtalked": 4818,
      "ecessary": 4819,
      "Ġdismiss": 4820,
      "Sara": 4821,
      "Ġabsor": 4822,
      "Ġengaged": 4823,
      "Ġjo": 4824,
      "Ġskeptical": 4825,
      "Ġexchanged": 4826,
      "apers": 4827,
      "Ġseeds": 4828,
      "zing": 4829,
      "Ġpromise": 4830,
      "Ġstone": 4831,
      "Ġjar": 4832,
      "uries": 4833,
      "Ġ|": 4834,
      "Ġechoed": 4835,
      "Ġresidents": 4836,
      "ĠCar": 4837,
      "Ġreward": 4838,
      "Ġdevice": 4839,
      "ĠAmerican": 4840,
      "Ġrap": 4841,
      "Ġasp": 4842,
      "Ġestablish": 4843,
      "Mommy": 4844,
      "Ġplanet": 4845,
      "Ġremark": 4846,
      "Ġoverl": 4847,
      "Ġchick": 4848,
      "Ġhandle": 4849,
      "Ġobserving": 4850,
      "der": 4851,
      "ding": 4852,
      "Ġcherished": 4853,
      "Ġexpressing": 4854,
      "Ġprincess": 4855,
      "Ġfunction": 4856,
      "Ġinspiration": 4857,
      "cend": 4858,
      "Ġjournal": 4859,
      "Ġlayers": 4860,
      "equ": 4861,
      "Ġwellbeing": 4862,
      "Ġsustainability": 4863,
      "oint": 4864,
      "Ġvolunte": 4865,
      "Ġnap": 4866,
      "ram": 4867,
      "Ġanxiety": 4868,
      "Ġapolog": 4869,
      "Ġharmon": 4870,
      "ĠEnc": 4871,
      "---": 4872,
      "Ġmilk": 4873,
      "Ġhealthcare": 4874,
      "Ġrealization": 4875,
      "Ġbringing": 4876,
      "ube": 4877,
      "Ġauthor": 4878,
      "Ġfash": 4879,
      "ok": 4880,
      "Ġmajor": 4881,
      "Ġpig": 4882,
      "Ġheavily": 4883,
      "bow": 4884,
      "ĠWor": 4885,
      "Ġcollecting": 4886,
      "Ġfateful": 4887,
      "Ġchoice": 4888,
      "Ġupcoming": 4889,
      "Ġpages": 4890,
      "inking": 4891,
      "Ġspeaking": 4892,
      "Ġprim": 4893,
      "Ġvac": 4894,
      "ĠJimmy": 4895,
      "Ġprograms": 4896,
      "Ġtherap": 4897,
      "Ġexpertise": 4898,
      "Ġserious": 4899,
      "Ġpaused": 4900,
      "ĠEll": 4901,
      "Ġru": 4902,
      "Ġvill": 4903,
      "OK": 4904,
      "Ġsought": 4905,
      "Ġexchange": 4906,
      "Ġimagine": 4907,
      "Ġintriguing": 4908,
      "Ġguess": 4909,
      "apping": 4910,
      "Ġsafely": 4911,
      "Ġfashion": 4912,
      "Ġtopic": 4913,
      "wing": 4914,
      "Ġfairy": 4915,
      "Ġchoosing": 4916,
      "Ġfingers": 4917,
      "Ġlandscape": 4918,
      "Ġgovernment": 4919,
      "Ġdevices": 4920,
      "fast": 4921,
      "Ġballoon": 4922,
      "Ġequal": 4923,
      "rich": 4924,
      "Ġembarrass": 4925,
      "Ġspotted": 4926,
      "Ġphotos": 4927,
      "Ġshot": 4928,
      "Ġensures": 4929,
      "Ġbought": 4930,
      "Ġapplication": 4931,
      "Ġicon": 4932,
      "Ġbodies": 4933,
      "Ġpromote": 4934,
      "ashed": 4935,
      "Ġbasic": 4936,
      "Ġimprovements": 4937,
      "Ġpuzzle": 4938,
      "Ġimprovement": 4939,
      "Ġmemory": 4940,
      "Ġcrying": 4941,
      "Ġsav": 4942,
      "ĠJenny": 4943,
      "Ġpartners": 4944,
      "Ġelectric": 4945,
      "Ġpolitical": 4946,
      "ĠDan": 4947,
      "roll": 4948,
      "Ġobjects": 4949,
      "Ġfields": 4950,
      "Ġimages": 4951,
      "Ex": 4952,
      "ghter": 4953,
      "Ġgets": 4954,
      "Ġrelevant": 4955,
      "Ġcombined": 4956,
      "Ġ####": 4957,
      "Ġvowed": 4958,
      "Ġstruggle": 4959,
      "Ġpage": 4960,
      "Ġnoises": 4961,
      "Ġcontext": 4962,
      "ĠProfessor": 4963,
      "Ġhappiness": 4964,
      "Ġlone": 4965,
      "Ġcaf": 4966,
      "Ġreass": 4967,
      "amiliar": 4968,
      "Ġautom": 4969,
      "Ġentertain": 4970,
      "Ġimpressive": 4971,
      "Ġsocietal": 4972,
      "Ġintegrity": 4973,
      "olve": 4974,
      "Ġdistinct": 4975,
      "Ġstyles": 4976,
      "Ġhumanity": 4977,
      "Ġdolls": 4978,
      "Ġskill": 4979,
      "met": 4980,
      "Ġdilig": 4981,
      "ĠPet": 4982,
      "backs": 4983,
      "agers": 4984,
      "ĠDetermined": 4985,
      "Ġremains": 4986,
      "Ġroot": 4987,
      "Ġcondition": 4988,
      "ĠSur": 4989,
      "Ġinterested": 4990,
      "Ġpreparing": 4991,
      "Ġannounced": 4992,
      "aign": 4993,
      "Ġadvance": 4994,
      "Ġnurt": 4995,
      "Ġconfused": 4996,
      "Ġplaced": 4997,
      "term": 4998,
      "wich": 4999,
      "Ġpair": 5000,
      "Ġrelieved": 5001,
      "Ġhomes": 5002,
      "ĠConf": 5003,
      "Ġconstant": 5004,
      "wide": 5005,
      "Ġbirthday": 5006,
      "ĠUnfortunately": 5007,
      "aneously": 5008,
      "Ġyard": 5009,
      "Ġgol": 5010,
      "ĠJames": 5011,
      "Ġmeticulously": 5012,
      "using": 5013,
      "izes": 5014,
      "ban": 5015,
      "ĠNay": 5016,
      "urm": 5017,
      "Ġchuck": 5018,
      "iam": 5019,
      "Ġwealth": 5020,
      "ties": 5021,
      "ulner": 5022,
      "ĠSince": 5023,
      "Ġcater": 5024,
      "Ġcul": 5025,
      "Ġofficial": 5026,
      "Ġbottom": 5027,
      "Ġmill": 5028,
      "Ġopinions": 5029,
      "Ġsang": 5030,
      "uf": 5031,
      "Ġinstructions": 5032,
      "Ġgradually": 5033,
      "standing": 5034,
      "ĠGo": 5035,
      "Ġblock": 5036,
      "Ġbrilliant": 5037,
      "istics": 5038,
      "Ġthriving": 5039,
      "ifted": 5040,
      "aul": 5041,
      "Ġvehic": 5042,
      "Ġfaith": 5043,
      "Ġseries": 5044,
      "Ġsne": 5045,
      "Ġscar": 5046,
      "Ġcomponents": 5047,
      "une": 5048,
      "Ġaimed": 5049,
      "Ġeveryday": 5050,
      "Ġcitizens": 5051,
      "Ġplayer": 5052,
      "Ġcheer": 5053,
      "ource": 5054,
      "Ġresponding": 5055,
      "Ġforming": 5056,
      "ventional": 5057,
      "Ġwarmth": 5058,
      "Ġtwins": 5059,
      "Ġbench": 5060,
      "Ġorganization": 5061,
      "Ġencouraging": 5062,
      "Ġsettings": 5063,
      "Ġdetailed": 5064,
      "Ġdepending": 5065,
      "Ġwilling": 5066,
      "Ġfeaturing": 5067,
      "Ġrapid": 5068,
      "Ġsimpl": 5069,
      "otic": 5070,
      "Ġanswered": 5071,
      "Ġexcept": 5072,
      "Ġremarkable": 5073,
      "ionally": 5074,
      "Ġeleph": 5075,
      "Ġgain": 5076,
      "osystem": 5077,
      "ena": 5078,
      "Ġinspire": 5079,
      "Ġhoriz": 5080,
      "Ġbee": 5081,
      "Ġfant": 5082,
      "Ġremaining": 5083,
      "Ġsugar": 5084,
      "Ġmas": 5085,
      "Ġopening": 5086,
      "Ġhar": 5087,
      "agn": 5088,
      "Ġmixed": 5089,
      "box": 5090,
      "Ġclapped": 5091,
      "Ġadaptability": 5092,
      "Ġblood": 5093,
      "ĠExplanation": 5094,
      "Ġnetwork": 5095,
      "Ġoverwhelmed": 5096,
      "Ġshell": 5097,
      "Ġsoup": 5098,
      "Ġinnoc": 5099,
      "Ġswings": 5100,
      "Ġadvanced": 5101,
      "Ġmovement": 5102,
      "raid": 5103,
      "Ġecosystem": 5104,
      "Ġetc": 5105,
      "ĠEurope": 5106,
      "anty": 5107,
      "Ġvulner": 5108,
      "Ġsource": 5109,
      "ynam": 5110,
      "ooked": 5111,
      "Ġcampaign": 5112,
      "Ġteamwork": 5113,
      "Ġwalks": 5114,
      "word": 5115,
      "Ġfort": 5116,
      "ront": 5117,
      "Ġcombining": 5118,
      "ĠBeing": 5119,
      "Ġinteractions": 5120,
      "Ġhabit": 5121,
      "ucket": 5122,
      "Ġbelow": 5123,
      "intage": 5124,
      "Ġengagement": 5125,
      "Ġtirelessly": 5126,
      "arity": 5127,
      "inded": 5128,
      "mission": 5129,
      "Ġmoney": 5130,
      "Ġconfidently": 5131,
      "Ġwave": 5132,
      "Ġpolicies": 5133,
      "Ġparties": 5134,
      "Ġsurrounded": 5135,
      "gment": 5136,
      "Ġuncomfort": 5137,
      "gor": 5138,
      "Ġmap": 5139,
      "ĠMaintain": 5140,
      "aters": 5141,
      "Ġvalid": 5142,
      "urch": 5143,
      "Ġyog": 5144,
      "Ġjuice": 5145,
      "Ġrenowned": 5146,
      "place": 5147,
      "Ġbranch": 5148,
      "Ġexpand": 5149,
      "ultaneously": 5150,
      "Ġunn": 5151,
      "eral": 5152,
      "Ben": 5153,
      "Ġlonely": 5154,
      "My": 5155,
      "Ġhoney": 5156,
      "Ġfeather": 5157,
      "Ġchocol": 5158,
      "Do": 5159,
      "Ġdeveloped": 5160,
      "Ġhobby": 5161,
      "Ġtrio": 5162,
      "ĠOpt": 5163,
      "Ġpossess": 5164,
      "ĠDave": 5165,
      "Ġcray": 5166,
      "ĠArmed": 5167,
      "Ġletters": 5168,
      "ndering": 5169,
      "Ġphotograph": 5170,
      "Ġforms": 5171,
      "Ġregion": 5172,
      "ĠCarlos": 5173,
      "Ġnovel": 5174,
      "ĠFast": 5175,
      "bling": 5176,
      "shine": 5177,
      "ĠSus": 5178,
      "Ġsales": 5179,
      "Ġden": 5180,
      "Ġbat": 5181,
      "Ġsandwich": 5182,
      "band": 5183,
      "Ġshy": 5184,
      "ĠStart": 5185,
      "Ġimagined": 5186,
      "Ġrights": 5187,
      "Ġdu": 5188,
      "Ġtom": 5189,
      "Ġproduce": 5190,
      "Ġfence": 5191,
      "Ġstaff": 5192,
      "Ġchann": 5193,
      "ĠPar": 5194,
      "Ġshaping": 5195,
      "iance": 5196,
      "ĠSw": 5197,
      "ĠCreate": 5198,
      "Ġdriver": 5199,
      "Ġneither": 5200,
      "Ġidentify": 5201,
      "Ġreason": 5202,
      "anks": 5203,
      "Ġintense": 5204,
      "ison": 5205,
      "Ġwore": 5206,
      "Ġbrand": 5207,
      "orting": 5208,
      "Ġearth": 5209,
      "Ġappearance": 5210,
      "Ġprepar": 5211,
      "Ġdove": 5212,
      "Ġfigures": 5213,
      "Ġrecords": 5214,
      "step": 5215,
      "Ġbucket": 5216,
      "Ġstring": 5217,
      "ĠLast": 5218,
      "Ġlimited": 5219,
      "Ġlength": 5220,
      "Ġimpl": 5221,
      "Ġscur": 5222,
      "Ġdesigns": 5223,
      "Ġstrangers": 5224,
      "Ġtotal": 5225,
      "Ġwra": 5226,
      "Ġoutcomes": 5227,
      "Ġproceed": 5228,
      "andom": 5229,
      "ĠPractice": 5230,
      "Ġdirt": 5231,
      "Ġuncomfortable": 5232,
      "Ġdriving": 5233,
      "Ġstunning": 5234,
      "house": 5235,
      "Ġdebates": 5236,
      "xim": 5237,
      "Ġpointing": 5238,
      "Ġhiding": 5239,
      "ologies": 5240,
      "Ġboun": 5241,
      "Ġlegs": 5242,
      "Ġgaze": 5243,
      "Ġargued": 5244,
      "Ġrecip": 5245,
      "gle": 5246,
      "arian": 5247,
      "Ġtightly": 5248,
      "Ġtit": 5249,
      "inks": 5250,
      "Ġpurple": 5251,
      "elp": 5252,
      "Ġexec": 5253,
      "ler": 5254,
      "Ġodd": 5255,
      "Ġcreations": 5256,
      "Ġsail": 5257,
      "Ġcloud": 5258,
      "Ġseat": 5259,
      "ĠOut": 5260,
      "Ġshanty": 5261,
      "ĠEd": 5262,
      "uate": 5263,
      "ĠThomas": 5264,
      "Ġpun": 5265,
      "ĠToday": 5266,
      "ĠWill": 5267,
      "Ġunfold": 5268,
      "Ġlasting": 5269,
      "Ġlocals": 5270,
      "cious": 5271,
      "Ġ<": 5272,
      "So": 5273,
      "encies": 5274,
      "Ġaffected": 5275,
      "osure": 5276,
      "Ġkid": 5277,
      "igor": 5278,
      "peration": 5279,
      "Ġdynam": 5280,
      "Ġstructures": 5281,
      "Ġbreaks": 5282,
      "atching": 5283,
      "iers": 5284,
      "Ġdim": 5285,
      "Ġfore": 5286,
      "ĠFlu": 5287,
      "Ġroles": 5288,
      "Ġstrategy": 5289,
      "ĠComm": 5290,
      "Ġtriv": 5291,
      "lines": 5292,
      "rif": 5293,
      "Ġexisting": 5294,
      "Ġexcell": 5295,
      "Ġinvolves": 5296,
      "Ġhumor": 5297,
      "Ġvintage": 5298,
      "Ġgrown": 5299,
      "asingly": 5300,
      "Ġnegative": 5301,
      "Ġguard": 5302,
      "Ġmer": 5303,
      "Ġinterview": 5304,
      "ĠLisa": 5305,
      "going": 5306,
      "ffic": 5307,
      "roph": 5308,
      "Ġwebsite": 5309,
      "Ġunknown": 5310,
      "ox": 5311,
      "iber": 5312,
      "Ġx": 5313,
      "Ġsell": 5314,
      "ĠEnglish": 5315,
      "Ġblew": 5316,
      "Ġnames": 5317,
      "aked": 5318,
      "adow": 5319,
      "Ġafraid": 5320,
      "Ġusually": 5321,
      "Ġadventurous": 5322,
      "Ġmail": 5323,
      "aws": 5324,
      "Ġcow": 5325,
      "Ġdepend": 5326,
      "ĠCharl": 5327,
      "Ġaim": 5328,
      "Ġincreasingly": 5329,
      "Ġexercises": 5330,
      "ĠAb": 5331,
      "ipl": 5332,
      "Ġabsorb": 5333,
      "Ġworldwide": 5334,
      "Ġhorse": 5335,
      "Ġswam": 5336,
      "Ġadap": 5337,
      "Ġcompetitive": 5338,
      "Ġassist": 5339,
      "Ġwritten": 5340,
      "Ġbuildings": 5341,
      "piec": 5342,
      "Ġpoured": 5343,
      "Ġmedic": 5344,
      "Ġaccurate": 5345,
      "Ġvision": 5346,
      "Ġteams": 5347,
      "Ġinfluence": 5348,
      "gorith": 5349,
      "Ġwoke": 5350,
      "Ġeggs": 5351,
      "asy": 5352,
      "upted": 5353,
      "Ġeco": 5354,
      "ĠFred": 5355,
      "Ġdisappoint": 5356,
      "ĠPart": 5357,
      "Ġassign": 5358,
      "cepted": 5359,
      "Ġorganizations": 5360,
      "Ġapply": 5361,
      "Ġvictory": 5362,
      "Ġprotecting": 5363,
      "Ġweb": 5364,
      "Ġsect": 5365,
      "ĠAct": 5366,
      "Ġequally": 5367,
      "Ġinternet": 5368,
      "Ġprevious": 5369,
      "Ah": 5370,
      "Ġmemorable": 5371,
      "Ġrecommended": 5372,
      "Ġcoat": 5373,
      "Ġtreasures": 5374,
      "Ġsle": 5375,
      "Ġexpression": 5376,
      "Ġfrustrated": 5377,
      "ĠYes": 5378,
      "Ġfier": 5379,
      "Ġsurprises": 5380,
      "Ġappreciating": 5381,
      "Ġbul": 5382,
      "Ġhobb": 5383,
      "Ġstrengths": 5384,
      "Ġadmitted": 5385,
      "Ġmachines": 5386,
      "Ġspr": 5387,
      "Ġseam": 5388,
      "Ġsaved": 5389,
      "Ġrever": 5390,
      "Ġmonkey": 5391,
      "Ġcart": 5392,
      "Ġfile": 5393,
      "Ġdrew": 5394,
      "Ġbatter": 5395,
      "aver": 5396,
      "Ġpromising": 5397,
      "Ġmetal": 5398,
      "now": 5399,
      "Ġdifferently": 5400,
      "Ġcore": 5401,
      "Ġsevere": 5402,
      "urally": 5403,
      "Ġdistrib": 5404,
      "ĠSqu": 5405,
      "Ġdeveloping": 5406,
      "ĠTe": 5407,
      "Ġvan": 5408,
      "porary": 5409,
      "Ġrobot": 5410,
      "gu": 5411,
      "Ġdistant": 5412,
      "Ġwhere": 5413,
      "Ġgold": 5414,
      "!âĢĿ": 5415,
      "Ġhappens": 5416,
      "iate": 5417,
      "ffy": 5418,
      "Ġworkshops": 5419,
      "Ġutil": 5420,
      "minded": 5421,
      "``": 5422,
      "ĠAss": 5423,
      "Ġhus": 5424,
      "ĠBella": 5425,
      "Ġinclus": 5426,
      "ĠLook": 5427,
      "eday": 5428,
      "Ġtwink": 5429,
      "Ġsmiling": 5430,
      "ĠTime": 5431,
      "Ġpossibilities": 5432,
      "storm": 5433,
      "Ġgrab": 5434,
      "Ġcapable": 5435,
      "Ġaccepted": 5436,
      "Ġ```": 5437,
      "umble": 5438,
      "Ġprofessionals": 5439,
      "Ġroots": 5440,
      "Ġcircle": 5441,
      "ternal": 5442,
      "Ġlovely": 5443,
      "Ġpool": 5444,
      "Ġaccordingly": 5445,
      "Ġstuff": 5446,
      "Ġsomeday": 5447,
      "Ġfoods": 5448,
      "Ġshowcasing": 5449,
      "Ġlush": 5450,
      "Ġalive": 5451,
      "Ġconflicts": 5452,
      "Ġnu": 5453,
      "Ġhobbies": 5454,
      "Ġsides": 5455,
      "Ġchocolate": 5456,
      "gest": 5457,
      "ĠPri": 5458,
      "Ġpolite": 5459,
      "Ġgri": 5460,
      "cl": 5461,
      "Ġcompanies": 5462,
      "asons": 5463,
      "Ġgiant": 5464,
      "Ġrose": 5465,
      "Ġbeliefs": 5466,
      "Ġgas": 5467,
      "ĠMike": 5468,
      "olute": 5469,
      "ĠReal": 5470,
      "Ġlifest": 5471,
      "Ġbags": 5472,
      "ĠEst": 5473,
      "Ġinternational": 5474,
      "atever": 5475,
      "Ġloves": 5476,
      "Ġexplain": 5477,
      "Ġselling": 5478,
      "ĠJe": 5479,
      "urb": 5480,
      "Ġrelief": 5481,
      "Ġhugs": 5482,
      "Ġinher": 5483,
      "wood": 5484,
      "ĠTay": 5485,
      "Ġotherwise": 5486,
      "Ġdanced": 5487,
      "Ġterms": 5488,
      "inated": 5489,
      "Ġcave": 5490,
      "Ġcateg": 5491,
      "Ġmeeting": 5492,
      "Ġraced": 5493,
      "ucked": 5494,
      "Ġtomorrow": 5495,
      "ufact": 5496,
      "oogle": 5497,
      "ĠChrist": 5498,
      "Ġoption": 5499,
      "Ġdesk": 5500,
      "Ġprepare": 5501,
      "Ġcontaining": 5502,
      "Ġtrick": 5503,
      "Ġpile": 5504,
      "Ġplane": 5505,
      "Ġbooty": 5506,
      "erson": 5507,
      "azy": 5508,
      "Ġi": 5509,
      "Ġgle": 5510,
      "ĠMonths": 5511,
      "Ġunnecessary": 5512,
      "kins": 5513,
      "Ġhospital": 5514,
      "Ġgems": 5515,
      "itting": 5516,
      "Ġrhythm": 5517,
      "Ġhealthier": 5518,
      "ĠDays": 5519,
      "rospect": 5520,
      "ivil": 5521,
      "Ġsection": 5522,
      "Ġjustice": 5523,
      "rics": 5524,
      "table": 5525,
      "tic": 5526,
      "Ġguit": 5527,
      "Ġmarked": 5528,
      "abilities": 5529,
      "Ġunlikely": 5530,
      "Ġfat": 5531,
      "encil": 5532,
      "mother": 5533,
      "andy": 5534,
      "arched": 5535,
      "Ġproperly": 5536,
      "ĠTaylor": 5537,
      "ĠLife": 5538,
      "ĠMum": 5539,
      "Ġshadows": 5540,
      "Ġmad": 5541,
      "inations": 5542,
      "Ġhusband": 5543,
      "Ġir": 5544,
      "nic": 5545,
      "Ġnor": 5546,
      "Ġtesting": 5547,
      "Ġactual": 5548,
      "Ġcultiv": 5549,
      "Ġstepping": 5550,
      "Anna": 5551,
      "Ġexpensive": 5552,
      "eseen": 5553,
      "Ġconfusion": 5554,
      "Ġgest": 5555,
      "Ġcontributing": 5556,
      "Ġcelebrate": 5557,
      "Ġmeditation": 5558,
      "apan": 5559,
      "ĠFluffy": 5560,
      "Ġmeetings": 5561,
      "Ġpill": 5562,
      "Ġhealing": 5563,
      "Ġagreement": 5564,
      "Ġflavors": 5565,
      "Ġetched": 5566,
      "Ġovercome": 5567,
      "Ġserving": 5568,
      "Ġavo": 5569,
      "Ġimage": 5570,
      "Ġash": 5571,
      "ief": 5572,
      "lev": 5573,
      "atory": 5574,
      "Ġforgotten": 5575,
      "Ġbelonged": 5576,
      "Ġuncover": 5577,
      "ĠMus": 5578,
      "Ġincluded": 5579,
      "Ġmud": 5580,
      "Ġmuse": 5581,
      "Ġeconomic": 5582,
      "gen": 5583,
      "Ġprioritize": 5584,
      "itivity": 5585,
      "Ġcamera": 5586,
      "Ġdancing": 5587,
      "Ġdialogue": 5588,
      "Ġescape": 5589,
      "ĠEager": 5590,
      "vest": 5591,
      "ĠEth": 5592,
      "Ġacademic": 5593,
      "atically": 5594,
      "Ġlabel": 5595,
      "Good": 5596,
      "Ġdouble": 5597,
      "Ġteeth": 5598,
      "Ġquietly": 5599,
      "Ġcelebrating": 5600,
      "Ġtemperature": 5601,
      "Ġthous": 5602,
      "Ġtang": 5603,
      "Ġfrustration": 5604,
      "aded": 5605,
      "ĠIdent": 5606,
      "Ġlegacy": 5607,
      "Ġrates": 5608,
      "Ġwaters": 5609,
      "Ġcris": 5610,
      "Ġcomment": 5611,
      "Ġpacked": 5612,
      "Ġchemical": 5613,
      "Ġnormal": 5614,
      "ĠDisc": 5615,
      "Ġresistance": 5616,
      "ĠPeter": 5617,
      "Ġdisappe": 5618,
      "rossed": 5619,
      "Ġboo": 5620,
      "ulate": 5621,
      "Ġcute": 5622,
      "Ġsearched": 5623,
      "Ġaffecting": 5624,
      "enses": 5625,
      "Ġcontinuing": 5626,
      "Ġshining": 5627,
      "Ġorganizing": 5628,
      "Ġplate": 5629,
      "cest": 5630,
      "Ġhanded": 5631,
      "Ġyounger": 5632,
      "vert": 5633,
      "Ġnecess": 5634,
      "arrow": 5635,
      "ĠAf": 5636,
      "Ġclothing": 5637,
      "Ġgigg": 5638,
      "Ġquirky": 5639,
      "Ġrainbow": 5640,
      "Ġtasty": 5641,
      "body": 5642,
      "Ġtranspar": 5643,
      "ĠDevelop": 5644,
      "Ġprice": 5645,
      "Ġscientists": 5646,
      "Ġtrade": 5647,
      "Ġjobs": 5648,
      "ĠLike": 5649,
      "Ġplays": 5650,
      "kin": 5651,
      "Ġguided": 5652,
      "Ġconsult": 5653,
      "Ġinfluenc": 5654,
      "Ġinvestigate": 5655,
      "ĠJapan": 5656,
      "Ġmanufact": 5657,
      "Ġsite": 5658,
      "Ġrequirements": 5659,
      "Ġwinter": 5660,
      "Ġbrief": 5661,
      "Ġstop": 5662,
      "Ġthrilled": 5663,
      "oof": 5664,
      "Ġalgorith": 5665,
      "Ġende": 5666,
      "Ġunforeseen": 5667,
      "Ġpizz": 5668,
      "iation": 5669,
      "ĠNever": 5670,
      "Tim": 5671,
      "echn": 5672,
      "Ġadvant": 5673,
      "Ġwid": 5674,
      "ov": 5675,
      "tw": 5676,
      "Ġpresence": 5677,
      "Ġmarketing": 5678,
      "Ġusage": 5679,
      "Ġlucky": 5680,
      "Ġsettled": 5681,
      "Ġversion": 5682,
      "anges": 5683,
      "Ġlayer": 5684,
      "Ġdoub": 5685,
      "Ġthird": 5686,
      "Ġassum": 5687,
      "Ġtasted": 5688,
      "Ġpractical": 5689,
      "ĠRav": 5690,
      "Ġlanded": 5691,
      "Ġelephant": 5692,
      "edge": 5693,
      "Ġblend": 5694,
      "Ġartistic": 5695,
      "Ġrushed": 5696,
      "Ġjumping": 5697,
      "Ġempower": 5698,
      "ysis": 5699,
      "ĠUne": 5700,
      "Ġinput": 5701,
      "Ġcaptivating": 5702,
      "Ġmoon": 5703,
      "Ġquestioned": 5704,
      "Ġembark": 5705,
      "Ġimmediate": 5706,
      "Ġsuitable": 5707,
      "Ġunl": 5708,
      "Ġbackgrounds": 5709,
      "ĠCharlie": 5710,
      "Ġsupportive": 5711,
      "Ġstir": 5712,
      "Ġscientist": 5713,
      "Ġraw": 5714,
      "Ġreliable": 5715,
      "ĠSte": 5716,
      "Ġembarrassed": 5717,
      "Ġsetbacks": 5718,
      "Ġbloom": 5719,
      "Ġspo": 5720,
      "Ġkite": 5721,
      "Ġmusical": 5722,
      "engu": 5723,
      "Ġunited": 5724,
      "Ġbenefit": 5725,
      "ĠMany": 5726,
      "aj": 5727,
      "iors": 5728,
      "Ġserves": 5729,
      "Ġsquare": 5730,
      "Ġadult": 5731,
      "Ġfoundation": 5732,
      "Ġclasses": 5733,
      "mates": 5734,
      "Ġinclusivity": 5735,
      "Ġclearly": 5736,
      "Ġnaught": 5737,
      "Ġsubr": 5738,
      "Ġbare": 5739,
      "ĠTurn": 5740,
      "Ġcorners": 5741,
      "Ġcompromise": 5742,
      "Ġoven": 5743,
      "Ġencourage": 5744,
      "ĠLearn": 5745,
      "ĠIts": 5746,
      "ept": 5747,
      "ĠSmith": 5748,
      "tering": 5749,
      "Ġancest": 5750,
      "Ġinner": 5751,
      "Ġexhib": 5752,
      "Ġbalanced": 5753,
      "Ġbarri": 5754,
      "Ġpuzzled": 5755,
      "pre": 5756,
      "pic": 5757,
      "Ġnaughty": 5758,
      "Ġdom": 5759,
      "ags": 5760,
      "Ġfinger": 5761,
      "Ġharder": 5762,
      "Ġmystery": 5763,
      "Ġknee": 5764,
      "Ġanticipation": 5765,
      "Ġgear": 5766,
      "Ġrespectful": 5767,
      "ĠAnn": 5768,
      "aly": 5769,
      "Ġmovements": 5770,
      "rain": 5771,
      "Ġmaxim": 5772,
      "Ġleaf": 5773,
      "Ġsaving": 5774,
      "Ġwhist": 5775,
      "Ġscattered": 5776,
      "Ġfill": 5777,
      "Ġoptimal": 5778,
      "Ġimmense": 5779,
      "Ġremove": 5780,
      "Ġbaking": 5781,
      "Ġpassing": 5782,
      "Ġring": 5783,
      "Ġscurvy": 5784,
      "Ġtreatment": 5785,
      "icating": 5786,
      "erry": 5787,
      "tered": 5788,
      "Ġgrapp": 5789,
      "Ġcups": 5790,
      "Ġengrossed": 5791,
      "Ġdisaster": 5792,
      "Ġ12": 5793,
      "Ġvisitors": 5794,
      "Ġmusicians": 5795,
      "ĠOwl": 5796,
      "Ġrestaurant": 5797,
      "Ġnurturing": 5798,
      "Ġpin": 5799,
      "quality": 5800,
      "Ġemployees": 5801,
      "Ġreflected": 5802,
      "Ġminimize": 5803,
      "ĠGoogle": 5804,
      "ĠLastly": 5805,
      "ero": 5806,
      "Ġcraw": 5807,
      "Ġsurely": 5808,
      "ronic": 5809,
      "Ġimpressed": 5810,
      "Ġplastic": 5811,
      "Ġpreferred": 5812,
      "Ġworse": 5813,
      "Ġlegal": 5814,
      "Ġefficiency": 5815,
      "Ġtransformation": 5816,
      "Ġpleas": 5817,
      "Ġglow": 5818,
      "ait": 5819,
      "Ġath": 5820,
      "Ġpartner": 5821,
      "Ġweigh": 5822,
      "Ġextensive": 5823,
      "Ġtwists": 5824,
      "ĠcafÃ©": 5825,
      "Ġinvolve": 5826,
      "Ġthoroughly": 5827,
      "ictions": 5828,
      "Ġboxes": 5829,
      "Ġwashed": 5830,
      "Ġestablished": 5831,
      "osh": 5832,
      "father": 5833,
      "Ġprocesses": 5834,
      "Ġparticipants": 5835,
      "ading": 5836,
      "gy": 5837,
      "iments": 5838,
      "Ġrespecting": 5839,
      "Ġcontempl": 5840,
      "iences": 5841,
      "Ġrat": 5842,
      "Ġship": 5843,
      "Ġaccomplish": 5844,
      "Ġresource": 5845,
      "Ġeyebr": 5846,
      "itors": 5847,
      "Ġpolitics": 5848,
      "Ġfunctional": 5849,
      "Ġseparate": 5850,
      "Ġspray": 5851,
      "heartedly": 5852,
      "Ġpursuing": 5853,
      "Ġbeginning": 5854,
      "Ġdogs": 5855,
      "Ġregulations": 5856,
      "off": 5857,
      "Ġcards": 5858,
      "taking": 5859,
      "Ġsentence": 5860,
      "ĠEmp": 5861,
      "ĠPlus": 5862,
      "Ġears": 5863,
      "Ġexcellent": 5864,
      "Ġbalancing": 5865,
      "Ġhandling": 5866,
      "Ġmovies": 5867,
      "ounds": 5868,
      "Ġhesitantly": 5869,
      "Ġtechnical": 5870,
      "Ġmonth": 5871,
      "Ġjudgment": 5872,
      "Ġalb": 5873,
      "Ġrespective": 5874,
      "Ġanswering": 5875,
      "Ġmasterpiec": 5876,
      "Ġdecl": 5877,
      "ĠRed": 5878,
      "ĠSelect": 5879,
      "zed": 5880,
      "Ġminor": 5881,
      "Ġreputation": 5882,
      "Ġfreed": 5883,
      "Ġyield": 5884,
      "Ġjew": 5885,
      "Ġquestioning": 5886,
      "asped": 5887,
      "Ġpic": 5888,
      "ĠPark": 5889,
      "Ġsoap": 5890,
      "sy": 5891,
      "Ġfixed": 5892,
      "Ġeight": 5893,
      "Ġphil": 5894,
      "Ġsubtle": 5895,
      "Ġvideos": 5896,
      "ira": 5897,
      "breaking": 5898,
      "bal": 5899,
      "Ġintent": 5900,
      "Ġeducational": 5901,
      "ension": 5902,
      "ĠSch": 5903,
      "Ġhighlighting": 5904,
      "Ġquaint": 5905,
      "Ġimplications": 5906,
      "urance": 5907,
      "Ġtransportation": 5908,
      "Ġwhatever": 5909,
      "Ġsunshine": 5910,
      "keep": 5911,
      "flow": 5912,
      "atures": 5913,
      "Ġmenu": 5914,
      "Ġcomplexity": 5915,
      "ifications": 5916,
      "ĠMost": 5917,
      "Ġendless": 5918,
      "ales": 5919,
      "ĠThus": 5920,
      "Ġspots": 5921,
      "Ġbugs": 5922,
      "itary": 5923,
      "alk": 5924,
      "Ġtrends": 5925,
      "Ġleadership": 5926,
      "Ġisland": 5927,
      "ĠWhe": 5928,
      "Ġstor": 5929,
      "Ġ>": 5930,
      "Ġisol": 5931,
      "Ġsympt": 5932,
      "Ġsatisfaction": 5933,
      "Ġmisunder": 5934,
      "ĠBuild": 5935,
      "Ġflash": 5936,
      "ux": 5937,
      "ĠPan": 5938,
      "works": 5939,
      "Ġmoist": 5940,
      "Ġflood": 5941,
      "Ġmiles": 5942,
      "Ġmedicine": 5943,
      "Ġbeat": 5944,
      "Ġrid": 5945,
      "Ġdisappointment": 5946,
      "ittens": 5947,
      "que": 5948,
      "Ġtid": 5949,
      "ĠFl": 5950,
      "------------": 5951,
      "Ġprove": 5952,
      "ĠMel": 5953,
      "Ġtrusted": 5954,
      "Ġunt": 5955,
      "Ġpersistence": 5956,
      "Ġgrav": 5957,
      "Ġattent": 5958,
      "Ġexperts": 5959,
      "Ġguitar": 5960,
      "Ġspoon": 5961,
      "Ġprovides": 5962,
      "Ġrolling": 5963,
      "Ġpeers": 5964,
      "Ġwindows": 5965,
      "Ġfabric": 5966,
      "ĠCommun": 5967,
      "itious": 5968,
      "Ġdrawn": 5969,
      "Ġachieving": 5970,
      "lud": 5971,
      "Ġuncertainty": 5972,
      "Ġchances": 5973,
      "Ġstones": 5974,
      "Ġweeke": 5975,
      "Ġvoices": 5976,
      "gettable": 5977,
      "Ġwholeheartedly": 5978,
      "Ġjoining": 5979,
      "Ġannual": 5980,
      "Ġclassroom": 5981,
      "ĠBlue": 5982,
      "Ġpencil": 5983,
      "Ġcommitted": 5984,
      "ĠMarian": 5985,
      "Ġexperiencing": 5986,
      "Ġbes": 5987,
      "ĠGrog": 5988,
      "Ġreviews": 5989,
      "Ġpouring": 5990,
      "Ġtucked": 5991,
      "Ġmini": 5992,
      "ĠWar": 5993,
      "oot": 5994,
      "Ġschools": 5995,
      "Ġoverwhelming": 5996,
      "Ġstation": 5997,
      "Ġincreasing": 5998,
      "Ġdeal": 5999,
      "Ġrecognizing": 6000,
      "min": 6001,
      "Ġsensitive": 6002,
      "Ġswitch": 6003,
      "bles": 6004,
      "Ġgrandmother": 6005,
      "anting": 6006,
      "Ġethics": 6007,
      "Ġfears": 6008,
      "outs": 6009,
      "Al": 6010,
      "Ġqualities": 6011,
      "ĠCal": 6012,
      "Ġhall": 6013,
      "unched": 6014,
      "Ġmindfulness": 6015,
      "ĠMin": 6016,
      "Ġdecide": 6017,
      "ica": 6018,
      "Ġknocked": 6019,
      "Ġthousands": 6020,
      "Ġnervous": 6021,
      "Ġmattered": 6022,
      "reg": 6023,
      "Ġculinary": 6024,
      "ĠAlice": 6025,
      "Ġoverhe": 6026,
      "Ġdescrib": 6027,
      "Ġsea": 6028,
      "Ġnights": 6029,
      "ĠEncour": 6030,
      "ĠSure": 6031,
      "arking": 6032,
      "Ġrough": 6033,
      "Ġviews": 6034,
      "Ġfate": 6035,
      "Ġcoins": 6036,
      "cil": 6037,
      "Ġstaring": 6038,
      "Ġtone": 6039,
      "isms": 6040,
      "Ġspect": 6041,
      "Ġtraff": 6042,
      "ossible": 6043,
      "Ġcountries": 6044,
      "Ġparticipate": 6045,
      "Ġboys": 6046,
      "Ġpray": 6047,
      "Ġcommunicate": 6048,
      "Ġprivacy": 6049,
      "Ġsyn": 6050,
      "Ġsmell": 6051,
      "ĠTy": 6052,
      "Ġsolar": 6053,
      "Ġexistence": 6054,
      "nected": 6055,
      "Ġhour": 6056,
      "Ġstudies": 6057,
      "Ġgun": 6058,
      "Ġputting": 6059,
      "Ġideal": 6060,
      "vey": 6061,
      "Ġdelightful": 6062,
      "Ġresonated": 6063,
      "Ġcalling": 6064,
      "ĠCome": 6065,
      "ĠUnexpected": 6066,
      "Ġoutdo": 6067,
      "iently": 6068,
      "Ġmassive": 6069,
      "Ġambitious": 6070,
      "Ġlock": 6071,
      "gn": 6072,
      "ĠRep": 6073,
      "Ġsubst": 6074,
      "Ġcarbon": 6075,
      "Ġboost": 6076,
      "Ġpredic": 6077,
      "Ġham": 6078,
      "umpy": 6079,
      "Ġintelligence": 6080,
      "Ġdocuments": 6081,
      "Ġenrich": 6082,
      "Ġfancy": 6083,
      "Ġticket": 6084,
      "Ġbubb": 6085,
      "aker": 6086,
      "Ġconfron": 6087,
      "ĠRegularly": 6088,
      "Ġchildhood": 6089,
      "hab": 6090,
      "Ġenlight": 6091,
      "Ġprivate": 6092,
      "ĠKing": 6093,
      "ads": 6094,
      "Ġrecommendations": 6095,
      "Ġcorrectly": 6096,
      "Ġposted": 6097,
      "Ġbrid": 6098,
      "Ġtape": 6099,
      "Ġcoding": 6100,
      "Ġsam": 6101,
      "Ġintel": 6102,
      "Ġbell": 6103,
      "Ġhesitation": 6104,
      "Ġsounded": 6105,
      "Ġrefer": 6106,
      "Ġlandscapes": 6107,
      "Ġlifestyle": 6108,
      "ĠOther": 6109,
      "Ġreduced": 6110,
      "Ġtechnologies": 6111,
      "ĠDec": 6112,
      "Ġdrop": 6113,
      "Ġpreserve": 6114,
      "ĠSecond": 6115,
      "Ġexternal": 6116,
      "Ġvillagers": 6117,
      "Ġagree": 6118,
      "Ġremote": 6119,
      "Ġsets": 6120,
      "Ġcircles": 6121,
      "ixt": 6122,
      "...\"": 6123,
      "can": 6124,
      "ĠChe": 6125,
      "ĠPrep": 6126,
      "ĠGrad": 6127,
      "Ġrandom": 6128,
      "Ġapplications": 6129,
      "esearch": 6130,
      "Ġsuggestions": 6131,
      "Ġanalysis": 6132,
      "Ġengineer": 6133,
      "Ġquant": 6134,
      "ĠRavi": 6135,
      "Ġincredibly": 6136,
      "Ġadmiration": 6137,
      "Ġjung": 6138,
      "Ġfierce": 6139,
      "Ġinstit": 6140,
      "Ġconfessed": 6141,
      "Ġpizza": 6142,
      "Ġconservation": 6143,
      "Ġsymptoms": 6144,
      "Ġfurry": 6145,
      "Ġtensions": 6146,
      "Ġcrafting": 6147,
      "itable": 6148,
      "Ġurban": 6149,
      "ulated": 6150,
      "Ġgolden": 6151,
      "Ġtowering": 6152,
      "Ġgray": 6153,
      "Ġstability": 6154,
      "Ġduo": 6155,
      "ula": 6156,
      "Ġworlds": 6157,
      "Ġspreading": 6158,
      "Ġaside": 6159,
      "Ġrope": 6160,
      "pret": 6161,
      "Ġmagnific": 6162,
      "Ġsimultaneously": 6163,
      "Ġzoo": 6164,
      "Ġrelease": 6165,
      "ĠAfric": 6166,
      "ĠFocus": 6167,
      "Ġnarrow": 6168,
      "Ġcelebrated": 6169,
      "ession": 6170,
      "Ġchecking": 6171,
      "ĠEstabl": 6172,
      "Ġdepart": 6173,
      "Ġcompassionate": 6174,
      "based": 6175,
      "Ġfle": 6176,
      "Ġfulf": 6177,
      "ĠArt": 6178,
      "Ġconfront": 6179,
      "ĠGod": 6180,
      "Ġchicken": 6181,
      "Ġaccuracy": 6182,
      "Ġapologized": 6183,
      "Ġrise": 6184,
      "Ġlabor": 6185,
      "Ġembraced": 6186,
      "Ġdetermine": 6187,
      "nect": 6188,
      "Ġcompromising": 6189,
      "Ġhonesty": 6190,
      "Ġinsight": 6191,
      "ĠMarianne": 6192,
      "Ġstrict": 6193,
      "Ġwinning": 6194,
      "Ġdiving": 6195,
      "Ġputs": 6196,
      "Ġfewer": 6197,
      "cended": 6198,
      "Ġaware": 6199,
      "Ġclick": 6200,
      "Ġclaimed": 6201,
      "Ġresponses": 6202,
      "Ġfestival": 6203,
      "Ġventured": 6204,
      "oints": 6205,
      "Ġscenar": 6206,
      "ĠVal": 6207,
      "cent": 6208,
      "osition": 6209,
      "ĠRob": 6210,
      "Ġdialogues": 6211,
      "Ġpolice": 6212,
      "Ġnation": 6213,
      "Ġphr": 6214,
      "Ġanxious": 6215,
      "Ġharmful": 6216,
      "Ġmat": 6217,
      "Ġprices": 6218,
      "ĠWorld": 6219,
      "Ġpracticed": 6220,
      "umps": 6221,
      "Ġwooden": 6222,
      "Ġcrafted": 6223,
      "Ġpand": 6224,
      "Ġtraffic": 6225,
      "Ġclients": 6226,
      "ĠLi": 6227,
      "Ġlemon": 6228,
      "face": 6229,
      "etic": 6230,
      "Ġdemonstrating": 6231,
      "Ġincorporate": 6232,
      "Ġducks": 6233,
      "Ġfolks": 6234,
      "Ġripp": 6235,
      "Ġast": 6236,
      "Ġasleep": 6237,
      "Ġzoom": 6238,
      "ĠTechn": 6239,
      "ĠHigh": 6240,
      "ĠList": 6241,
      "000": 6242,
      "Ġresulting": 6243,
      "Ġthemes": 6244,
      "Ġlift": 6245,
      "Ġprotection": 6246,
      "Ġthrive": 6247,
      "Ġbattle": 6248,
      "Jo": 6249,
      "Ġmagnificent": 6250,
      "Ġarticles": 6251,
      "Ġassess": 6252,
      "Ġenter": 6253,
      "ĠGen": 6254,
      "Ġdecades": 6255,
      "Ġowned": 6256,
      "Ġletting": 6257,
      "ĠResearch": 6258,
      "Ġsilent": 6259,
      "Ġtechnological": 6260,
      "ording": 6261,
      "Ġhumble": 6262,
      "Ġpondered": 6263,
      "Ġinitiatives": 6264,
      "Ġholds": 6265,
      "Ġbranches": 6266,
      "Ġillustr": 6267,
      "Ġwildlife": 6268,
      "Ġiconic": 6269,
      "Ġuniversity": 6270,
      "Ġavoiding": 6271,
      "eated": 6272,
      "lings": 6273,
      "Ġmodels": 6274,
      "Ġadher": 6275,
      "Ġattempting": 6276,
      "Ġhyd": 6277,
      "lown": 6278,
      "Ġschedule": 6279,
      "ĠStay": 6280,
      "ctu": 6281,
      "rops": 6282,
      "Ġunforgettable": 6283,
      "itty": 6284,
      "Ġinviting": 6285,
      "Ġbecomes": 6286,
      "Ġcooperation": 6287,
      "down": 6288,
      "ette": 6289,
      "Ġcivil": 6290,
      "Ġapproaches": 6291,
      "Ġballs": 6292,
      "Ġnervously": 6293,
      "Ġfiles": 6294,
      "Ġreactions": 6295,
      "Ġrecall": 6296,
      "ĠMed": 6297,
      "Ġwrapped": 6298,
      "ĠIdentify": 6299,
      "eries": 6300,
      "Ġadvancements": 6301,
      "tr": 6302,
      "Ġawaited": 6303,
      "Ġimpossible": 6304,
      "Ġpreparation": 6305,
      "Ġlegend": 6306,
      "Ġintellect": 6307,
      "uch": 6308,
      "bert": 6309,
      "Is": 6310,
      "ĠAnother": 6311,
      "Ġowners": 6312,
      "inate": 6313,
      "Ġcalls": 6314,
      "ĠLoc": 6315,
      "Ġfalling": 6316,
      "Ġdram": 6317,
      "Ġpicnic": 6318,
      "Ġrecipes": 6319,
      "Ġbrighter": 6320,
      "achel": 6321,
      "Ġbreathing": 6322,
      "Ġsocc": 6323,
      "Ġgraph": 6324,
      "Ġsoccer": 6325,
      "Ġfunds": 6326,
      "Ġexcessive": 6327,
      "Ġcurve": 6328,
      "Ġdesire": 6329,
      "Ġworkers": 6330,
      "Ġreceive": 6331,
      "Ġliterature": 6332,
      "Ġwheel": 6333,
      "Ġsnake": 6334,
      "Ġcomplexities": 6335,
      "Ġteen": 6336,
      "Ġdepth": 6337,
      "Ġflavor": 6338,
      "ĠSoph": 6339,
      "Ġselecting": 6340,
      "Ġprogramming": 6341,
      "Ġparticipating": 6342,
      "ĠSoc": 6343,
      "ĠAmerica": 6344,
      "Ġdiligently": 6345,
      "ĠRel": 6346,
      "oting": 6347,
      "Ġtalented": 6348,
      "Ġbarely": 6349,
      "):": 6350,
      "azz": 6351,
      "Ġpursuit": 6352,
      "Ġphilos": 6353,
      "Ġstandards": 6354,
      "Ġdisturb": 6355,
      "Ġwitnessed": 6356,
      "ora": 6357,
      "Ġvary": 6358,
      "ius": 6359,
      "Ġborn": 6360,
      "Ġlimitations": 6361,
      "Ġpersonality": 6362,
      "umber": 6363,
      "Ġgenuinely": 6364,
      "Ġsinc": 6365,
      "Ġjungle": 6366,
      "Ġdistract": 6367,
      "ivia": 6368,
      "Ġlaws": 6369,
      "Ġinvesting": 6370,
      "Ġsib": 6371,
      "Ġefficiently": 6372,
      "Ġmob": 6373,
      "Ġclut": 6374,
      "Ġfosters": 6375,
      "Ġtact": 6376,
      "Ġuseful": 6377,
      "Ġconstruction": 6378,
      "Ġenab": 6379,
      "olt": 6380,
      "iki": 6381,
      "Ġuncon": 6382,
      "Ġdiscomfort": 6383,
      "Ġshoulder": 6384,
      "Gu": 6385,
      "Ġtent": 6386,
      "ĠJohnny": 6387,
      "ĠStr": 6388,
      "Ġperformances": 6389,
      "ĠSun": 6390,
      "Ġrange": 6391,
      "Ġcriticism": 6392,
      "inked": 6393,
      "andon": 6394,
      "Ġrelying": 6395,
      "Ġcouch": 6396,
      "Ġgrin": 6397,
      "Ġhumility": 6398,
      "Ġrewards": 6399,
      "Ġfilling": 6400,
      "aints": 6401,
      "Ġleader": 6402,
      "Ġflexibility": 6403,
      "irp": 6404,
      "anor": 6405,
      "Ġtechnique": 6406,
      "Ġheroes": 6407,
      "Ġsomewhere": 6408,
      "Ġadvocating": 6409,
      "agg": 6410,
      "ĠWhether": 6411,
      "mm": 6412,
      "ado": 6413,
      "Ġsupplies": 6414,
      "Ġpuzzles": 6415,
      "Ġentr": 6416,
      "Ġraise": 6417,
      "rench": 6418,
      "ĠInter": 6419,
      "agged": 6420,
      "Ġbreathtaking": 6421,
      "Ġguests": 6422,
      "Come": 6423,
      "Ġmysteries": 6424,
      "Ġpapers": 6425,
      "Ġwhispers": 6426,
      "ĠFrustr": 6427,
      "Ġfrequently": 6428,
      ",âĢĿ": 6429,
      "Ġlingu": 6430,
      "Ġproperty": 6431,
      "Ġyours": 6432,
      "Ġsucceed": 6433,
      "Ġconstructive": 6434,
      "Ġcomments": 6435,
      "Ġmoves": 6436,
      "Ġfreedom": 6437,
      "Ġefficient": 6438,
      "Ġyoga": 6439,
      "Ġlying": 6440,
      "Ġachievements": 6441,
      "ĠHaving": 6442,
      "Ġrequiring": 6443,
      "Ġcrayons": 6444,
      "Ġacceptance": 6445,
      "ĠWithout": 6446,
      "Ġcanc": 6447,
      "Ġoffers": 6448,
      "Ġshouldn": 6449,
      "Ġfactory": 6450,
      "Ġsend": 6451,
      "ulture": 6452,
      "ĠFollow": 6453,
      "Ġhero": 6454,
      "Ġheight": 6455,
      "ashing": 6456,
      "Ġchuckled": 6457,
      "Ġcorpor": 6458,
      "reements": 6459,
      "Ġwebsites": 6460,
      "Ġnutri": 6461,
      "Ġtransparency": 6462,
      "Ġfantastic": 6463,
      "Ġrewarding": 6464,
      "verage": 6465,
      "Ġongoing": 6466,
      "ĠRich": 6467,
      "ĠAtt": 6468,
      "Ġsnack": 6469,
      "Ġdanger": 6470,
      "elt": 6471,
      "Ġmuseum": 6472,
      "Ġsupply": 6473,
      "Ġhouses": 6474,
      "Ġrot": 6475,
      "ole": 6476,
      "ubborn": 6477,
      "Ġencouragement": 6478,
      "Ġdiscour": 6479,
      "ĠAccording": 6480,
      "Ġrefused": 6481,
      "Ġsubreddit": 6482,
      "olf": 6483,
      "haust": 6484,
      "uis": 6485,
      "Ġattempts": 6486,
      "Ġsteady": 6487,
      "uan": 6488,
      "Ġanalyzing": 6489,
      "Ġcryst": 6490,
      "tt": 6491,
      "Ġcalculated": 6492,
      "Ġsmelled": 6493,
      "Ġstatus": 6494,
      "xic": 6495,
      "vention": 6496,
      "Ġdisplayed": 6497,
      "estic": 6498,
      "Ġorganize": 6499,
      "Ġdestro": 6500,
      "Ġrepresented": 6501,
      "enguin": 6502,
      "Ġframe": 6503,
      "Ġtransforming": 6504,
      "Ġopenly": 6505,
      "Ġdesired": 6506,
      "Ġsorts": 6507,
      "umn": 6508,
      "//": 6509,
      "Ġdiagn": 6510,
      "Ġfragile": 6511,
      "Ġpraised": 6512,
      "umes": 6513,
      "Ġreflection": 6514,
      "ola": 6515,
      "Ġdw": 6516,
      "Ġgem": 6517,
      "Ġprospect": 6518,
      "Ġcaring": 6519,
      "xy": 6520,
      "Ġscreamed": 6521,
      "Ġspeech": 6522,
      "Ġfostered": 6523,
      "Ġscript": 6524,
      "Ġstubborn": 6525,
      "Ġrecognition": 6526,
      "Ġdat": 6527,
      "ĠPolly": 6528,
      "ĠSlow": 6529,
      "Ġdur": 6530,
      "Ġhang": 6531,
      "Ġshirt": 6532,
      "Ġsan": 6533,
      "Ġshaped": 6534,
      "Ġalternatives": 6535,
      "ĠPaul": 6536,
      "Ġdefin": 6537,
      "Ġtells": 6538,
      "inating": 6539,
      "ĠUS": 6540,
      "Ġcookie": 6541,
      "uddle": 6542,
      "Ġreb": 6543,
      "ĠHen": 6544,
      "ĠOp": 6545,
      "Ġflu": 6546,
      "Ġcapture": 6547,
      "Ġneat": 6548,
      "Ġnaturally": 6549,
      "Ġreveal": 6550,
      "Ġsymbols": 6551,
      "Ġwip": 6552,
      "ĠOlivia": 6553,
      "Ġgasped": 6554,
      "Ġinsect": 6555,
      "Ġbatt": 6556,
      "ructure": 6557,
      "ĠGradually": 6558,
      "Ġnegot": 6559,
      "Ġcharming": 6560,
      "Ġtrail": 6561,
      "Ġtypically": 6562,
      "Ġaccessible": 6563,
      "Ġmirror": 6564,
      "jected": 6565,
      "Ġtelling": 6566,
      "ĠImpress": 6567,
      "Ġfishing": 6568,
      "Ġmarine": 6569,
      "ĠGerm": 6570,
      "Ġsurroundings": 6571,
      "Ġtries": 6572,
      "ĠFrench": 6573,
      "repr": 6574,
      "Ġdisrupt": 6575,
      "Ġgenerous": 6576,
      "Ġconsistency": 6577,
      "Ġaccomp": 6578,
      "Ġforeign": 6579,
      "ĠCheck": 6580,
      "Ġiron": 6581,
      "Ġpollution": 6582,
      "Ġdispar": 6583,
      "Ġclock": 6584,
      "reprene": 6585,
      "apped": 6586,
      "Ġuniverse": 6587,
      "Ġposed": 6588,
      "Ġshelf": 6589,
      "Ġeval": 6590,
      "ĠAmidst": 6591,
      "Ġconsistently": 6592,
      "Ġremin": 6593,
      "Ġgender": 6594,
      "tenance": 6595,
      "ĠInc": 6596,
      "Ġsticks": 6597,
      "ouched": 6598,
      "Ġenvironments": 6599,
      "Ġdevast": 6600,
      "Ġmole": 6601,
      "acity": 6602,
      "ĠZara": 6603,
      "Ġcenturies": 6604,
      "Ġincome": 6605,
      "ficial": 6606,
      "ultural": 6607,
      "Ġperforming": 6608,
      "Ġbarriers": 6609,
      "ĠMet": 6610,
      "Ch": 6611,
      "ented": 6612,
      "esthet": 6613,
      "Ġfootball": 6614,
      "Ġfailed": 6615,
      "ĠCr": 6616,
      "Ġwife": 6617,
      "Ġmeat": 6618,
      "Ġoccurred": 6619,
      "Ġscan": 6620,
      "Ġunderest": 6621,
      "Ġ{": 6622,
      "Ġ15": 6623,
      "Ġterrit": 6624,
      "Ġabandon": 6625,
      "ilit": 6626,
      "Ġdrum": 6627,
      "Ġadapting": 6628,
      "Ġdisappeared": 6629,
      "Ġsnacks": 6630,
      "Ġoperations": 6631,
      "iations": 6632,
      "Ġtalents": 6633,
      "Ġcontinuous": 6634,
      "Ġauthenticity": 6635,
      "Ġchain": 6636,
      "Ġpolicy": 6637,
      "Ġcompleted": 6638,
      "omed": 6639,
      "Ġends": 6640,
      "Ġerrors": 6641,
      "ĠWord": 6642,
      "Ġobserved": 6643,
      "Ġstrengthen": 6644,
      "Ġsmoke": 6645,
      "Ġdawn": 6646,
      "Ġraising": 6647,
      "Ġcopy": 6648,
      "uity": 6649,
      "Ġaid": 6650,
      "ĠEthan": 6651,
      "oman": 6652,
      "When": 6653,
      "ĠMor": 6654,
      "Ġattentively": 6655,
      "bra": 6656,
      "pes": 6657,
      "Ġelev": 6658,
      "Ġtherapy": 6659,
      "Ġradio": 6660,
      "ĠJenkins": 6661,
      "Ġmuscles": 6662,
      "acter": 6663,
      "fit": 6664,
      "ĠPerhaps": 6665,
      "Ġbank": 6666,
      "Ġwisely": 6667,
      "Ġnorms": 6668,
      "Ġcrack": 6669,
      "Ġresponsibilities": 6670,
      "ĠWould": 6671,
      "Ġintertw": 6672,
      "As": 6673,
      "una": 6674,
      "Ġremo": 6675,
      "There": 6676,
      "Ġweekly": 6677,
      "Ġspider": 6678,
      "Ġench": 6679,
      "Ġbrainstorm": 6680,
      "Ġlingered": 6681,
      "Ġdarkness": 6682,
      "Ġposts": 6683,
      "Ġhighlighted": 6684,
      "Ġenhancing": 6685,
      "Ġmood": 6686,
      "Ġprote": 6687,
      "Ġtowel": 6688,
      "Ġshock": 6689,
      "ga": 6690,
      "Ġweap": 6691,
      "nesses": 6692,
      "Ġmanager": 6693,
      "Ġgarage": 6694,
      "Ġtend": 6695,
      "Ġathlet": 6696,
      "Ġgracefully": 6697,
      "Ġupdates": 6698,
      "ĠPlan": 6699,
      "Ġdaunting": 6700,
      "Ġexposure": 6701,
      "neys": 6702,
      "ÅĵI": 6703,
      "ĠBar": 6704,
      "rible": 6705,
      "Ġrevolution": 6706,
      "Ġrubb": 6707,
      "ifting": 6708,
      "Ġreinforced": 6709,
      "ww": 6710,
      "Ġbitter": 6711,
      "ĠUnderstanding": 6712,
      "Ġcuriously": 6713,
      "Ġpackage": 6714,
      "Ġliqu": 6715,
      "Ġoverheard": 6716,
      "ĠBal": 6717,
      "ĠUnderstand": 6718,
      "ĠPlease": 6719,
      "Ġod": 6720,
      "Ġjewel": 6721,
      "ĠCuriosity": 6722,
      "Ġentreprene": 6723,
      "Ġaccurately": 6724,
      "Ġlocated": 6725,
      "iter": 6726,
      "Ġconsideration": 6727,
      "matic": 6728,
      "Ġmund": 6729,
      "ĠUltimately": 6730,
      "Sam": 6731,
      ":*": 6732,
      "pet": 6733,
      "Now": 6734,
      "Ġconfronted": 6735,
      "Ġprint": 6736,
      "Did": 6737,
      "ĠMayor": 6738,
      "Ġtag": 6739,
      "Ġpersistent": 6740,
      "Ġselfish": 6741,
      "Ġproductivity": 6742,
      "Ġnarratives": 6743,
      "pless": 6744,
      "Ġinterpret": 6745,
      "Ġladder": 6746,
      "Ġcentered": 6747,
      "Ġpainted": 6748,
      "Ġschol": 6749,
      "Ġgrandfather": 6750,
      "ĠBrit": 6751,
      "ĠPen": 6752,
      "Ġtapest": 6753,
      "Ġepis": 6754,
      "Ġlimits": 6755,
      "Ġcarrots": 6756,
      "Ġforgive": 6757,
      "Ġfro": 6758,
      "Ġneckl": 6759,
      "Ġmakeup": 6760,
      "mo": 6761,
      "olutely": 6762,
      "raft": 6763,
      "Ġelusive": 6764,
      "Ġadorn": 6765,
      "Ġtreasure": 6766,
      "ĠRealizing": 6767,
      "Ġrecipe": 6768,
      "ucky": 6769,
      "Ġmotion": 6770,
      "Ġcrow": 6771,
      "Ġcasting": 6772,
      "Ġtackle": 6773,
      "Ġmundane": 6774,
      "Ġindependent": 6775,
      "Ġvend": 6776,
      "Ġmathematical": 6777,
      "Ġgroc": 6778,
      "Ġjokes": 6779,
      "Ġsnowman": 6780,
      "Ġcredit": 6781,
      "Ġunsure": 6782,
      "Ġcounting": 6783,
      "antha": 6784,
      "Ġdate": 6785,
      "Ġcab": 6786,
      "Ġviewp": 6787,
      "Ġsurvival": 6788,
      "Ġsalt": 6789,
      "Ġchimed": 6790,
      "Ġnutr": 6791,
      "Ġthreatened": 6792,
      "Ġunconventional": 6793,
      "Ġreligious": 6794,
      "Ġconcer": 6795,
      "ĠBrown": 6796,
      "enom": 6797,
      "Ġshore": 6798,
      "ĠNational": 6799,
      "antic": 6800,
      "free": 6801,
      "Ġagric": 6802,
      "Ġformer": 6803,
      "Ġlands": 6804,
      "Ġcontained": 6805,
      "cast": 6806,
      "Ġsheep": 6807,
      "ĠImpressed": 6808,
      "oses": 6809,
      "Ġbuying": 6810,
      "Ġrepresenting": 6811,
      "Ġrude": 6812,
      "Ġhills": 6813,
      "ĠTony": 6814,
      "Ġcelebration": 6815,
      "Ġacknowledged": 6816,
      "Ġescal": 6817,
      "They": 6818,
      "Ġshopping": 6819,
      "Ġtricks": 6820,
      "Ġreluct": 6821,
      "Ġpatiently": 6822,
      "ĠWithin": 6823,
      "Ġfueled": 6824,
      "Ġdestination": 6825,
      "Ġbored": 6826,
      "ĠPol": 6827,
      "Ġreplace": 6828,
      "igr": 6829,
      "ĠRachel": 6830,
      "Ġindul": 6831,
      "Ġactively": 6832,
      "Ġsatisfied": 6833,
      "Ġphysically": 6834,
      "uffy": 6835,
      "Ġrealm": 6836,
      "Ġbedroom": 6837,
      "ĠWell": 6838,
      "ien": 6839,
      "Ġdiss": 6840,
      "Ġresponsibly": 6841,
      "Ġtwice": 6842,
      "Ġcandid": 6843,
      "ĠPrepare": 6844,
      "ĠDav": 6845,
      "Ġjack": 6846,
      "emade": 6847,
      "lam": 6848,
      "Ġartwork": 6849,
      "Ġaesthet": 6850,
      "Ġglanced": 6851,
      "how": 6852,
      "Ġproced": 6853,
      "Ġdise": 6854,
      "Ġfascination": 6855,
      "Ġ30": 6856,
      "Ġvalued": 6857,
      "ĠNeed": 6858,
      "Ġfarmers": 6859,
      "Ġsauce": 6860,
      "Ġkinds": 6861,
      "iest": 6862,
      "ĠMittens": 6863,
      "alous": 6864,
      "Ġtestament": 6865,
      "ams": 6866,
      "Ġchannels": 6867,
      "Ġcin": 6868,
      "aches": 6869,
      "Ġroof": 6870,
      "Ġexamples": 6871,
      "Ġcontributed": 6872,
      "Ġterrible": 6873,
      "Ġcrab": 6874,
      "Ġalbum": 6875,
      "Ġveter": 6876,
      "ĠFur": 6877,
      "Ġenthusiastically": 6878,
      "Ġsites": 6879,
      "Ġmighty": 6880,
      "Ġstared": 6881,
      "hol": 6882,
      "ĠBobby": 6883,
      "Ġglasses": 6884,
      "ĠSlowly": 6885,
      "adget": 6886,
      "commod": 6887,
      "Ġlapt": 6888,
      "Ġtrigg": 6889,
      "ĠUs": 6890,
      "Ġrule": 6891,
      "Ġdesp": 6892,
      "Ġadorned": 6893,
      "Ġfem": 6894,
      "Ġmeadow": 6895,
      "Ġexplo": 6896,
      "ceived": 6897,
      "working": 6898,
      "Ġtomat": 6899,
      "inter": 6900,
      "Ġrespected": 6901,
      "ĠEngage": 6902,
      "arts": 6903,
      "Ġdre": 6904,
      "ĠTrans": 6905,
      "Ġextended": 6906,
      "men": 6907,
      "undred": 6908,
      "Ġimpacts": 6909,
      "Ġreaders": 6910,
      "Ġconsumption": 6911,
      "Ġcautious": 6912,
      "ĠFind": 6913,
      "Ġaspiring": 6914,
      "fol": 6915,
      "Ġrelent": 6916,
      "ĠBec": 6917,
      "Ġsquee": 6918,
      "ĠJamal": 6919,
      "Ġsplash": 6920,
      "Ġfarming": 6921,
      "ett": 6922,
      "ĠSamantha": 6923,
      "Ġconcerned": 6924,
      "fted": 6925,
      "resp": 6926,
      "Ġtrivia": 6927,
      "ĠGrandpa": 6928,
      "Ġmanip": 6929,
      "Ġgravity": 6930,
      "amps": 6931,
      "Ġeleg": 6932,
      "ĠUtil": 6933,
      "Ġscenes": 6934,
      "Ġshelter": 6935,
      "Ġaudiences": 6936,
      "Ġerror": 6937,
      "Ġbutt": 6938,
      "Ġsizes": 6939,
      "Ġjoke": 6940,
      "Ġrenewable": 6941,
      "Ġpreviously": 6942,
      "ĠInit": 6943,
      "what": 6944,
      "Ġsubt": 6945,
      "Ġbehaviors": 6946,
      "Ġparent": 6947,
      "Ġcalculations": 6948,
      "iture": 6949,
      "fulness": 6950,
      "Ġprecise": 6951,
      "Ġteachers": 6952,
      "Ġthrows": 6953,
      "ĠPay": 6954,
      "ĠCent": 6955,
      "Ġexecut": 6956,
      "Ġprimary": 6957,
      "Ġgroundbreaking": 6958,
      "Ġshifted": 6959,
      "Ġgrumpy": 6960,
      "Ġdeg": 6961,
      "Ġentertainment": 6962,
      "ino": 6963,
      "ims": 6964,
      "ague": 6965,
      "Ġdiscipl": 6966,
      "Ġvoc": 6967,
      "Ġ18": 6968,
      "Ġresc": 6969,
      "Ġweird": 6970,
      "Ġcoast": 6971,
      "Ġhomemade": 6972,
      "Ġclient": 6973,
      "Ġconven": 6974,
      "Ġbreakfast": 6975,
      "*:": 6976,
      "Ġcapturing": 6977,
      "Ġric": 6978,
      "Ġshade": 6979,
      "Ġplayground": 6980,
      "Ġrestr": 6981,
      "Ġfirmly": 6982,
      "Ġ#": 6983,
      "Ġsections": 6984,
      "John": 6985,
      "ĠSurpr": 6986,
      "angle": 6987,
      "Ġrepair": 6988,
      "ĠElla": 6989,
      "Ġquar": 6990,
      "rastructure": 6991,
      "fish": 6992,
      "ĠDri": 6993,
      "Ġdreamed": 6994,
      "Ġrate": 6995,
      "ression": 6996,
      "Ġcontributions": 6997,
      "ya": 6998,
      "ologist": 6999,
      "Ġbold": 7000,
      "Ġjog": 7001,
      "Ġsurre": 7002,
      "Ġrapidly": 7003,
      "issors": 7004,
      "rolled": 7005,
      "kers": 7006,
      "Ġshadow": 7007,
      "Ġitem": 7008,
      "Ġdive": 7009,
      "Ġdistress": 7010,
      "Ġconscious": 7011,
      "Ġapartment": 7012,
      "Ġdisheart": 7013,
      "ervations": 7014,
      "ils": 7015,
      "Ġdirection": 7016,
      "rim": 7017,
      "Ġbeings": 7018,
      "ĠMart": 7019,
      "ĠNor": 7020,
      "Ġgaps": 7021,
      "Ġinnocent": 7022,
      "Ġsilver": 7023,
      "Ġoutcome": 7024,
      "ĠAg": 7025,
      "Ġstriking": 7026,
      "Ġcharge": 7027,
      "Ġtourists": 7028,
      "Ġsparkling": 7029,
      "iders": 7030,
      "Ġanticipated": 7031,
      "ĠEstablish": 7032,
      "Ġacts": 7033,
      "Ġchecked": 7034,
      "ka": 7035,
      "Ġaccommod": 7036,
      "Ġexhaust": 7037,
      "ective": 7038,
      "Ġblog": 7039,
      "Ġtapestry": 7040,
      "Ġfer": 7041,
      "Ġvehicle": 7042,
      "ĠApply": 7043,
      "akers": 7044,
      "Ġenjoyable": 7045,
      "pill": 7046,
      "Ġalarm": 7047,
      "Ġstrategic": 7048,
      "Ġarchitecture": 7049,
      "Ġpotat": 7050,
      "Are": 7051,
      "ycling": 7052,
      "Ġplenty": 7053,
      "ulating": 7054,
      "20": 7055,
      "Ġcours": 7056,
      "Ġhaven": 7057,
      "ĠFrustrated": 7058,
      "Ġarom": 7059,
      "Ġlocations": 7060,
      "ihood": 7061,
      "Ġscale": 7062,
      "Ġemotion": 7063,
      "Ġpretended": 7064,
      "izzy": 7065,
      "Ġencounters": 7066,
      "uts": 7067,
      "ĠRecogn": 7068,
      "Ġtorn": 7069,
      "Ġinstruments": 7070,
      "alle": 7071,
      "olph": 7072,
      "ĠCould": 7073,
      "Ġinstantly": 7074,
      "Ġcreates": 7075,
      "Ġbeside": 7076,
      "Ġfurn": 7077,
      "Ġreturning": 7078,
      "ĠWhis": 7079,
      "Ġ0": 7080,
      "Ġmuscle": 7081,
      "sych": 7082,
      "Ġtraveling": 7083,
      "ĠBunny": 7084,
      "Ġmountains": 7085,
      "Ġcomparing": 7086,
      "esis": 7087,
      "Ġglue": 7088,
      "Ġdough": 7089,
      "Ġspring": 7090,
      "Ġbord": 7091,
      "Ġovernight": 7092,
      "Ġcell": 7093,
      "aser": 7094,
      "Ġcuis": 7095,
      "Ġinternal": 7096,
      "Ġpurchasing": 7097,
      "Ġexisted": 7098,
      "Ġbeautifully": 7099,
      "Ġborrow": 7100,
      "ĠRichard": 7101,
      "Ġcaution": 7102,
      "top": 7103,
      "Ġpermission": 7104,
      "ĠPlay": 7105,
      "oming": 7106,
      "urd": 7107,
      "opt": 7108,
      "Ġrecon": 7109,
      "Ġconstantly": 7110,
      "Ġcrossed": 7111,
      "Ġapplied": 7112,
      "fall": 7113,
      "Ġemphasizing": 7114,
      "Ġsequ": 7115,
      "Ġinvestigation": 7116,
      "ĠBill": 7117,
      "Ġelectricity": 7118,
      "Ġinfrastructure": 7119,
      "Ġinfect": 7120,
      "ott": 7121,
      "owers": 7122,
      "Ġsof": 7123,
      "Ġastr": 7124,
      "If": 7125,
      "Ġthreads": 7126,
      "Ġchased": 7127,
      "Ġintentions": 7128,
      "Ġheads": 7129,
      "Ġchurch": 7130,
      "uddled": 7131,
      "Ġdrinks": 7132,
      "Ġobserve": 7133,
      "Ġstrengthened": 7134,
      "ilty": 7135,
      "Ġcities": 7136,
      "Ġoverlooked": 7137,
      "Ġclassic": 7138,
      "Ġcompleting": 7139,
      "Ġfeathers": 7140,
      "van": 7141,
      "Ġgate": 7142,
      "Ġfu": 7143,
      "Ġunderestimate": 7144,
      "ĠEle": 7145,
      "Ġextre": 7146,
      "ĠPres": 7147,
      "endip": 7148,
      "Ġspicy": 7149,
      "Ġera": 7150,
      "Ġder": 7151,
      "aped": 7152,
      "Ġtitled": 7153,
      "Ġfeature": 7154,
      "illa": 7155,
      "Ġbelieving": 7156,
      "ĠLess": 7157,
      "Ġcaptivated": 7158,
      "ĠClean": 7159,
      "Ġsupposed": 7160,
      "Ġ[": 7161,
      "Ġjelly": 7162,
      "Ġpressed": 7163,
      "ĠPo": 7164,
      "Ġcollected": 7165,
      "Ġapps": 7166,
      "ĠTeddy": 7167,
      "Ġproact": 7168,
      "rons": 7169,
      "ography": 7170,
      "Ġintended": 7171,
      "Ġadmiring": 7172,
      "Ġequation": 7173,
      "Ġpowd": 7174,
      "Ġpresentation": 7175,
      "ĠFirstly": 7176,
      "Ġbrightly": 7177,
      "Who": 7178,
      "Ġstatement": 7179,
      "ĠDel": 7180,
      "Ġspecialized": 7181,
      "ari": 7182,
      "Ġrocket": 7183,
      "Ġsport": 7184,
      "Ġcalmly": 7185,
      "racted": 7186,
      "Ġnewsp": 7187,
      "Ġcells": 7188,
      "Ġmatches": 7189,
      "Ġweekend": 7190,
      "ĠTech": 7191,
      "Ġsiblings": 7192,
      "ĠCoach": 7193,
      "Ġignore": 7194,
      "Ġtidy": 7195,
      "ateur": 7196,
      "ĠMei": 7197,
      "Ġworn": 7198,
      "alian": 7199,
      "Ġsuspic": 7200,
      "reek": 7201,
      "Ġtemperatures": 7202,
      "Ġcoc": 7203,
      "Ġresolve": 7204,
      "bble": 7205,
      "Ġstores": 7206,
      "Ġsipping": 7207,
      "acies": 7208,
      "ensions": 7209,
      "ĠGreat": 7210,
      "Ġease": 7211,
      "Ġguilty": 7212,
      "Ġperiods": 7213,
      "disc": 7214,
      "isher": 7215,
      "Ġflat": 7216,
      "Ġphenom": 7217,
      "Please": 7218,
      "ĠCare": 7219,
      "Ġdismissed": 7220,
      "Ġstorage": 7221,
      "ĠExper": 7222,
      "Ġcarrot": 7223,
      "Ġdespair": 7224,
      "Ġacting": 7225,
      "Ġhundred": 7226,
      "Ġconsul": 7227,
      "Ġrice": 7228,
      "rupted": 7229,
      "yth": 7230,
      "Ġbuttons": 7231,
      "ĠSof": 7232,
      "reating": 7233,
      "ounted": 7234,
      "Our": 7235,
      "Ġmessy": 7236,
      "Ġpopped": 7237,
      "Ġattended": 7238,
      "Ġskepticism": 7239,
      "ĠSk": 7240,
      "Ġplayful": 7241,
      "ificial": 7242,
      "Ġstrike": 7243,
      "Ġconfir": 7244,
      "Ġwhistle": 7245,
      "Ġtransition": 7246,
      "Ġflexible": 7247,
      "owing": 7248,
      "Ġbill": 7249,
      "Ġcy": 7250,
      "Ġtravels": 7251,
      "Ġtests": 7252,
      "Ġdusty": 7253,
      "Ġadopt": 7254,
      "Ġmaintenance": 7255,
      "Ġdecre": 7256,
      "gl": 7257,
      "Ġlocked": 7258,
      "riends": 7259,
      "Ġpleased": 7260,
      "Ġpir": 7261,
      "Ġnods": 7262,
      "Ġstark": 7263,
      "Ġtrem": 7264,
      "Ġsubjects": 7265,
      "dles": 7266,
      "Ġped": 7267,
      "related": 7268,
      "Ġheal": 7269,
      "Ġfluffy": 7270,
      "Your": 7271,
      "ĠJuan": 7272,
      "Ġknife": 7273,
      "Ġspiritual": 7274,
      "ĠNo": 7275,
      "Ġevolved": 7276,
      "à¤": 7277,
      "osaur": 7278,
      "asted": 7279,
      "Ġaccompan": 7280,
      "Ġinhab": 7281,
      "Ġcollaborate": 7282,
      "Ġseamlessly": 7283,
      "Ġcaterpill": 7284,
      "Ġthunder": 7285,
      "Ġmathematics": 7286,
      "Ġmotor": 7287,
      "Ġdetailing": 7288,
      "Ġshine": 7289,
      "Ġcauses": 7290,
      "Ġpersonally": 7291,
      "Ġlic": 7292,
      "Ġpurchase": 7293,
      "ĠFrank": 7294,
      "oles": 7295,
      "avel": 7296,
      "Ġcollaborative": 7297,
      "edding": 7298,
      "Ġsket": 7299,
      "Ġexcl": 7300,
      "Ġcabin": 7301,
      "Ġminute": 7302,
      "Ġtank": 7303,
      "Ġcases": 7304,
      "Ġthreats": 7305,
      "Ġnative": 7306,
      "Ġtexture": 7307,
      "Ġgall": 7308,
      "Ġtie": 7309,
      "Ġpit": 7310,
      "ĠPete": 7311,
      "oul": 7312,
      "Ġmilitary": 7313,
      "Ġpubl": 7314,
      "Ġenvelop": 7315,
      "Ġsir": 7316,
      "Ġjourneys": 7317,
      "Ġoutl": 7318,
      "Ġintegrating": 7319,
      "Ġwake": 7320,
      "Me": 7321,
      "ĠMad": 7322,
      "Ġsubmit": 7323,
      "ĠPlace": 7324,
      "Ġoneself": 7325,
      "Ġinclusive": 7326,
      "ĠTwo": 7327,
      "Ġkitten": 7328,
      "Ġbarked": 7329,
      "Ġcautiously": 7330,
      "Ġzone": 7331,
      "Ġmodest": 7332,
      "iger": 7333,
      "cript": 7334,
      "Ġpuddle": 7335,
      "Ġintroducing": 7336,
      "Ġfairness": 7337,
      "Ġonwards": 7338,
      "ĠUnited": 7339,
      "host": 7340,
      "iday": 7341,
      "Ġgust": 7342,
      "ĠSouth": 7343,
      "hes": 7344,
      "Ġintercon": 7345,
      "Ġinitiative": 7346,
      "Ġmasterpiece": 7347,
      "edict": 7348,
      "ĠGl": 7349,
      "ĠEverywhere": 7350,
      "ĠSeek": 7351,
      "Ġpatch": 7352,
      "10": 7353,
      "Ġarise": 7354,
      "================================": 7355,
      "Ġcoord": 7356,
      "Ġshocked": 7357,
      "aven": 7358,
      "Ġcherishing": 7359,
      "Ġprofessor": 7360,
      "Ġcombat": 7361,
      "Ġnecklace": 7362,
      "Ġmusician": 7363,
      "Ġjuicy": 7364,
      "Ġdescribed": 7365,
      "but": 7366,
      "Ġmastering": 7367,
      "Ġmurm": 7368,
      "Â°": 7369,
      "Ġdemanding": 7370,
      "Ġexchanging": 7371,
      "Ġgirls": 7372,
      "Ġcompat": 7373,
      "Ġconstraints": 7374,
      "Ġcapabilities": 7375,
      "Ġarrival": 7376,
      "Ġbiggest": 7377,
      "Ġpump": 7378,
      "whelmed": 7379,
      "Ġwarning": 7380,
      "Ġhanging": 7381,
      "Ġchamp": 7382,
      "Ġlaunch": 7383,
      "Ġdepic": 7384,
      "Ġstarts": 7385,
      "Where": 7386,
      "Ġspecializing": 7387,
      "Ġrecognize": 7388,
      "Ġut": 7389,
      "Ġunfamiliar": 7390,
      "Ġqueen": 7391,
      "Ġcertainly": 7392,
      "Ġlighting": 7393,
      "Ġrelaxation": 7394,
      "Ġphoto": 7395,
      "Ġsuggesting": 7396,
      "Ġburst": 7397,
      "Ġtwinkling": 7398,
      "Ġpil": 7399,
      "ĠGood": 7400,
      "perate": 7401,
      "?!": 7402,
      "erge": 7403,
      "ĠHenry": 7404,
      "Ġminimal": 7405,
      "Ġpicking": 7406,
      "Ġgadget": 7407,
      "Ġparticles": 7408,
      "Ġsank": 7409,
      "ĠAllow": 7410,
      "Ġscream": 7411,
      "ĠSan": 7412,
      "Ġhopeful": 7413,
      "Ġsem": 7414,
      "Ġunable": 7415,
      "Ġbone": 7416,
      "rovers": 7417,
      "Ġscissors": 7418,
      "urt": 7419,
      "rific": 7420,
      "Ġroutines": 7421,
      "Ġfake": 7422,
      "Ġreduces": 7423,
      "Ġtracks": 7424,
      "Ġsen": 7425,
      "Ġsadness": 7426,
      "ĠGuide": 7427,
      "Ġdemonstrate": 7428,
      "Ġhotel": 7429,
      "Ġcrops": 7430,
      "Ġven": 7431,
      "ĠOpen": 7432,
      "Ġdestroy": 7433,
      "Ġdriven": 7434,
      "orter": 7435,
      "Ġbubbles": 7436,
      "check": 7437,
      "Ġshocking": 7438,
      "itter": 7439,
      "Ġaccounts": 7440,
      "Ġnotebook": 7441,
      "Ġwine": 7442,
      "Ġancestors": 7443,
      "Ġclarity": 7444,
      "Ġpitch": 7445,
      "Ġlie": 7446,
      "Ġfailure": 7447,
      "Ġpromptly": 7448,
      "Ġentrance": 7449,
      "Ġdivid": 7450,
      "Ġgoods": 7451,
      "Ġcleaned": 7452,
      "Ġstrengthening": 7453,
      "Ġtooth": 7454,
      "Ġamateur": 7455,
      "olis": 7456,
      "ael": 7457,
      "Ġsincere": 7458,
      "Ġmonit": 7459,
      "Ġgym": 7460,
      "Ġclimbing": 7461,
      "imal": 7462,
      "Ġcompanions": 7463,
      "Ġhighly": 7464,
      "Ġvacation": 7465,
      "Ġinterconnected": 7466,
      "Ġfitness": 7467,
      "Ġguys": 7468,
      "Ġprosper": 7469,
      "Ġadvantage": 7470,
      "Ġconvey": 7471,
      "ĠMaster": 7472,
      "anship": 7473,
      "raw": 7474,
      "Ġeyebrow": 7475,
      "agram": 7476,
      "nel": 7477,
      "isting": 7478,
      "ĠAli": 7479,
      "ounting": 7480,
      "Ġtrash": 7481,
      "Ġbloss": 7482,
      "Ġsort": 7483,
      "Ġrestore": 7484,
      "Ġunivers": 7485,
      "rin": 7486,
      "Ġner": 7487,
      "predict": 7488,
      "Ġobtain": 7489,
      "Ġdesigning": 7490,
      "sm": 7491,
      "ĠProv": 7492,
      "Ġtransformative": 7493,
      "Ġber": 7494,
      "Ġmotivation": 7495,
      "ĠFamiliar": 7496,
      "ĠSat": 7497,
      "Ġprop": 7498,
      "Ġprob": 7499,
      "Ġyouth": 7500,
      "ls": 7501,
      "Ġsack": 7502,
      "Ġcontrasting": 7503,
      "Ġproperties": 7504,
      "Ġlur": 7505,
      "Ġpaying": 7506,
      "Ġboss": 7507,
      "Ġcontrovers": 7508,
      "Ġcats": 7509,
      "Ġviewpoints": 7510,
      "Ġscarf": 7511,
      "Ġemphasized": 7512,
      "Ġpredicament": 7513,
      "Ġdile": 7514,
      "Ġsword": 7515,
      "Ġstom": 7516,
      "Ġforced": 7517,
      "Be": 7518,
      "ĠLooking": 7519,
      "Re": 7520,
      "Ġsuffered": 7521,
      "Ġending": 7522,
      "Ġadults": 7523,
      "Ġfacilit": 7524,
      "Ġtitle": 7525,
      "Ġenabling": 7526,
      "Ġbroader": 7527,
      "ĠOverwhelmed": 7528,
      "Ġtrusty": 7529,
      "Ġthreatening": 7530,
      "ĠEnd": 7531,
      "ada": 7532,
      "Rem": 7533,
      "ĠFurther": 7534,
      "Ġholes": 7535,
      "imp": 7536,
      "Ġjealous": 7537,
      "ĠAng": 7538,
      "arently": 7539,
      "Ġreceiving": 7540,
      "Ġpanic": 7541,
      "Ġinsisted": 7542,
      "ĠAppro": 7543,
      "Ġcooked": 7544,
      "Ġnuances": 7545,
      "Ġexperimenting": 7546,
      "Ġlifel": 7547,
      "Ġfurniture": 7548,
      "Ġarts": 7549,
      "Ġhind": 7550,
      "Ġashamed": 7551,
      "nam": 7552,
      "Ġcounted": 7553,
      "Ġsheer": 7554,
      "Ġdinosaur": 7555,
      "ĠâĢĺ": 7556,
      "Ġloose": 7557,
      "Ġdownload": 7558,
      "Ġpositivity": 7559,
      "Ġcloset": 7560,
      "field": 7561,
      "eration": 7562,
      "\",": 7563,
      "Ġchasing": 7564,
      "ĠCor": 7565,
      "xygen": 7566,
      "estig": 7567,
      "ĠStud": 7568,
      "keeper": 7569,
      "Ġconference": 7570,
      "Ġspirits": 7571,
      "Ġbake": 7572,
      "Ġpie": 7573,
      "Ġedges": 7574,
      "Ġaqu": 7575,
      "Ġstro": 7576,
      "Ġalgorithms": 7577,
      "Ġenthusiastic": 7578,
      "Ġharmless": 7579,
      "Ġdisheartened": 7580,
      "Ġchef": 7581,
      "Ġanywhere": 7582,
      "assan": 7583,
      "Ġfilms": 7584,
      "Ġsparkled": 7585,
      "Ġwarned": 7586,
      "Ġcage": 7587,
      "Ġplacing": 7588,
      "Ġconfirm": 7589,
      "Ġunpredict": 7590,
      "Ġshoulders": 7591,
      "ĠMarc": 7592,
      "ĠHealth": 7593,
      "Ġinjury": 7594,
      "Ġdressed": 7595,
      "Ġadmin": 7596,
      "Ġcert": 7597,
      "Ġfright": 7598,
      "ucted": 7599,
      "Ġinherent": 7600,
      "Ġce": 7601,
      "ĠKnow": 7602,
      "Ġslipped": 7603,
      "pack": 7604,
      "ĠUtilize": 7605,
      "yes": 7606,
      "EO": 7607,
      "Ġobl": 7608,
      "eem": 7609,
      "Ġevolution": 7610,
      "Ġecosystems": 7611,
      "ĠEmbrace": 7612,
      "Ġchallenged": 7613,
      "Ġbrow": 7614,
      "Ġconcent": 7615,
      "ĠFarm": 7616,
      "Ġmoisture": 7617,
      "Ġkeeps": 7618,
      "luded": 7619,
      "Ġpsych": 7620,
      "oves": 7621,
      "Ġcrown": 7622,
      "Ġseven": 7623,
      "Ġunderwater": 7624,
      "Ġtastes": 7625,
      "ĠSofia": 7626,
      "Ġreminisc": 7627,
      "Ġ}": 7628,
      "Ġcos": 7629,
      "Ġrecovery": 7630,
      "Ġillum": 7631,
      "Ġexplan": 7632,
      "Ġbirdw": 7633,
      "Ġloudly": 7634,
      "iform": 7635,
      "Ġobservation": 7636,
      "vas": 7637,
      "Ġfrowned": 7638,
      "Ġmischie": 7639,
      "ptions": 7640,
      "Ġapplicable": 7641,
      "Ġheaded": 7642,
      "Ġrang": 7643,
      "Ġdeath": 7644,
      "Ġstraw": 7645,
      "ĠEmpathy": 7646,
      "Ġexplanations": 7647,
      "Ġbuzzing": 7648,
      "Ġcourt": 7649,
      "Ġglowing": 7650,
      "Ġnavigated": 7651,
      "ĠChar": 7652,
      "ĠSharing": 7653,
      "Ġenem": 7654,
      "Ġhats": 7655,
      "berry": 7656,
      "ĠSpr": 7657,
      "Ġwitnessing": 7658,
      "Ġidentifying": 7659,
      "Ġimper": 7660,
      "Ġscore": 7661,
      "discovery": 7662,
      "ĠJapanese": 7663,
      "Ġwolf": 7664,
      "Ġfinds": 7665,
      "Ġdiffering": 7666,
      "Ġcolour": 7667,
      "Ġbees": 7668,
      "Ġkick": 7669,
      "Ġnational": 7670,
      "cement": 7671,
      "ĠSol": 7672,
      "Ġchord": 7673,
      "ĠFace": 7674,
      "Ġinvestment": 7675,
      "Ġsleeping": 7676,
      "fl": 7677,
      "unct": 7678,
      "ĠComprehensive": 7679,
      "Ġreasons": 7680,
      "Ġcrystal": 7681,
      "ĠShare": 7682,
      "fficient": 7683,
      "Ġclaiming": 7684,
      "ĠUniversity": 7685,
      "Ġpets": 7686,
      "ĠDay": 7687,
      "ĠLa": 7688,
      "ĠFollowing": 7689,
      "reet": 7690,
      "Ġmild": 7691,
      "ĠII": 7692,
      "Ġforests": 7693,
      "person": 7694,
      "ae": 7695,
      "world": 7696,
      "ĠClear": 7697,
      "Ġtables": 7698,
      "Ġorganic": 7699,
      "icit": 7700,
      "Ġtracking": 7701,
      "ierre": 7702,
      "Ġsheet": 7703,
      "Ġdess": 7704,
      "ĠMusic": 7705,
      "Ġadjustments": 7706,
      "Ġblind": 7707,
      "Ġblending": 7708,
      "Ġflag": 7709,
      "balls": 7710,
      "Ġhears": 7711,
      "Ġshone": 7712,
      "Ġreplaced": 7713,
      "ishment": 7714,
      "Ġaye": 7715,
      "Ġol": 7716,
      "ĠHassan": 7717,
      "acement": 7718,
      "igil": 7719,
      "Ġargument": 7720,
      "Ġdelighted": 7721,
      "Ġpulling": 7722,
      "Ġliquid": 7723,
      "ription": 7724,
      "Ġboring": 7725,
      "ocr": 7726,
      "orit": 7727,
      "Ġzones": 7728,
      "Ġgam": 7729,
      "Ġcompelled": 7730,
      "ĠAccess": 7731,
      "Ġacquired": 7732,
      "Ġfallen": 7733,
      "ĠWind": 7734,
      "Ġnowhere": 7735,
      "Ġeconomy": 7736,
      "Ġton": 7737,
      "ĠLee": 7738,
      "ĠVis": 7739,
      "Ġlaptop": 7740,
      "Ġengineering": 7741,
      "Ġdiam": 7742,
      "ĠOthers": 7743,
      "Ġshut": 7744,
      "Ġberries": 7745,
      "Ġresulted": 7746,
      "Ġdestruct": 7747,
      "Ġalloc": 7748,
      "19": 7749,
      "ava": 7750,
      "Ġprestig": 7751,
      "Ġtheater": 7752,
      "bro": 7753,
      "ĠWater": 7754,
      "Ġregional": 7755,
      "ĠSection": 7756,
      "Ġwondering": 7757,
      "Ġum": 7758,
      "respond": 7759,
      "Ġtreating": 7760,
      "Ġintellectual": 7761,
      "robe": 7762,
      "ĠRose": 7763,
      "ache": 7764,
      "Ġseconds": 7765,
      "Ġextreme": 7766,
      "ĠRiver": 7767,
      "Ġbin": 7768,
      "Ġcer": 7769,
      "Ġformat": 7770,
      "Ġintertwined": 7771,
      "Ġaverage": 7772,
      "Ġhopping": 7773,
      "edy": 7774,
      "Ġstriving": 7775,
      "Ġuses": 7776,
      "Ġcash": 7777,
      "Ġprecision": 7778,
      "Ġdeer": 7779,
      "abel": 7780,
      "Ġstrive": 7781,
      "Ġdisagreements": 7782,
      "Ġimplemented": 7783,
      "Ġgifts": 7784,
      "Ġbasketball": 7785,
      "oe": 7786,
      "ror": 7787,
      "Ġtwenty": 7788,
      "Ġgrasp": 7789,
      "Ġinspect": 7790,
      "ĠBear": 7791,
      "Ġdynamics": 7792,
      "ensity": 7793,
      "Ġsurfaces": 7794,
      "Ġvulnerability": 7795,
      "ĠSocial": 7796,
      "ĠOf": 7797,
      "Ġcorn": 7798,
      "Ġsolved": 7799,
      "gal": 7800,
      "Ġstudied": 7801,
      "ĠExam": 7802,
      "amb": 7803,
      "Ġreport": 7804,
      "Ġguiding": 7805,
      "Ġcritic": 7806,
      "uild": 7807,
      "Ġtraits": 7808,
      "ĠRead": 7809,
      "Ġruined": 7810,
      "ĠSquirrel": 7811,
      "Ġlaid": 7812,
      "He": 7813,
      "inent": 7814,
      "Ġsending": 7815,
      "Ġimagination": 7816,
      "Ġgardening": 7817,
      "ifact": 7818,
      "ountable": 7819,
      "athetic": 7820,
      "rial": 7821,
      "Ġaffordable": 7822,
      "Ġunwaver": 7823,
      "Ġurg": 7824,
      "Ġcompetitors": 7825,
      "Ġhappier": 7826,
      "wed": 7827,
      "Little": 7828,
      "Ġtreatments": 7829,
      "Ġkingdom": 7830,
      "da": 7831,
      "Ġoxygen": 7832,
      "Ġunders": 7833,
      "inda": 7834,
      "Ġoccasionally": 7835,
      "Ġdug": 7836,
      "Ġcorrespond": 7837,
      "Ġdivided": 7838,
      "Ġhousehold": 7839,
      "ĠJul": 7840,
      "Ġemergency": 7841,
      "Ġwhom": 7842,
      "Ġsleepy": 7843,
      "Ġpatients": 7844,
      "Ġwashing": 7845,
      "Ġserendip": 7846,
      "cle": 7847,
      "uction": 7848,
      "Ġyelled": 7849,
      "ĠIndia": 7850,
      "Ġbrothers": 7851,
      "uation": 7852,
      "These": 7853,
      "Ġobsession": 7854,
      "50": 7855,
      "Ġretrospect": 7856,
      "rificing": 7857,
      "Ġhi": 7858,
      "Ġvigil": 7859,
      "Ġnutrients": 7860,
      "Ġexpenses": 7861,
      "Ġartificial": 7862,
      "Ġachieved": 7863,
      "Ġsacrificing": 7864,
      "Ġturtle": 7865,
      "Ġspinning": 7866,
      "Ġscratch": 7867,
      "ĠProper": 7868,
      "Ġwhereas": 7869,
      "Ġtied": 7870,
      "Ġthankful": 7871,
      "Ġadequ": 7872,
      "iley": 7873,
      "gi": 7874,
      "lights": 7875,
      "Ġcareless": 7876,
      "ĠBud": 7877,
      "Ġintim": 7878,
      "Ġdelve": 7879,
      "Ġunwavering": 7880,
      "Ġswe": 7881,
      "Ġresolution": 7882,
      "Ġbetray": 7883,
      "ĠRos": 7884,
      "knit": 7885,
      "Ġrom": 7886,
      "Ġnutrition": 7887,
      "Ġmarkets": 7888,
      "Ġhelpless": 7889,
      "Ġexpressions": 7890,
      "Ġreputable": 7891,
      "Ġdamp": 7892,
      "Ġflick": 7893,
      "Ġtunes": 7894,
      "hell": 7895,
      "Ġfalls": 7896,
      "ĠRex": 7897,
      "Ġexotic": 7898,
      "ĠBas": 7899,
      "Ġmonitor": 7900,
      "Ġlouder": 7901,
      "Ġsafer": 7902,
      "Ġartifact": 7903,
      "Ġstable": 7904,
      "ĠMic": 7905,
      "Ġstretch": 7906,
      "Ġuniform": 7907,
      "Ġnost": 7908,
      "Ġcuisine": 7909,
      "ilarious": 7910,
      "Ġskipped": 7911,
      "Remember": 7912,
      "ivery": 7913,
      "Ġpursuits": 7914,
      "Ġages": 7915,
      "ĠFamiliarize": 7916,
      "Ġgeneral": 7917,
      "ĠSal": 7918,
      "ĠGet": 7919,
      "Ġglobe": 7920,
      "Ġcel": 7921,
      "ĠConsult": 7922,
      "Ġensured": 7923,
      "together": 7924,
      "Ġelim": 7925,
      "Ġcob": 7926,
      "ĠMich": 7927,
      "cohol": 7928,
      "Ġpowder": 7929,
      "ondon": 7930,
      "Ġretired": 7931,
      "Ġdemanded": 7932,
      "Ġarguing": 7933,
      "emic": 7934,
      "ĠHarry": 7935,
      "ĠHave": 7936,
      "Ġprem": 7937,
      "Ġfunding": 7938,
      "Ġreleased": 7939,
      "formation": 7940,
      "issions": 7941,
      "Ġpor": 7942,
      "Ġanger": 7943,
      "Ġentering": 7944,
      "Ġtalk": 7945,
      "Ġrac": 7946,
      "Ġodds": 7947,
      "Ġsteep": 7948,
      "Ġmanufactur": 7949,
      "Ġincreases": 7950,
      "Ġembod": 7951,
      "Ġthrilling": 7952,
      "Ġsymp": 7953,
      "Ġaddition": 7954,
      "ĠTur": 7955,
      "Ġaddressed": 7956,
      "Ġneighboring": 7957,
      "Ġtraveled": 7958,
      "anny": 7959,
      "ĠEncourage": 7960,
      "ĠSusan": 7961,
      "Ġsparkly": 7962,
      "Ġcheerful": 7963,
      "gly": 7964,
      "Ġtransfer": 7965,
      "Ġmisunderstand": 7966,
      "beit": 7967,
      "ĠIndian": 7968,
      "cope": 7969,
      "ĠObs": 7970,
      ");": 7971,
      "Ġcovering": 7972,
      "Ġindustries": 7973,
      "Ġcaterpillar": 7974,
      "Ġhonestly": 7975,
      "Ġoccasional": 7976,
      "Ġlately": 7977,
      "Ġconver": 7978,
      "ĠKat": 7979,
      "ĠBre": 7980,
      "ĠOh": 7981,
      "Ġinhabit": 7982,
      "Ġappeal": 7983,
      "ĠEuropean": 7984,
      "Ġarray": 7985,
      "Ġah": 7986,
      "Ġscreens": 7987,
      "Ġselected": 7988,
      "Ġearned": 7989,
      "Ġlaunched": 7990,
      "://": 7991,
      "rowing": 7992,
      "Ġcatching": 7993,
      "Ġtypical": 7994,
      "ĠAndy": 7995,
      "Ġinsurm": 7996,
      "Ġadaptation": 7997,
      "Ġpopulation": 7998,
      "Ġnuts": 7999,
      "Ġinsurmountable": 8000,
      "Ġcustoms": 8001,
      "ĠLondon": 8002,
      "Ġyarn": 8003,
      "Ġshaking": 8004,
      "Ġlifted": 8005,
      "arant": 8006,
      "ception": 8007,
      "Ġnarrative": 8008,
      "Ġvigor": 8009,
      "Ġenorm": 8010,
      "Ġsuffering": 8011,
      "ĠMummy": 8012,
      "Ġprince": 8013,
      "ĠDef": 8014,
      "zzy": 8015,
      "Ġchase": 8016,
      "Ġpreventing": 8017,
      "Ġinstances": 8018,
      "Ġmonitoring": 8019,
      "Ġhorn": 8020,
      "Ġpressing": 8021,
      "Ġkissed": 8022,
      "made": 8023,
      "Ġlux": 8024,
      "Ġexceptional": 8025,
      "Ġamounts": 8026,
      "Ġthrived": 8027,
      "ĠMo": 8028,
      "Ġbattery": 8029,
      "Ġrepresentation": 8030,
      "icity": 8031,
      "Ġsupported": 8032,
      "Ġcared": 8033,
      "Ġproposal": 8034,
      "Ġeffortlessly": 8035,
      "acle": 8036,
      "Ġrising": 8037,
      "Ġlazy": 8038,
      "Ġscenarios": 8039,
      "Ġpredict": 8040,
      "Ġvine": 8041,
      "Ġlabeled": 8042,
      "Ġclar": 8043,
      "Ġpassword": 8044,
      "Ġidentified": 8045,
      "ĠPriorit": 8046,
      "Ġrooms": 8047,
      "Ġtemporary": 8048,
      "eria": 8049,
      "Ġgenres": 8050,
      "ĠPatel": 8051,
      "Ġvir": 8052,
      "Ġdolph": 8053,
      "imm": 8054,
      "Ġstudio": 8055,
      "ĠSil": 8056,
      "Ġinterv": 8057,
      "Ġbeg": 8058,
      "Ġrall": 8059,
      "Ġbutterflies": 8060,
      "Ġ---": 8061,
      "ĠSusie": 8062,
      "Ġrooted": 8063,
      "Ġsoldiers": 8064,
      "ython": 8065,
      "Ġproof": 8066,
      "Ġfal": 8067,
      "Ġconqu": 8068,
      "Ġfought": 8069,
      "Ġours": 8070,
      "Ġanalyze": 8071,
      "Ġpure": 8072,
      "ĠStar": 8073,
      "Ġstatements": 8074,
      "Ġmeticulous": 8075,
      "dep": 8076,
      "Ġaback": 8077,
      "Ġjudge": 8078,
      "uted": 8079,
      "Ġattendees": 8080,
      "ĠBolt": 8081,
      "Ġdut": 8082,
      "Ġaccepting": 8083,
      "Ġharmonious": 8084,
      "Ġspun": 8085,
      "ximately": 8086,
      "Ġpatrons": 8087,
      "wr": 8088,
      "uk": 8089,
      "Ġechoing": 8090,
      "Ġopenness": 8091,
      "Ġclay": 8092,
      "hift": 8093,
      "akery": 8094,
      "Ġlikely": 8095,
      "lands": 8096,
      "asses": 8097,
      "Ġcinem": 8098,
      "Ġhabitats": 8099,
      "you": 8100,
      "Ġballoons": 8101,
      "Ġwire": 8102,
      "Ġvehicles": 8103,
      "Ġtong": 8104,
      "Ġcontract": 8105,
      "ĠShow": 8106,
      "itely": 8107,
      "Ġdelving": 8108,
      "ĠSpan": 8109,
      "Ġbacter": 8110,
      "Ġvase": 8111,
      "Ġpian": 8112,
      "Ġoperation": 8113,
      "alg": 8114,
      "Ġmisunderstandings": 8115,
      "irling": 8116,
      "Ġkindly": 8117,
      "ruption": 8118,
      "Ġaggress": 8119,
      "ĠClub": 8120,
      "Ġreminders": 8121,
      "thy": 8122,
      "Ġrival": 8123,
      "uating": 8124,
      "Ġfunctionality": 8125,
      "See": 8126,
      "Ġexplanation": 8127,
      "ĠYouT": 8128,
      "Ġprestigious": 8129,
      "Ġgeneration": 8130,
      "ĠHelp": 8131,
      "ĠAir": 8132,
      "agine": 8133,
      "ĠDetermine": 8134,
      "Ġworm": 8135,
      "Ġdamaged": 8136,
      "Ġmillions": 8137,
      "Ġmixing": 8138,
      "Stop": 8139,
      "agging": 8140,
      "ĠSteve": 8141,
      "rated": 8142,
      "Ġcleaner": 8143,
      "Ġpositions": 8144,
      "Ġstirred": 8145,
      "ĠDep": 8146,
      "Ġwrap": 8147,
      "Ġsink": 8148,
      "road": 8149,
      "ĠRuss": 8150,
      "Ġgatherings": 8151,
      "Ġdipl": 8152,
      "Ġbeneficial": 8153,
      "ĠDavid": 8154,
      "Ġcheap": 8155,
      "Ġensued": 8156,
      "Ġid": 8157,
      "igen": 8158,
      "ĠCommon": 8159,
      "Ġbrainstorming": 8160,
      "Ġphrases": 8161,
      "Ġdisp": 8162,
      "Ġintroduce": 8163,
      "Ġbonded": 8164,
      "ĠThanks": 8165,
      "Ġreassured": 8166,
      "Ġgleaming": 8167,
      "Ġracing": 8168,
      "Ġdiplom": 8169,
      "Ġopens": 8170,
      "Ġcasual": 8171,
      "Ġapproaching": 8172,
      "Ġboats": 8173,
      "Ġpreservation": 8174,
      "Ġpanels": 8175,
      "forward": 8176,
      "Ġalbeit": 8177,
      "rees": 8178,
      "Ġugly": 8179,
      "Ġbic": 8180,
      "ĠSchool": 8181,
      "Ġswift": 8182,
      "Ġrul": 8183,
      "Ġinches": 8184,
      "irts": 8185,
      "Ġtheme": 8186,
      "Ġcries": 8187,
      "Ġrely": 8188,
      "ĠMap": 8189,
      "vis": 8190,
      "reeze": 8191,
      "ss": 8192,
      "Ġmelodies": 8193,
      "Ġcollector": 8194,
      "Ġreaction": 8195,
      "Ġpresents": 8196,
      "ĠGather": 8197,
      "cr": 8198,
      "Ġlaughs": 8199,
      "uls": 8200,
      "ĠHarold": 8201,
      "ĠAnt": 8202,
      "Ġbridges": 8203,
      "Ġshowcase": 8204,
      "Ġwoven": 8205,
      "Ġfreely": 8206,
      "ĠSched": 8207,
      "Ġchemicals": 8208,
      "Ġbriefly": 8209,
      "Ġloyalty": 8210,
      "Ġscrew": 8211,
      "asting": 8212,
      "ĠBritish": 8213,
      "Ġgrandpa": 8214,
      "Ġpee": 8215,
      "eting": 8216,
      "Ġrect": 8217,
      "ĠSad": 8218,
      "Ġhesitant": 8219,
      "Ġpa": 8220,
      "Ġahoy": 8221,
      "ivals": 8222,
      "Ġdull": 8223,
      "Ġobjectives": 8224,
      "ĠBegin": 8225,
      "Ġvolume": 8226,
      "Ġwheels": 8227,
      "Ġmask": 8228,
      "Ġtrains": 8229,
      "Ġantique": 8230,
      "Ġjam": 8231,
      "Ġreplying": 8232,
      "Alright": 8233,
      "Ġrelentless": 8234,
      "Ġbuzzed": 8235,
      "inced": 8236,
      "htt": 8237,
      "Ġlips": 8238,
      "Guidel": 8239,
      "ĠWilliam": 8240,
      "arty": 8241,
      "Ġgiggled": 8242,
      "Ġpicks": 8243,
      "Ġtimeless": 8244,
      "eline": 8245,
      "ĠMarco": 8246,
      "ĠSn": 8247,
      "Ġwealthy": 8248,
      "ograp": 8249,
      "eal": 8250,
      "berries": 8251,
      "Ġepisode": 8252,
      "ĠFurthermore": 8253,
      "pace": 8254,
      "Ġtheories": 8255,
      "Ġnecessarily": 8256,
      "leg": 8257,
      "Ġcrisis": 8258,
      "ĠEver": 8259,
      "Ġdigging": 8260,
      "ignific": 8261,
      "Ġswept": 8262,
      "Ġtangible": 8263,
      "Ġflight": 8264,
      "Ġcolleague": 8265,
      "Ġtactics": 8266,
      "lets": 8267,
      "Ġarrang": 8268,
      "ĠNet": 8269,
      "Ġsurvive": 8270,
      "ĠProg": 8271,
      "yl": 8272,
      "ĠHel": 8273,
      "ĠBlack": 8274,
      "Ġdelivery": 8275,
      "Ġendeavor": 8276,
      "affe": 8277,
      "Ġlightning": 8278,
      "Ġequipped": 8279,
      "Ġrit": 8280,
      "Ġcrew": 8281,
      "Ġaccompanied": 8282,
      "brell": 8283,
      "ĠWhenever": 8284,
      "Ġpad": 8285,
      "Ġstops": 8286,
      "Ġlawy": 8287,
      "ĠKim": 8288,
      "ĠMother": 8289,
      "Ġcaptured": 8290,
      "Ġalert": 8291,
      "Ġvariety": 8292,
      "ĠCat": 8293,
      "Ġassumptions": 8294,
      "Ġelsewhere": 8295,
      "Ġtrials": 8296,
      "ĠOffer": 8297,
      "Ġbakery": 8298,
      "ĠBet": 8299,
      "Ġscholars": 8300,
      "Ġcomputers": 8301,
      "Ġbreathe": 8302,
      "Ġtrucks": 8303,
      "ĠYouTube": 8304,
      "Ġdynamic": 8305,
      "lete": 8306,
      "Ġhorizon": 8307,
      "Sorry": 8308,
      "dened": 8309,
      "imming": 8310,
      "Ġmischiev": 8311,
      "Ġmakeshift": 8312,
      "poses": 8313,
      "Ġproducing": 8314,
      "Ġabsurd": 8315,
      "Ġcalculate": 8316,
      "Ġly": 8317,
      "Ġreef": 8318,
      "Ġnetworks": 8319,
      "Ġhuddled": 8320,
      "Ġwandered": 8321,
      "Ġenables": 8322,
      "Ġmagaz": 8323,
      "Ġfigured": 8324,
      "Ġattached": 8325,
      "lin": 8326,
      "Ġtrunk": 8327,
      "ĠJess": 8328,
      "Ġbattles": 8329,
      "Ġharmoniously": 8330,
      "Ġtransce": 8331,
      "irations": 8332,
      "Ġauthorities": 8333,
      "Ġuncle": 8334,
      "Ġcombine": 8335,
      "Ġdeliber": 8336,
      "ĠSamuel": 8337,
      "Ġfool": 8338,
      "Ġnurse": 8339,
      "Ġaston": 8340,
      "Ġclown": 8341,
      "Ġnobody": 8342,
      "Ġcampaigns": 8343,
      "Ġnoisy": 8344,
      "Ġcontemporary": 8345,
      "Ġdifficulties": 8346,
      "Ġburied": 8347,
      "Ġfunctions": 8348,
      "Ġexpanding": 8349,
      "ushed": 8350,
      "Ġplates": 8351,
      "Ġequality": 8352,
      "Ġhun": 8353,
      "Ġemerging": 8354,
      "Ġdistractions": 8355,
      "Ġdisparate": 8356,
      "Ġtheory": 8357,
      "Ġlongtime": 8358,
      "Ġsacrif": 8359,
      "Ġinters": 8360,
      "rete": 8361,
      "Ġencourages": 8362,
      "Ġhosting": 8363,
      "Ġlamp": 8364,
      "Ġumbrell": 8365,
      "Ġpossessed": 8366,
      "Ġcapacity": 8367,
      "Ġstraightforward": 8368,
      "otes": 8369,
      "Ġdistribution": 8370,
      "Ġghost": 8371,
      "Ġintelligent": 8372,
      "ĠPerson": 8373,
      "onent": 8374,
      "Ġearning": 8375,
      "ĠApparently": 8376,
      "Ġupdated": 8377,
      "ipher": 8378,
      "Ġrib": 8379,
      "istry": 8380,
      "ĠTouched": 8381,
      "Ġreven": 8382,
      "Ġpurposes": 8383,
      "ĠTweet": 8384,
      "Ġemployee": 8385,
      "Ġknock": 8386,
      "Ġguilt": 8387,
      "Ġenchanting": 8388,
      "ĠSpanish": 8389,
      "Ġbreed": 8390,
      "ĠSchedule": 8391,
      "ĠDesign": 8392,
      "Ġwagged": 8393,
      "Ġpasta": 8394,
      "ĠGrace": 8395,
      "case": 8396,
      "ĠRegular": 8397,
      "bor": 8398,
      "Ġenormous": 8399,
      "ji": 8400,
      "Here": 8401,
      "ĠNature": 8402,
      "Ġpassionately": 8403,
      "Ġroads": 8404,
      "Ġtranscended": 8405,
      "Ġstandard": 8406,
      "Ġ16": 8407,
      "Ġsandwiches": 8408,
      "rian": 8409,
      "Ġarguments": 8410,
      "Ġsigned": 8411,
      "Ġmush": 8412,
      "Ġwing": 8413,
      "ĠCustom": 8414,
      "Ġtear": 8415,
      "Ġcouncil": 8416,
      "Ġclin": 8417,
      "Ġsubstant": 8418,
      "Ġexpecting": 8419,
      "Ġthirst": 8420,
      "Ġadopting": 8421,
      "Ġbeans": 8422,
      "Ġcham": 8423,
      "Ġconsiderations": 8424,
      "Ġprofit": 8425,
      "Ġgrocery": 8426,
      "Ġproactive": 8427,
      "Ġlifelong": 8428,
      "Ġprosperity": 8429,
      "Ġharn": 8430,
      "ĠWise": 8431,
      "ĠJan": 8432,
      "Ġstartup": 8433,
      "iating": 8434,
      "Ġcalculating": 8435,
      "Ġdeadlines": 8436,
      "Ġsalad": 8437,
      "Ġstomach": 8438,
      "stream": 8439,
      "Ġwiser": 8440,
      "Ġfav": 8441,
      "ĠSub": 8442,
      "quis": 8443,
      "Mr": 8444,
      "ĠNorth": 8445,
      "Ġcomplicated": 8446,
      "Ġjewelry": 8447,
      "Ġcycle": 8448,
      "Ġok": 8449,
      "essing": 8450,
      "Ġrealistic": 8451,
      "ĠMid": 8452,
      "Ġloving": 8453,
      "rot": 8454,
      "aborate": 8455,
      "Ġinjuries": 8456,
      "Ġunint": 8457,
      "Ġinhabitants": 8458,
      "Ġpillow": 8459,
      "Ġprofile": 8460,
      "Ġevenly": 8461,
      "ĠiP": 8462,
      "Ġaccessories": 8463,
      "Ġvivid": 8464,
      "ĠRedditor": 8465,
      "Ġclubs": 8466,
      "oted": 8467,
      "Ġresolved": 8468,
      "Ġcrisp": 8469,
      "Ġoverhead": 8470,
      "Ġelement": 8471,
      "Ġnations": 8472,
      "Ġamid": 8473,
      "Ġchirp": 8474,
      "Ġmobile": 8475,
      "Ġordered": 8476,
      "Ġpup": 8477,
      "Ġproduced": 8478,
      "that": 8479,
      "Ġsouls": 8480,
      "ĠMill": 8481,
      "ĠChin": 8482,
      "Ġresid": 8483,
      "Just": 8484,
      "Ġcapital": 8485,
      "ĠBel": 8486,
      "Ġcompanion": 8487,
      "Ġorigin": 8488,
      "Ġexped": 8489,
      "Ġprize": 8490,
      "ĠColl": 8491,
      "ĠPrioritize": 8492,
      "ugs": 8493,
      "rec": 8494,
      "Ġburning": 8495,
      "Ġnewspaper": 8496,
      "Ġdesigner": 8497,
      "ĠOb": 8498,
      "Ġmeets": 8499,
      "Ġmushroom": 8500,
      "phone": 8501,
      "ĠPierre": 8502,
      "Ġshells": 8503,
      "Ġglance": 8504,
      "Ġweaknesses": 8505,
      "Ġvarying": 8506,
      "onym": 8507,
      "ĠThankfully": 8508,
      "Ġleather": 8509,
      "Ġguarant": 8510,
      "Ġmummy": 8511,
      "Ġclassmates": 8512,
      "Ġcontr": 8513,
      "Ġwanting": 8514,
      "ĠLinda": 8515,
      "Ġinsignific": 8516,
      "ĠIntern": 8517,
      "Ġemotionally": 8518,
      "Ġconsulting": 8519,
      "Ġsparking": 8520,
      "Ġpleasant": 8521,
      "Ġequations": 8522,
      "bur": 8523,
      "Ġnostalg": 8524,
      "ĠMonitor": 8525,
      "Ġvolcan": 8526,
      "Ġofficials": 8527,
      "Ind": 8528,
      "first": 8529,
      "Ġroar": 8530,
      "Ġventure": 8531,
      "cons": 8532,
      "rum": 8533,
      "ĠBo": 8534,
      "Ġsailed": 8535,
      "Ġcoex": 8536,
      "Ġtowns": 8537,
      "ĠAfrican": 8538,
      "Ġoutdoor": 8539,
      "Ġhonor": 8540,
      "Ġcrazy": 8541,
      "Ġdivide": 8542,
      "bly": 8543,
      "Ġnegatively": 8544,
      "Ġschedules": 8545,
      "Ġunlock": 8546,
      "ĠAlong": 8547,
      "Ġattach": 8548,
      "osis": 8549,
      "amin": 8550,
      "ĠWal": 8551,
      "Ġdiamond": 8552,
      "ti": 8553,
      "ĠMod": 8554,
      "Ġshops": 8555,
      "Ġjazz": 8556,
      "Ġenhances": 8557,
      "Ġalcohol": 8558,
      "Ġaccused": 8559,
      "Ġinvitation": 8560,
      "Ġtroubled": 8561,
      "Ġreaches": 8562,
      "igenous": 8563,
      "Ġaltogether": 8564,
      "Ġsweat": 8565,
      "Ġnail": 8566,
      "Ġappar": 8567,
      "Ġinstitutions": 8568,
      "Ġexperiments": 8569,
      "ĠTrue": 8570,
      "Ġshelves": 8571,
      "Ġmixt": 8572,
      "otion": 8573,
      "Ġignor": 8574,
      "Ġapproximately": 8575,
      "ĠIns": 8576,
      "Ġlesser": 8577,
      "Ġnearly": 8578,
      "ensing": 8579,
      "igs": 8580,
      "Ġadequate": 8581,
      "Ġseriously": 8582,
      "Ġpossibly": 8583,
      "Ġreports": 8584,
      "Ġbanana": 8585,
      "Ġkicked": 8586,
      "Ġallev": 8587,
      "Ġcommerc": 8588,
      "Ġmes": 8589,
      "ĠTest": 8590,
      "yd": 8591,
      "Ġdrank": 8592,
      "Ġpaintings": 8593,
      "AR": 8594,
      "ĠNat": 8595,
      "Ġ/": 8596,
      "Ġpandemic": 8597,
      "ĠVer": 8598,
      "Ġdoctors": 8599,
      "ĠItalian": 8600,
      "Ġenfor": 8601,
      "Ġremoved": 8602,
      "ĠOK": 8603,
      "Ġriding": 8604,
      "Ġfootpr": 8605,
      "ĠCla": 8606,
      "appy": 8607,
      "Ġfrightened": 8608,
      "ĠJour": 8609,
      "Ġshifts": 8610,
      "Ġcomplement": 8611,
      "Ġskilled": 8612,
      "Ġbelonging": 8613,
      "ĠAmaz": 8614,
      "Ġphotography": 8615,
      "Ġfolder": 8616,
      "ĠOnly": 8617,
      "Ġtrips": 8618,
      "Ġpursue": 8619,
      "Ġprofuse": 8620,
      "Ġattic": 8621,
      "Ġversions": 8622,
      "ĠTaking": 8623,
      "Ġenig": 8624,
      "Ġforcing": 8625,
      "Ġsplashed": 8626,
      "Ġutilizing": 8627,
      "guard": 8628,
      "ĠConnect": 8629,
      "ĠFacebook": 8630,
      "Ġreported": 8631,
      "Ġgrappling": 8632,
      "ĠIvan": 8633,
      "Ġcentury": 8634,
      "ID": 8635,
      "Ġparks": 8636,
      "Ġsavings": 8637,
      "Ġkeys": 8638,
      "Ġexpans": 8639,
      "Ġfrequent": 8640,
      "Ġsway": 8641,
      "Ġpopularity": 8642,
      "Ġoppos": 8643,
      "Ġult": 8644,
      "ĠWhiskers": 8645,
      "Ġprevents": 8646,
      "Ġmeasured": 8647,
      "Ġcombinations": 8648,
      "Ġrub": 8649,
      "Ġwidened": 8650,
      "ĠKitty": 8651,
      "Ġpastime": 8652,
      "Ġpepper": 8653,
      "oyal": 8654,
      "Ġprofusely": 8655,
      "Sarah": 8656,
      "Ġorders": 8657,
      "Ġviewers": 8658,
      "Ye": 8659,
      "uses": 8660,
      "orious": 8661,
      "Ġgloves": 8662,
      "Ġbra": 8663,
      "Ġcontainer": 8664,
      "Ġblank": 8665,
      "Ġsteadfast": 8666,
      "Ġinsignificant": 8667,
      "Ġequals": 8668,
      "Ġfountain": 8669,
      "Ġcoverage": 8670,
      "Ġmajestic": 8671,
      "verse": 8672,
      "Ġemails": 8673,
      "tically": 8674,
      "Ġtrapped": 8675,
      "Ġsettle": 8676,
      "Ġlegendary": 8677,
      "Ġvisible": 8678,
      "ĠCO": 8679,
      "Help": 8680,
      "Ġclicked": 8681,
      "ĠDisapp": 8682,
      "Ġoak": 8683,
      "Ġappoint": 8684,
      "ceptions": 8685,
      "ĠFranc": 8686,
      "Ġelectronic": 8687,
      "Ġinterviews": 8688,
      "ĠLight": 8689,
      "Ġminiature": 8690,
      "ĠStill": 8691,
      "Ġsip": 8692,
      "Ġbushes": 8693,
      "Ġdeclared": 8694,
      "Ġsetback": 8695,
      "Ġgap": 8696,
      "Ġimmersed": 8697,
      "Tr": 8698,
      "Ġblow": 8699,
      "Ġsteaming": 8700,
      "Ġfailures": 8701,
      "ĠDI": 8702,
      "Ġsplit": 8703,
      "Ġ\\": 8704,
      "ĠRoman": 8705,
      "Ġpace": 8706,
      "Ġshrugged": 8707,
      "Ġviolence": 8708,
      "Ġwhale": 8709,
      "Ġsadly": 8710,
      "Ġhers": 8711,
      "Ġlinguistic": 8712,
      "Ġbump": 8713,
      "Ġregret": 8714,
      "ĠApple": 8715,
      "Ġadmire": 8716,
      "Ġadminist": 8717,
      "ĠAh": 8718,
      "ĠOrgan": 8719,
      "Ġextend": 8720,
      "Ġpowers": 8721,
      "Ġunr": 8722,
      "Ġcontributes": 8723,
      "Ġcherish": 8724,
      "Ġadvert": 8725,
      "Ġexamining": 8726,
      "Ġgram": 8727,
      "Ġacorn": 8728,
      "ointed": 8729,
      "Ġmentors": 8730,
      "Ġlik": 8731,
      "Ġhors": 8732,
      "ĠEmb": 8733,
      "rical": 8734,
      "Ġintrospect": 8735,
      "Ġtexts": 8736,
      "Ġlend": 8737,
      "oa": 8738,
      "bris": 8739,
      "Ġschedul": 8740,
      "Ġselection": 8741,
      "Ġsilently": 8742,
      "ĠâĢ¢": 8743,
      "ĠPerform": 8744,
      "ĠBuilding": 8745,
      "Ġthrowing": 8746,
      "Ġ_": 8747,
      "Ġflourished": 8748,
      "Ġunpredictable": 8749,
      "Ġteaches": 8750,
      "rie": 8751,
      "ĠMichael": 8752,
      "Ġphilosop": 8753,
      "Ġsacred": 8754,
      "nament": 8755,
      "Ġsweetie": 8756,
      "ĠPenny": 8757,
      "kward": 8758,
      "Ġboots": 8759,
      "Ġhose": 8760,
      "Ġconcerning": 8761,
      "bel": 8762,
      "Ġfridge": 8763,
      "Ġprocedures": 8764,
      "Ġundersc": 8765,
      "mn": 8766,
      "ĠMexic": 8767,
      "Ġunderlying": 8768,
      "Ġsetup": 8769,
      "Ġtelev": 8770,
      "Ġremembering": 8771,
      "Ġtab": 8772,
      "Ġmaps": 8773,
      "ĠChina": 8774,
      "Ġcurtain": 8775,
      "Ġinsects": 8776,
      "han": 8777,
      "ĠHir": 8778,
      "Ġcounsel": 8779,
      "riching": 8780,
      "depth": 8781,
      "Ġinstalled": 8782,
      "Ġstake": 8783,
      "Ġdisappear": 8784,
      "Ġaccountability": 8785,
      "Ġvulnerable": 8786,
      "Ġadvocate": 8787,
      "oli": 8788,
      "Ġprofits": 8789,
      "Ġappreh": 8790,
      "ker": 8791,
      "Ġpod": 8792,
      "ĠSophie": 8793,
      "Ġdisplaying": 8794,
      "Ġenriching": 8795,
      "Ġscour": 8796,
      "Ġaudio": 8797,
      "Ġshiver": 8798,
      "Ġcourses": 8799,
      "Ġhello": 8800,
      "Ġrallied": 8801,
      "allow": 8802,
      "Ġmoms": 8803,
      "ship": 8804,
      "Ġbottles": 8805,
      "Ġmeasuring": 8806,
      "Ġphotographs": 8807,
      "Ġpound": 8808,
      "Ġdrinking": 8809,
      "Ġdoubt": 8810,
      "gged": 8811,
      "Ġrumors": 8812,
      "irled": 8813,
      "Ġpale": 8814,
      "Ġtub": 8815,
      "Ġvit": 8816,
      "Ġappealing": 8817,
      "ĠEllie": 8818,
      "Ġstands": 8819,
      "Ġinvite": 8820,
      "Ġprocessing": 8821,
      "Ġdistances": 8822,
      "Ġpromotes": 8823,
      "Ġwand": 8824,
      "Ġstern": 8825,
      "Ġhyp": 8826,
      "Ġmicro": 8827,
      "Ġdanc": 8828,
      "rowed": 8829,
      "ĠSecondly": 8830,
      "Ġbrands": 8831,
      "ĠMuse": 8832,
      "ĠDou": 8833,
      "Ġcompos": 8834,
      "ĠVict": 8835,
      "Ġvendor": 8836,
      "Ġspices": 8837,
      "Ġdevelopers": 8838,
      "Ġconcrete": 8839,
      "Ġresem": 8840,
      "Ġparalle": 8841,
      "Ġpiano": 8842,
      "ĠPal": 8843,
      "ĠNon": 8844,
      "omething": 8845,
      "estone": 8846,
      "12": 8847,
      "Ġemissions": 8848,
      "Ġsubstantial": 8849,
      "estern": 8850,
      "Ġsmelly": 8851,
      "roat": 8852,
      "Ġdemands": 8853,
      "Ġnodding": 8854,
      "bul": 8855,
      "ographer": 8856,
      "Ġstretched": 8857,
      "ita": 8858,
      "ĠGre": 8859,
      "Ġhopes": 8860,
      "ĠSaf": 8861,
      "Ġguest": 8862,
      "oshi": 8863,
      "Ġindo": 8864,
      "plane": 8865,
      "Ġattractive": 8866,
      "ĠAdjust": 8867,
      "Ġsche": 8868,
      "Ġdreaming": 8869,
      "Ġerupted": 8870,
      "sters": 8871,
      "Ġample": 8872,
      "zer": 8873,
      "Ġrows": 8874,
      "Ġcompar": 8875,
      "struct": 8876,
      "Ġaccidents": 8877,
      "ĠJac": 8878,
      "Ġanalyt": 8879,
      "Ġremoving": 8880,
      "Ġhey": 8881,
      "Ġinstrument": 8882,
      "Ġanyway": 8883,
      "Ġrobust": 8884,
      "ĠDem": 8885,
      "Ġcolon": 8886,
      "araway": 8887,
      "ĠEli": 8888,
      "Ġdeepened": 8889,
      "ĠFriends": 8890,
      "Ġcategories": 8891,
      "Ġmentor": 8892,
      "ĠLola": 8893,
      "overing": 8894,
      "Ġconducting": 8895,
      "onomy": 8896,
      "ĠProt": 8897,
      "ĠGive": 8898,
      "Ġfurrowed": 8899,
      "Ġmesmer": 8900,
      "Ġtourism": 8901,
      "ynth": 8902,
      "Ġtrib": 8903,
      "Ġpondering": 8904,
      "Ġdelivering": 8905,
      "Ġfisher": 8906,
      "Ġcroc": 8907,
      "ĠSund": 8908,
      "Ġstrings": 8909,
      "ĠAlso": 8910,
      "Ġcuts": 8911,
      "iona": 8912,
      "uke": 8913,
      "Ġformal": 8914,
      "Ġtickets": 8915,
      "Ġgenerate": 8916,
      "corn": 8917,
      "Ġreluctantly": 8918,
      "Exc": 8919,
      "Ġhurts": 8920,
      "Ġprompting": 8921,
      "Ġaccessibility": 8922,
      "Ġshoot": 8923,
      "ĠQue": 8924,
      "Ġdessert": 8925,
      "llie": 8926,
      "Ġadorable": 8927,
      "Ġlacked": 8928,
      "Ġsailing": 8929,
      "Ġinfluenced": 8930,
      "Ġfaded": 8931,
      "Ġrescue": 8932,
      "Yeah": 8933,
      "Ġlurking": 8934,
      "Ġturmo": 8935,
      "Ġjacket": 8936,
      "Ġunwanted": 8937,
      "Ġneedle": 8938,
      "Ġstreaming": 8939,
      "Ġtense": 8940,
      "Ġtruths": 8941,
      "Go": 8942,
      "Ġentry": 8943,
      "Ġnicely": 8944,
      "umbling": 8945,
      "Ġranging": 8946,
      "Ġcommercial": 8947,
      "Ġturmoil": 8948,
      "Ġrefining": 8949,
      "Ġgloom": 8950,
      "Ġdeveloper": 8951,
      "Ġlip": 8952,
      "Ġhistoric": 8953,
      "Ġink": 8954,
      "eks": 8955,
      "amm": 8956,
      "Ġchatting": 8957,
      "Ġpartnership": 8958,
      "Ġtiger": 8959,
      "Ġwillingness": 8960,
      "through": 8961,
      "Ġmarks": 8962,
      "ĠMem": 8963,
      "Ġextr": 8964,
      "flower": 8965,
      "Ġpasseng": 8966,
      "Ġcolored": 8967,
      "ested": 8968,
      "Ġgreatest": 8969,
      "Ġprotocol": 8970,
      "Ġaspirations": 8971,
      "Ġsex": 8972,
      "Ġrigor": 8973,
      "Ġgod": 8974,
      "Ġlicked": 8975,
      "Ġcodes": 8976,
      "Ġrod": 8977,
      "Ġregions": 8978,
      "Ġcoal": 8979,
      "Ġathletes": 8980,
      "Ġfaraway": 8981,
      "eak": 8982,
      "Ġamazement": 8983,
      "Ã¡": 8984,
      "Ġstove": 8985,
      "Ġconventional": 8986,
      "Ġsteel": 8987,
      "anqu": 8988,
      "otton": 8989,
      "Ġrubber": 8990,
      "Ġconvenience": 8991,
      "Ġversus": 8992,
      "hness": 8993,
      "ĠHearing": 8994,
      "long": 8995,
      "Ġallerg": 8996,
      "Ġbother": 8997,
      "Ġstack": 8998,
      "Ġteachings": 8999,
      "ĠPu": 9000,
      "Ġtrial": 9001,
      "Ġprow": 9002,
      "gers": 9003,
      "Ġawkward": 9004,
      "well": 9005,
      "Ġconcert": 9006,
      "Ġdescript": 9007,
      "Ġvictories": 9008,
      "Ġsnee": 9009,
      "Ġpopulations": 9010,
      "ĠEnter": 9011,
      "Ġcerem": 9012,
      "Ġconvinced": 9013,
      "Ġfloating": 9014,
      "Ġgaining": 9015,
      "zen": 9016,
      "Ġspell": 9017,
      "Ġadds": 9018,
      "Ġbreeze": 9019,
      "Ġax": 9020,
      "isingly": 9021,
      "Ġresilient": 9022,
      "Ġpeak": 9023,
      "outer": 9024,
      "Ġsunset": 9025,
      "Ġformula": 9026,
      "ĠHad": 9027,
      "ĠCEO": 9028,
      "Ġgreatly": 9029,
      "ĠAltern": 9030,
      "Ġskies": 9031,
      "izer": 9032,
      "Ġconfirmed": 9033,
      "Ġrestrictions": 9034,
      "anas": 9035,
      "Ġknight": 9036,
      "Ġextract": 9037,
      "Ġsy": 9038,
      "ĠContin": 9039,
      "ĠChinese": 9040,
      "Ġward": 9041,
      "Ġopinion": 9042,
      "actions": 9043,
      "AT": 9044,
      "Ġendeavors": 9045,
      "Ġbrace": 9046,
      "Ġpraising": 9047,
      "Ġshades": 9048,
      "Ġrivers": 9049,
      "Ġaligned": 9050,
      "Ġtranslation": 9051,
      "Ġrail": 9052,
      "lection": 9053,
      "rep": 9054,
      "ĠChris": 9055,
      "Ġmos": 9056,
      "Ġairport": 9057,
      "Ġsecuring": 9058,
      "Ġfeared": 9059,
      "ĠEliz": 9060,
      "otted": 9061,
      "Ġdiseases": 9062,
      "opard": 9063,
      "Ġvisits": 9064,
      "https": 9065,
      "ician": 9066,
      "arks": 9067,
      "ometown": 9068,
      "Ġdried": 9069,
      "Ġcues": 9070,
      "list": 9071,
      "?\".": 9072,
      "Ġfreshly": 9073,
      "Ġroute": 9074,
      "neath": 9075,
      "Ġtriumphs": 9076,
      "Ġreligion": 9077,
      "Ġagriculture": 9078,
      "icians": 9079,
      "ĠFest": 9080,
      "ĠDIY": 9081,
      "oration": 9082,
      "Ġrow": 9083,
      "Ġbaseball": 9084,
      "Ġdramatically": 9085,
      "ĠSl": 9086,
      "izers": 9087,
      "ĠMandy": 9088,
      "Ġdesignated": 9089,
      "Ġhurdles": 9090,
      "Guideline": 9091,
[...]
